{
  "version": "1.0",
  "truncation": null,
  "padding": null,
  "added_tokens": [
    {
      "id": 0,
      "content": "[UNK]",
      "single_word": false,
      "lstrip": false,
      "rstrip": false,
      "normalized": false,
      "special": true
    },
    {
      "id": 1,
      "content": "[PAD]",
      "single_word": false,
      "lstrip": false,
      "rstrip": false,
      "normalized": false,
      "special": true
    },
    {
      "id": 2,
      "content": "[SOS]",
      "single_word": false,
      "lstrip": false,
      "rstrip": false,
      "normalized": false,
      "special": true
    },
    {
      "id": 3,
      "content": "[EOS]",
      "single_word": false,
      "lstrip": false,
      "rstrip": false,
      "normalized": false,
      "special": true
    }
  ],
  "normalizer": {
    "type": "Sequence",
    "normalizers": [
      {
        "type": "NFKC"
      },
      {
        "type": "Lowercase"
      }
    ]
  },
  "pre_tokenizer": {
    "type": "Whitespace"
  },
  "post_processor": null,
  "decoder": null,
  "model": {
    "type": "BPE",
    "dropout": null,
    "unk_token": "[UNK]",
    "continuing_subword_prefix": null,
    "end_of_word_suffix": null,
    "fuse_unk": false,
    "byte_fallback": false,
    "ignore_merges": false,
    "vocab": {
      "[UNK]": 0,
      "[PAD]": 1,
      "[SOS]": 2,
      "[EOS]": 3,
      "'": 4,
      ",": 5,
      "-": 6,
      ".": 7,
      "0": 8,
      "1": 9,
      "2": 10,
      "3": 11,
      "4": 12,
      "5": 13,
      "6": 14,
      "7": 15,
      "8": 16,
      "9": 17,
      ":": 18,
      "?": 19,
      "[": 20,
      "]": 21,
      "_": 22,
      "a": 23,
      "b": 24,
      "c": 25,
      "e": 26,
      "f": 27,
      "g": 28,
      "i": 29,
      "k": 30,
      "l": 31,
      "m": 32,
      "n": 33,
      "o": 34,
      "p": 35,
      "r": 36,
      "s": 37,
      "t": 38,
      "u": 39,
      "v": 40,
      "x": 41,
      "y": 42,
      "ँ": 43,
      "ं": 44,
      "ः": 45,
      "अ": 46,
      "आ": 47,
      "इ": 48,
      "ई": 49,
      "उ": 50,
      "ऊ": 51,
      "ऋ": 52,
      "ए": 53,
      "ऐ": 54,
      "ऑ": 55,
      "ओ": 56,
      "औ": 57,
      "क": 58,
      "ख": 59,
      "ग": 60,
      "घ": 61,
      "च": 62,
      "छ": 63,
      "ज": 64,
      "झ": 65,
      "ञ": 66,
      "ट": 67,
      "ठ": 68,
      "ड": 69,
      "ढ": 70,
      "ण": 71,
      "त": 72,
      "थ": 73,
      "द": 74,
      "ध": 75,
      "न": 76,
      "प": 77,
      "फ": 78,
      "ब": 79,
      "भ": 80,
      "म": 81,
      "य": 82,
      "र": 83,
      "ल": 84,
      "व": 85,
      "श": 86,
      "ष": 87,
      "स": 88,
      "ह": 89,
      "़": 90,
      "ा": 91,
      "ि": 92,
      "ी": 93,
      "ु": 94,
      "ू": 95,
      "ृ": 96,
      "े": 97,
      "ै": 98,
      "ॉ": 99,
      "ो": 100,
      "ौ": 101,
      "्": 102,
      "।": 103,
      "​": 104,
      "है": 105,
      "कि": 106,
      "मे": 107,
      "ने": 108,
      "से": 109,
      "और": 110,
      "के": 111,
      "ता": 112,
      "कर": 113,
      "या": 114,
      "में": 115,
      "आप": 116,
      "हैं": 117,
      "ैं": 118,
      "मैं": 119,
      "ार": 120,
      "ही": 121,
      "ों": 122,
      "ना": 123,
      "ते": 124,
      "क्": 125,
      "को": 126,
      "यह": 127,
      "सा": 128,
      "स्": 129,
      "का": 130,
      "रह": 131,
      "्र": 132,
      "लि": 133,
      "की": 134,
      "ूं": 135,
      "जा": 136,
      "हीं": 137,
      "इस": 138,
      "्य": 139,
      "नहीं": 140,
      "एक": 141,
      "हो": 142,
      "हूं": 143,
      "वा": 144,
      "मु": 145,
      "लिए": 146,
      "था": 147,
      "ले": 148,
      "भी": 149,
      "मुझ": 150,
      "पर": 151,
      "मुझे": 152,
      "र्": 153,
      "जो": 154,
      "हा": 155,
      "मेर": 156,
      "प्र": 157,
      "िक": 158,
      "ें": 159,
      "हु": 160,
      "लग": 161,
      "अप": 162,
      "दि": 163,
      "मा": 164,
      "स्त": 165,
      "ड़": 166,
      "उन": 167,
      "दे": 168,
      "वि": 169,
      "बा": 170,
      "कु": 171,
      "हम": 172,
      "रू": 173,
      "जि": 174,
      "ला": 175,
      "उस": 176,
      "यों": 177,
      "चा": 178,
      "सं": 179,
      "ति": 180,
      "ोग": 181,
      "वह": 182,
      "रहा": 183,
      "जान": 184,
      "मेरे": 185,
      "पा": 186,
      "ची": 187,
      "मैंने": 188,
      "ारे": 189,
      "नि": 190,
      "सम": 191,
      "कुछ": 192,
      "करने": 193,
      "तो": 194,
      "ऐसा": 195,
      "कार": 196,
      "ित": 197,
      "क्यों": 198,
      "सी": 199,
      "सक": 200,
      "नी": 201,
      "त्": 202,
      "वे": 203,
      "बहु": 204,
      "बहुत": 205,
      "चीज": 206,
      "शा": 207,
      "अपने": 208,
      "री": 209,
      "तरह": 210,
      "जब": 211,
      "जी": 212,
      "लोग": 213,
      "चाह": 214,
      "क्या": 215,
      "किन": 216,
      "लेकिन": 217,
      "जानते": 218,
      "वास्त": 219,
      "रूप": 220,
      "वास्तव": 221,
      "ती": 222,
      "रा": 223,
      "गा": 224,
      "पू": 225,
      "आपको": 226,
      "क्योंकि": 227,
      "च्": 228,
      "बारे": 229,
      "सो": 230,
      "लगता": 231,
      "जै": 232,
      "श्": 233,
      "क्ष": 234,
      "करना": 235,
      "साथ": 236,
      "हां": 237,
      "अध": 238,
      "इसलिए": 239,
      "रहे": 240,
      "मि": 241,
      "किया": 242,
      "व्य": 243,
      "करते": 244,
      "सब": 245,
      "खा": 246,
      "बात": 247,
      "ल्": 248,
      "आपके": 249,
      "इसे": 250,
      "वन": 251,
      "्ह": 252,
      "भा": 253,
      "गे": 254,
      "मान": 255,
      "खु": 256,
      "जीवन": 257,
      "पास": 258,
      "च्छ": 259,
      "ली": 260,
      "मह": 261,
      "समय": 262,
      "ंद": 263,
      "गया": 264,
      "करता": 265,
      "तक": 266,
      "अन": 267,
      "बि": 268,
      "अधिक": 269,
      "्या": 270,
      "अच्छ": 271,
      "हर": 272,
      "स्ट": 273,
      "कह": 274,
      "थे": 275,
      "पह": 276,
      "सु": 277,
      "काम": 278,
      "उम": 279,
      "ंत": 280,
      "सोच": 281,
      "िर": 282,
      "लोगों": 283,
      "सकता": 284,
      "किसी": 285,
      "उन्ह": 286,
      "जिस": 287,
      "थी": 288,
      "सि": 289,
      "ष्": 290,
      "द्": 291,
      "क्ति": 292,
      "प्": 293,
      "जैसे": 294,
      "यदि": 295,
      "ूस": 296,
      "ड़ा": 297,
      "सभी": 298,
      "देख": 299,
      "होता": 300,
      "दा": 301,
      "कभी": 302,
      "सकते": 303,
      "सबसे": 304,
      "कहा": 305,
      "र्ण": 306,
      "कोई": 307,
      "आद": 308,
      "बना": 309,
      "खुद": 310,
      "दिया": 311,
      "कम": 312,
      "संद": 313,
      "दो": 314,
      "ारी": 315,
      "तना": 316,
      "फिर": 317,
      "शु": 318,
      "करें": 319,
      "हाँ": 320,
      "कै": 321,
      "ढ़": 322,
      "त्म": 323,
      "रे": 324,
      "व्यक्ति": 325,
      "अनु": 326,
      "एं": 327,
      "पता": 328,
      "पसंद": 329,
      "मेरा": 330,
      "ूल": 331,
      "अच्छा": 332,
      "चाहता": 333,
      "अब": 334,
      "चीजों": 335,
      "पहले": 336,
      "होगा": 337,
      "कारण": 338,
      "अग": 339,
      "भाव": 340,
      "शि": 341,
      "दी": 342,
      "सूस": 343,
      "ार्": 344,
      "जिन": 345,
      "महसूस": 346,
      "गी": 347,
      "पि": 348,
      "इसके": 349,
      "अपनी": 350,
      "ज्": 351,
      "दिन": 352,
      "रि": 353,
      "्रा": 354,
      "मेरी": 355,
      "शुरू": 356,
      "ंच": 357,
      "बद": 358,
      "होने": 359,
      "सर": 360,
      "चाहते": 361,
      "अभी": 362,
      "रख": 363,
      "ज्ञ": 364,
      "मत": 365,
      "प्रति": 366,
      "यही": 367,
      "छो": 368,
      "आदत": 369,
      "अलग": 370,
      "स्थ": 371,
      "उन्हें": 372,
      "बस": 373,
      "जैसा": 374,
      "तु": 375,
      "रो": 376,
      "ॉड": 377,
      "जाता": 378,
      "चार": 379,
      "चीजें": 380,
      "जन": 381,
      "यद": 382,
      "आपने": 383,
      "शायद": 384,
      "तर": 385,
      "बे": 386,
      "बार": 387,
      "र्ष": 388,
      "त्व": 389,
      "पूर्ण": 390,
      "ष्ट": 391,
      "पी": 392,
      "बन": 393,
      "ज्ञा": 394,
      "ीक": 395,
      "स्व": 396,
      "परि": 397,
      "मिल": 398,
      "हमे": 399,
      "साल": 400,
      "हमेशा": 401,
      "दु": 402,
      "ोंने": 403,
      "हुआ": 404,
      "समझ": 405,
      "जहां": 406,
      "कैसे": 407,
      "कोशि": 408,
      "हमारे": 409,
      "श्च": 410,
      "कोशिश": 411,
      "इन": 412,
      "टी": 413,
      "मी": 414,
      "योग": 415,
      "श्य": 416,
      "पु": 417,
      "णा": 418,
      "लगा": 419,
      "विश्": 420,
      "ठीक": 421,
      "लब": 422,
      "डा": 423,
      "बता": 424,
      "कास्ट": 425,
      "बदल": 426,
      "उनके": 427,
      "िए": 428,
      "आपकी": 429,
      "शे": 430,
      "उप": 431,
      "फल": 432,
      "वै": 433,
      "अपना": 434,
      "ड़ी": 435,
      "हों": 436,
      "प्रा": 437,
      "जिसे": 438,
      "उन्होंने": 439,
      "चि": 440,
      "ज़": 441,
      "थो": 442,
      "पॉड": 443,
      "पॉडकास्ट": 444,
      "पै": 445,
      "प्त": 446,
      "अगर": 447,
      "ज्ञान": 448,
      "ऐसे": 449,
      "महत्व": 450,
      "ंड": 451,
      "निया": 452,
      "चाहिए": 453,
      "बाद": 454,
      "खुश": 455,
      "टा": 456,
      "मूल": 457,
      "इसका": 458,
      "वास": 459,
      "कता": 460,
      "पस": 461,
      "वहां": 462,
      "प्रे": 463,
      "ंग": 464,
      "चे": 465,
      "यन": 466,
      "वापस": 467,
      "निश्च": 468,
      "निश्चित": 469,
      "चीज़": 470,
      "पूरी": 471,
      "मतलब": 472,
      "आत्म": 473,
      "मन": 474,
      "वार": 475,
      "इससे": 476,
      "ड़े": 477,
      "विचार": 478,
      "द्ध": 479,
      "होते": 480,
      "देखा": 481,
      "दुनिया": 482,
      "टे": 483,
      "वसा": 484,
      "कई": 485,
      "चल": 486,
      "भग": 487,
      "लक्ष": 488,
      "स्वा": 489,
      "्यू": 490,
      "कुल": 491,
      "बिल्": 492,
      "महत्वपूर्ण": 493,
      "पहु": 494,
      "भव": 495,
      "अन्य": 496,
      "उसे": 497,
      "ओं": 498,
      "सफल": 499,
      "होती": 500,
      "बिल्कुल": 501,
      "िन": 502,
      "प्रश्": 503,
      "ल्प": 504,
      "प्रश्न": 505,
      "पूछ": 506,
      "चु": 507,
      "बी": 508,
      "लो": 509,
      "र्फ": 510,
      "स्ति": 511,
      "्यान": 512,
      "डि": 513,
      "मस्ति": 514,
      "यो": 515,
      "स्प": 516,
      "ेंगे": 517,
      "सिर्फ": 518,
      "ष्क": 519,
      "थोड़ा": 520,
      "मस्तिष्क": 521,
      "वर्ष": 522,
      "ूँ": 523,
      "आपका": 524,
      "यहा": 525,
      "लिया": 526,
      "होना": 527,
      "विशे": 528,
      "सुन": 529,
      "भावना": 530,
      "विशेष": 531,
      "उत्": 532,
      "गल": 533,
      "तरी": 534,
      "फी": 535,
      "बड़ा": 536,
      "जाते": 537,
      "देता": 538,
      "ंध": 539,
      "ध्यान": 540,
      "बै": 541,
      "बढ़": 542,
      "रु": 543,
      "याद": 544,
      "निय": 545,
      "प्रेर": 546,
      "लक्ष्य": 547,
      "वी": 548,
      "उसके": 549,
      "दोस्त": 550,
      "आव": 551,
      "गए": 552,
      "भु": 553,
      "सही": 554,
      "उम्": 555,
      "चिं": 556,
      "धार": 557,
      "यू": 558,
      "क्रि": 559,
      "इसमें": 560,
      "हुए": 561,
      "लगभग": 562,
      "अच्छी": 563,
      "सोचते": 564,
      "गई": 565,
      "गह": 566,
      "रत": 567,
      "सान": 568,
      "ईमान": 569,
      "कौ": 570,
      "टि": 571,
      "मूल्य": 572,
      "आवश्य": 573,
      "ईमानद": 574,
      "कठ": 575,
      "रिक": 576,
      "शल": 577,
      "काफी": 578,
      "ूंगा": 579,
      "ंत्र": 580,
      "यहां": 581,
      "बैठ": 582,
      "दूस": 583,
      "नौ": 584,
      "यर": 585,
      "रही": 586,
      "हमें": 587,
      "जाए": 588,
      "जाने": 589,
      "वाला": 590,
      "वहार": 591,
      "निर्ण": 592,
      "क्षा": 593,
      "व्यवसा": 594,
      "प्ता": 595,
      "छोड़": 596,
      "पहुंच": 597,
      "अव": 598,
      "अंत": 599,
      "वही": 600,
      "हमने": 601,
      "व्यवहार": 602,
      "भाग": 603,
      "तब": 604,
      "दद": 605,
      "बच्": 606,
      "बंध": 607,
      "मदद": 608,
      "सप्ता": 609,
      "हूँ": 610,
      "क्षण": 611,
      "क्षम": 612,
      "ंद्र": 613,
      "खे": 614,
      "चला": 615,
      "शन": 616,
      "हि": 617,
      "ौर": 618,
      "केंद्र": 619,
      "र्थ": 620,
      "प्रभाव": 621,
      "कहते": 622,
      "आवश्यकता": 623,
      "व्यवसाय": 624,
      "बर": 625,
      "बो": 626,
      "वल": 627,
      "जाना": 628,
      "बाहर": 629,
      "ंदु": 630,
      "बिंदु": 631,
      "विश्वास": 632,
      "निर्णय": 633,
      "बु": 634,
      "कर्": 635,
      "वाले": 636,
      "दिमा": 637,
      "चिंता": 638,
      "दिमाग": 639,
      "इतना": 640,
      "गु": 641,
      "केवल": 642,
      "्हें": 643,
      "त्मक": 644,
      "उपयोग": 645,
      "प्राप्त": 646,
      "कठिन": 647,
      "दृ": 648,
      "इसने": 649,
      "बनाने": 650,
      "करेंगे": 651,
      "पिछ": 652,
      "कहूं": 653,
      "कल्प": 654,
      "जु": 655,
      "ट्र": 656,
      "शो": 657,
      "​​": 658,
      "स्क": 659,
      "वाल": 660,
      "वास्तविक": 661,
      "बिना": 662,
      "स्पष्ट": 663,
      "20": 664,
      "खो": 665,
      "पन": 666,
      "सच": 667,
      "्ययन": 668,
      "विष": 669,
      "उसने": 670,
      "जानता": 671,
      "अध्ययन": 672,
      "उम्म": 673,
      "जे": 674,
      "तः": 675,
      "पो": 676,
      "मार्": 677,
      "ैया": 678,
      "उनमें": 679,
      "जिम": 680,
      "सोचता": 681,
      "पीछ": 682,
      "10": 683,
      "धन": 684,
      "पढ़": 685,
      "भू": 686,
      "ूर": 687,
      "मुझसे": 688,
      "माज": 689,
      "सोचा": 690,
      "मिला": 691,
      "एंगे": 692,
      "ऊं": 693,
      "जगह": 694,
      "ध्य": 695,
      "सला": 696,
      "देने": 697,
      "पूरे": 698,
      "अनुभव": 699,
      "तुम": 700,
      "ष्टि": 701,
      "क्रिया": 702,
      "सप्ताह": 703,
      "पिछले": 704,
      "खि": 705,
      "त्य": 706,
      "दर्": 707,
      "फि": 708,
      "सिक": 709,
      "वाद": 710,
      "वाली": 711,
      "कहता": 712,
      "भाग्य": 713,
      "हिस्": 714,
      "आगे": 715,
      "आसान": 716,
      "धा": 717,
      "पे": 718,
      "लॉ": 719,
      "लना": 720,
      "वर्": 721,
      "सवाल": 722,
      "हसा": 723,
      "ूम": 724,
      "नाम": 725,
      "तें": 726,
      "साम": 727,
      "स्तर": 728,
      "कारी": 729,
      "सरल": 730,
      "डाय": 731,
      "हसास": 732,
      "घर": 733,
      "टर": 734,
      "पड़": 735,
      "बड़े": 736,
      "मित": 737,
      "ये": 738,
      "शक्ति": 739,
      "हद": 740,
      "िति": 741,
      "ताब": 742,
      "स्था": 743,
      "होगी": 744,
      "निर्": 745,
      "स्थ्य": 746,
      "स्थिति": 747,
      "स्वास्थ्य": 748,
      "अक्": 749,
      "इं": 750,
      "चना": 751,
      "तों": 752,
      "त्रा": 753,
      "दौ": 754,
      "नों": 755,
      "मौ": 756,
      "लं": 757,
      "विक": 758,
      "लिख": 759,
      "देते": 760,
      "विज्ञान": 761,
      "वैज्ञान": 762,
      "खुशी": 763,
      "वैज्ञानिक": 764,
      "कों": 765,
      "गत": 766,
      "घर्ष": 767,
      "डर": 768,
      "बड़ी": 769,
      "वजन": 770,
      "शर्": 771,
      "सार": 772,
      "किताब": 773,
      "आपसे": 774,
      "लिक": 775,
      "परी": 776,
      "कारा": 777,
      "जिसके": 778,
      "विश्व": 779,
      "मनो": 780,
      "यूट": 781,
      "केंद्रित": 782,
      "सलाह": 783,
      "आने": 784,
      "एहसास": 785,
      "त्र": 786,
      "ब्रा": 787,
      "मिक": 788,
      "यक": 789,
      "रण": 790,
      "्स": 791,
      "प्रकार": 792,
      "माध्य": 793,
      "चीत": 794,
      "बातचीत": 795,
      "मानसिक": 796,
      "द्वार": 797,
      "देखते": 798,
      "बनना": 799,
      "नियंत्र": 800,
      "पीछे": 801,
      "यूट्यू": 802,
      "कहीं": 803,
      "तन": 804,
      "धि": 805,
      "श्र": 806,
      "सक्षम": 807,
      "ूह": 808,
      "रहते": 809,
      "परे": 810,
      "उनकी": 811,
      "रूरत": 812,
      "पहली": 813,
      "देखने": 814,
      "होंगे": 815,
      "वर्षों": 816,
      "ईमानदारी": 817,
      "डायरी": 818,
      "द्वारा": 819,
      "ग्र": 820,
      "नए": 821,
      "क्र": 822,
      "सुर": 823,
      "जिन्हें": 824,
      "तरीके": 825,
      "ब्रांड": 826,
      "यूट्यूब": 827,
      "आंत": 828,
      "ऐसी": 829,
      "ओर": 830,
      "कृ": 831,
      "ग्रा": 832,
      "नई": 833,
      "बंद": 834,
      "व्या": 835,
      "सामाज": 836,
      "स्या": 837,
      "ड़ने": 838,
      "जितना": 839,
      "संघर्ष": 840,
      "शामिल": 841,
      "बेह": 842,
      "प्रेरणा": 843,
      "दोस्तों": 844,
      "अक्सर": 845,
      "आंतरिक": 846,
      "सामाजिक": 847,
      "ंस": 848,
      "आज": 849,
      "आया": 850,
      "जार": 851,
      "ब्": 852,
      "भर": 853,
      "मही": 854,
      "महा": 855,
      "यात्रा": 856,
      "्यवाद": 857,
      "लेट": 858,
      "र्व": 859,
      "प्रया": 860,
      "दिखा": 861,
      "उससे": 862,
      "संबंध": 863,
      "जानकारी": 864,
      "समस्या": 865,
      "शाली": 866,
      "आदतों": 867,
      "सफलता": 868,
      "बीच": 869,
      "कौन": 870,
      "धन्यवाद": 871,
      "परेशा": 872,
      "बेहतर": 873,
      "अद्": 874,
      "उदा": 875,
      "कं": 876,
      "डी": 877,
      "तनी": 878,
      "तार": 879,
      "सामान": 880,
      "वान": 881,
      "हुई": 882,
      "देश": 883,
      "कार्य": 884,
      "सोशल": 885,
      "्याल": 886,
      "कहना": 887,
      "सिद्ध": 888,
      "पिता": 889,
      "प्रयास": 890,
      "अजी": 891,
      "आता": 892,
      "कवास": 893,
      "ठा": 894,
      "बह": 895,
      "बकवास": 896,
      "हरी": 897,
      "सीख": 898,
      "नीय": 899,
      "ंदर": 900,
      "अच्छे": 901,
      "थीं": 902,
      "दान": 903,
      "जिनके": 904,
      "परिणा": 905,
      "वैसा": 906,
      "खेल": 907,
      "ऊंगा": 908,
      "फिट": 909,
      "हिस्सा": 910,
      "माध्यम": 911,
      "अजीब": 912,
      "परिणाम": 913,
      "अर्थ": 914,
      "घं": 915,
      "जना": 916,
      "झा": 917,
      "बच": 918,
      "हार": 919,
      "ैन": 920,
      "किस": 921,
      "पर्या": 922,
      "विपरी": 923,
      "संभव": 924,
      "उम्र": 925,
      "सिल": 926,
      "द्दे": 927,
      "तनाव": 928,
      "व्यक्तिगत": 929,
      "ार्थ": 930,
      "दूसरे": 931,
      "अंततः": 932,
      "विपरीत": 933,
      "उह": 934,
      "कहां": 935,
      "तने": 936,
      "दें": 937,
      "फा": 938,
      "फ्": 939,
      "भो": 940,
      "सारे": 941,
      "कालिक": 942,
      "रहने": 943,
      "रहना": 944,
      "इसकी": 945,
      "माम": 946,
      "संतु": 947,
      "संकल्प": 948,
      "राब": 949,
      "शुरु": 950,
      "प्रतिक्रिया": 951,
      "उत्तर": 952,
      "भुत": 953,
      "परेशान": 954,
      "अद्भुत": 955,
      "शुरुआ": 956,
      "उतना": 957,
      "एपि": 958,
      "खरी": 959,
      "गति": 960,
      "जू": 961,
      "डे": 962,
      "तैया": 963,
      "दया": 964,
      "दबा": 965,
      "पक": 966,
      "मो": 967,
      "मति": 968,
      "यु": 969,
      "र्य": 970,
      "लू": 971,
      "सह": 972,
      "सारी": 973,
      "ॉक": 974,
      "करण": 975,
      "करि": 976,
      "क्त": 977,
      "लेने": 978,
      "हासिल": 979,
      "देना": 980,
      "सकती": 981,
      "चाहे": 982,
      "मिन": 983,
      "बिता": 984,
      "सोचने": 985,
      "आदतें": 986,
      "कमी": 987,
      "अनुमति": 988,
      "रिश्": 989,
      "टीम": 990,
      "गलत": 991,
      "प्रेरित": 992,
      "पोस्ट": 993,
      "कंप": 994,
      "्यालय": 995,
      "ंख": 996,
      "अविश्व": 997,
      "आई": 998,
      "ओह": 999,
      "तिक": 1000,
      "द्य": 1001,
      "भूल": 1002,
      "भविष": 1003,
      "मॉड": 1004,
      "लु": 1005,
      "सनीय": 1006,
      "िला": 1007,
      "ोम": 1008,
      "करा": 1009,
      "करी": 1010,
      "कां": 1011,
      "हमारी": 1012,
      "्यादा": 1013,
      "हरण": 1014,
      "स्टी": 1015,
      "जिसने": 1016,
      "जिसमें": 1017,
      "स्वी": 1018,
      "पुरा": 1019,
      "कौशल": 1020,
      "जाएगा": 1021,
      "बच्चे": 1022,
      "स्कूल": 1023,
      "उदाहरण": 1024,
      "भोजन": 1025,
      "अविश्वसनीय": 1026,
      "भविष्य": 1027,
      "ज्यादा": 1028,
      "टन": 1029,
      "धिक": 1030,
      "म्": 1031,
      "मजब": 1032,
      "यं": 1033,
      "लने": 1034,
      "सके": 1035,
      "रहता": 1036,
      "बाहरी": 1037,
      "संके": 1038,
      "पूरा": 1039,
      "सोड": 1040,
      "मिका": 1041,
      "दिनों": 1042,
      "रखने": 1043,
      "तुलना": 1044,
      "बनने": 1045,
      "स्वस्थ": 1046,
      "स्वयं": 1047,
      "मीडि": 1048,
      "पैसा": 1049,
      "शोध": 1050,
      "दौरा": 1051,
      "मनोवैज्ञानिक": 1052,
      "शुरुआत": 1053,
      "एपिसोड": 1054,
      "मीडिया": 1055,
      "अभ": 1056,
      "आमत": 1057,
      "उद्दे": 1058,
      "गर्": 1059,
      "चू": 1060,
      "जर": 1061,
      "जल्": 1062,
      "जरूरत": 1063,
      "नफ": 1064,
      "फे": 1065,
      "लों": 1066,
      "हटा": 1067,
      "ॉर्": 1068,
      "ोन": 1069,
      "कितना": 1070,
      "ताकि": 1071,
      "लिखा": 1072,
      "उसी": 1073,
      "पान": 1074,
      "समूह": 1075,
      "तीन": 1076,
      "क्षित": 1077,
      "च्छा": 1078,
      "महिला": 1079,
      "कहानी": 1080,
      "छोटी": 1081,
      "पड़ता": 1082,
      "कारात्मक": 1083,
      "घंटे": 1084,
      "आमतौर": 1085,
      "उद्देश्य": 1086,
      "अके": 1087,
      "आन": 1088,
      "आस": 1089,
      "आश्च": 1090,
      "दार": 1091,
      "दूर": 1092,
      "धूम": 1093,
      "प्या": 1094,
      "फ्र": 1095,
      "करनी": 1096,
      "करूंगा": 1097,
      "क्स": 1098,
      "्रपान": 1099,
      "वाह": 1100,
      "लें": 1101,
      "लेते": 1102,
      "प्रो": 1103,
      "दिख": 1104,
      "लगातार": 1105,
      "डाल": 1106,
      "बताया": 1107,
      "बदलने": 1108,
      "योजना": 1109,
      "ईमानदार": 1110,
      "अवसर": 1111,
      "दृष्टि": 1112,
      "नियंत्रण": 1113,
      "तैयार": 1114,
      "दौरान": 1115,
      "आश्चर्य": 1116,
      "धूम्रपान": 1117,
      "आकार": 1118,
      "इच्छा": 1119,
      "टू": 1120,
      "तौर": 1121,
      "निक": 1122,
      "न्यू": 1123,
      "बजे": 1124,
      "मू": 1125,
      "साह": 1126,
      "जाती": 1127,
      "लेना": 1128,
      "लाइन": 1129,
      "पागल": 1130,
      "सीखा": 1131,
      "नीचे": 1132,
      "राम": 1133,
      "रास्": 1134,
      "खाने": 1135,
      "भाष": 1136,
      "कहने": 1137,
      "जिससे": 1138,
      "देखता": 1139,
      "गीत": 1140,
      "बदला": 1141,
      "पैसे": 1142,
      "चुनौ": 1143,
      "धारित": 1144,
      "कहूंगा": 1145,
      "भाग्यशाली": 1146,
      "दयालु": 1147,
      "करियर": 1148,
      "आनंद": 1149,
      "अत्य": 1150,
      "आती": 1151,
      "उठा": 1152,
      "धो": 1153,
      "नू": 1154,
      "पण": 1155,
      "वहाँ": 1156,
      "शक": 1157,
      "सौ": 1158,
      "ैक": 1159,
      "ॉल": 1160,
      "।'": 1161,
      "किए": 1162,
      "मेल": 1163,
      "करती": 1164,
      "्रोम": 1165,
      "जाएंगे": 1166,
      "र्न": 1167,
      "प्रयोग": 1168,
      "ेंज": 1169,
      "देह": 1170,
      "उसका": 1171,
      "संगीत": 1172,
      "संदेह": 1173,
      "पांच": 1174,
      "जैसी": 1175,
      "क्षे": 1176,
      "मिली": 1177,
      "सोचना": 1178,
      "सिंड": 1179,
      "छोटे": 1180,
      "रोक": 1181,
      "डियो": 1182,
      "तरीका": 1183,
      "बुरी": 1184,
      "कर्ष": 1185,
      "सामने": 1186,
      "पर्याप्त": 1187,
      "खरीद": 1188,
      "नफरत": 1189,
      "सिंड्रोम": 1190,
      "00": 1191,
      "अंदर": 1192,
      "आराम": 1193,
      "इनाम": 1194,
      "घकालिक": 1195,
      "चर्": 1196,
      "चॉक": 1197,
      "फै": 1198,
      "बल्": 1199,
      "मारी": 1200,
      "वर": 1201,
      "शी": 1202,
      "शित": 1203,
      "समान": 1204,
      "ांत": 1205,
      "कोण": 1206,
      "मुच": 1207,
      "र्घकालिक": 1208,
      "उनका": 1209,
      "वित": 1210,
      "सम्": 1211,
      "नींद": 1212,
      "पूर्व": 1213,
      "दीर्घकालिक": 1214,
      "परिवर्": 1215,
      "वीडियो": 1216,
      "सचमुच": 1217,
      "सारा": 1218,
      "स्वीकार": 1219,
      "जल्दी": 1220,
      "आसपास": 1221,
      "प्यार": 1222,
      "अत्यधिक": 1223,
      "चॉकलेट": 1224,
      "असुर": 1225,
      "आशा": 1226,
      "आहार": 1227,
      "एँ": 1228,
      "खराब": 1229,
      "ग्": 1230,
      "चित": 1231,
      "छह": 1232,
      "डो": 1233,
      "तला": 1234,
      "थमिक": 1235,
      "नया": 1236,
      "पड़ा": 1237,
      "फ़": 1238,
      "भे": 1239,
      "रचना": 1240,
      "लड़": 1241,
      "लैया": 1242,
      "शरी": 1243,
      "शब्": 1244,
      "सित": 1245,
      "सार्थ": 1246,
      "ुक": 1247,
      "ृंख": 1248,
      "्न": 1249,
      "मुख": 1250,
      "पर्": 1251,
      "उनसे": 1252,
      "खाना": 1253,
      "मान्य": 1254,
      "रखें": 1255,
      "पुर": 1256,
      "प्राथमिक": 1257,
      "विचारों": 1258,
      "भुलैया": 1259,
      "टिप्": 1260,
      "क्षमता": 1261,
      "पढ़ा": 1262,
      "स्थान": 1263,
      "श्रृंख": 1264,
      "सिद्धांत": 1265,
      "मिनट": 1266,
      "भूलभुलैया": 1267,
      "मजबूर": 1268,
      "संकेत": 1269,
      "अकेले": 1270,
      "दृष्टिकोण": 1271,
      "बदलाव": 1272,
      "चुनौती": 1273,
      "बल्कि": 1274,
      "परिवर्तन": 1275,
      "शरीर": 1276,
      "सार्थक": 1277,
      "श्रृंखला": 1278,
      "अमी": 1279,
      "आए": 1280,
      "इट": 1281,
      "ईओ": 1282,
      "ऑन": 1283,
      "जने": 1284,
      "ट्": 1285,
      "देंगे": 1286,
      "नक": 1287,
      "बजा": 1288,
      "बद्ध": 1289,
      "मार": 1290,
      "यने": 1291,
      "वस्त": 1292,
      "शारी": 1293,
      "ियों": 1294,
      "ेगा": 1295,
      "नें": 1296,
      "हीन": 1297,
      "इसी": 1298,
      "लेख": 1299,
      "र्भ": 1300,
      "माता": 1301,
      "मायने": 1302,
      "वित्": 1303,
      "लायक": 1304,
      "संभावना": 1305,
      "सीईओ": 1306,
      "रात": 1307,
      "पहन": 1308,
      "संदर्भ": 1309,
      "अनुसार": 1310,
      "समझने": 1311,
      "पुस्त": 1312,
      "बताता": 1313,
      "बढ़ा": 1314,
      "नियम": 1315,
      "कल्पना": 1316,
      "भूमिका": 1317,
      "लिखने": 1318,
      "ग्राम": 1319,
      "महीने": 1320,
      "महामारी": 1321,
      "जूद": 1322,
      "स्टीव": 1323,
      "सकें": 1324,
      "पागलपन": 1325,
      "सम्मान": 1326,
      "शब्द": 1327,
      "टिप्पण": 1328,
      "ऑनलाइन": 1329,
      "शारीरिक": 1330,
      "18": 1331,
      "ंति": 1332,
      "उच्": 1333,
      "खत्म": 1334,
      "तथ": 1335,
      "तत्व": 1336,
      "तंत्र": 1337,
      "फोन": 1338,
      "बू": 1339,
      "वरण": 1340,
      "षण": 1341,
      "िया": 1342,
      "मेह": 1343,
      "क्री": 1344,
      "स्कार": 1345,
      "जाएं": 1346,
      "वाई": 1347,
      "भीतर": 1348,
      "पानी": 1349,
      "शांत": 1350,
      "तीय": 1351,
      "मिले": 1352,
      "भावित": 1353,
      "स्टा": 1354,
      "सुना": 1355,
      "जिसका": 1356,
      "बनाना": 1357,
      "अगले": 1358,
      "तुर": 1359,
      "परिभाष": 1360,
      "स्वाद": 1361,
      "धारणा": 1362,
      "कर्ता": 1363,
      "दृश्य": 1364,
      "जुनू": 1365,
      "मित्र": 1366,
      "संबंधित": 1367,
      "पुरस्कार": 1368,
      "प्राथमिकता": 1369,
      "बजाय": 1370,
      "तथ्य": 1371,
      "ंज": 1372,
      "अवसा": 1373,
      "उद्य": 1374,
      "कल": 1375,
      "कू": 1376,
      "गता": 1377,
      "घट": 1378,
      "दम": 1379,
      "द्यालय": 1380,
      "धी": 1381,
      "पक्ष": 1382,
      "पार्": 1383,
      "बर्": 1384,
      "बित": 1385,
      "भरा": 1386,
      "मंच": 1387,
      "शत": 1388,
      "समा": 1389,
      "हफ्": 1390,
      "याम": 1391,
      "ारा": 1392,
      "साझा": 1393,
      "लेकर": 1394,
      "जोखि": 1395,
      "देती": 1396,
      "विद्यालय": 1397,
      "जानने": 1398,
      "पाने": 1399,
      "पाया": 1400,
      "त्या": 1401,
      "राज": 1402,
      "्होंने": 1403,
      "कैसा": 1404,
      "अगला": 1405,
      "ार्ट": 1406,
      "जिन्होंने": 1407,
      "प्रतिशत": 1408,
      "रोमा": 1409,
      "परिवार": 1410,
      "मीद": 1411,
      "सुनने": 1412,
      "भावनाओं": 1413,
      "उम्मीद": 1414,
      "दूसरी": 1415,
      "बच्चा": 1416,
      "बुरा": 1417,
      "गुजर": 1418,
      "विषय": 1419,
      "तुम्हें": 1420,
      "मौका": 1421,
      "लंबे": 1422,
      "व्यायाम": 1423,
      "संतुष्टि": 1424,
      "लूप": 1425,
      "रिश्ते": 1426,
      "कंपनी": 1427,
      "मॉडल": 1428,
      "इच्छाशक्ति": 1429,
      "क्षेत्र": 1430,
      "तलाश": 1431,
      "रचनात्मक": 1432,
      "अमीर": 1433,
      "पुस्तक": 1434,
      "उच्च": 1435,
      "अवसाद": 1436,
      "जोखिम": 1437,
      "19": 1438,
      "30": 1439,
      "ंक": 1440,
      "इतनी": 1441,
      "इतने": 1442,
      "उड़ा": 1443,
      "ऊपर": 1444,
      "एम": 1445,
      "ख्या": 1446,
      "घा": 1447,
      "चले": 1448,
      "नत": 1449,
      "पित": 1450,
      "पड़े": 1451,
      "ब्र": 1452,
      "बचा": 1453,
      "सन": 1454,
      "सर्": 1455,
      "सहम": 1456,
      "सकारात्मक": 1457,
      "हरा": 1458,
      "िकां": 1459,
      "ीदा": 1460,
      "ेक": 1461,
      "्व": 1462,
      "कित्": 1463,
      "तेजी": 1464,
      "कीन": 1465,
      "र्ड": 1466,
      "हाल": 1467,
      "प्रत्य": 1468,
      "प्रभावित": 1469,
      "विफल": 1470,
      "कुत्": 1471,
      "संख्या": 1472,
      "निष्": 1473,
      "राय": 1474,
      "अधिकां": 1475,
      "मिशन": 1476,
      "ल्स": 1477,
      "ंदगी": 1478,
      "सुबह": 1479,
      "सिखा": 1480,
      "पसंदीदा": 1481,
      "रखना": 1482,
      "छोटा": 1483,
      "जनक": 1484,
      "बेच": 1485,
      "मिलता": 1486,
      "समझा": 1487,
      "चिकित्": 1488,
      "थोड़ी": 1489,
      "पैदा": 1490,
      "आत्मविश्वास": 1491,
      "चलता": 1492,
      "पहुं": 1493,
      "पूछना": 1494,
      "लक्ष्यों": 1495,
      "भुगता": 1496,
      "बैठा": 1497,
      "इंसान": 1498,
      "विकल्प": 1499,
      "महीनों": 1500,
      "महान": 1501,
      "मामले": 1502,
      "पुरानी": 1503,
      "शोधकर्ता": 1504,
      "रास्ते": 1505,
      "तुरंत": 1506,
      "सहमत": 1507,
      "अधिकांश": 1508,
      "भुगतान": 1509,
      "12": 1510,
      "50": 1511,
      "आख": 1512,
      "आम": 1513,
      "आखि": 1514,
      "ईमेल": 1515,
      "एस": 1516,
      "कमा": 1517,
      "कडा": 1518,
      "गर": 1519,
      "चों": 1520,
      "भले": 1521,
      "मजा": 1522,
      "रखा": 1523,
      "लन": 1524,
      "हजार": 1525,
      "ुष": 1526,
      "किल": 1527,
      "करो": 1528,
      "करेगा": 1529,
      "कान": 1530,
      "्रवाई": 1531,
      "र्श": 1532,
      "प्रक्रिया": 1533,
      "प्रदर्": 1534,
      "दिल": 1535,
      "दिला": 1536,
      "ड़ना": 1537,
      "देरी": 1538,
      "विरो": 1539,
      "बाकी": 1540,
      "बातें": 1541,
      "पाद": 1542,
      "निरा": 1543,
      "समर्थ": 1544,
      "कार्रवाई": 1545,
      "पहला": 1546,
      "िरकार": 1547,
      "दायक": 1548,
      "बनाते": 1549,
      "कमजो": 1550,
      "कमरे": 1551,
      "अनुमान": 1552,
      "कारणों": 1553,
      "प्रतिबद्ध": 1554,
      "पुरु": 1555,
      "बदलना": 1556,
      "वैसे": 1557,
      "चीज़ों": 1558,
      "भगवान": 1559,
      "पूछने": 1560,
      "उत्साह": 1561,
      "टिंग": 1562,
      "नौकरी": 1563,
      "छोड़ने": 1564,
      "बच्चों": 1565,
      "खेबा": 1566,
      "दर्द": 1567,
      "लॉकडा": 1568,
      "सामना": 1569,
      "इंस्टा": 1570,
      "विकसित": 1571,
      "नियंत्रित": 1572,
      "श्रे": 1573,
      "सामान्य": 1574,
      "युवा": 1575,
      "मूर्": 1576,
      "धोखेबा": 1577,
      "प्रत्येक": 1578,
      "चिकित्सक": 1579,
      "पहुंचा": 1580,
      "आखिरी": 1581,
      "पुरुष": 1582,
      "लॉकडाउन": 1583,
      "इंस्टाग्राम": 1584,
      "ंबर": 1585,
      "अति": 1586,
      "आते": 1587,
      "आज़": 1588,
      "आकर्ष": 1589,
      "कब": 1590,
      "गार": 1591,
      "घूम": 1592,
      "चढ़": 1593,
      "टो": 1594,
      "टने": 1595,
      "धे": 1596,
      "नम": 1597,
      "पल": 1598,
      "पार": 1599,
      "फॉ": 1600,
      "बने": 1601,
      "यस्क": 1602,
      "वयस्क": 1603,
      "सू": 1604,
      "सरा": 1605,
      "हे": 1606,
      "हल्": 1607,
      "ॉप": 1608,
      "ैंड": 1609,
      "कास": 1610,
      "लिंग": 1611,
      "वायर": 1612,
      "मुड़": 1613,
      "प्रसिद्ध": 1614,
      "ड़ों": 1615,
      "विधि": 1616,
      "हममें": 1617,
      "हमारा": 1618,
      "लां": 1619,
      "उसमें": 1620,
      "उसकी": 1621,
      "निवे": 1622,
      "निजी": 1623,
      "कार्यालय": 1624,
      "शादी": 1625,
      "ंदा": 1626,
      "बनाए": 1627,
      "दोनों": 1628,
      "अगली": 1629,
      "भाविक": 1630,
      "ंचित": 1631,
      "रखता": 1632,
      "रखते": 1633,
      "टीन": 1634,
      "बताने": 1635,
      "ज़रूरत": 1636,
      "मनुष": 1637,
      "स्वाभाविक": 1638,
      "पूछता": 1639,
      "लोक": 1640,
      "उत्पाद": 1641,
      "वीय": 1642,
      "मूल्यों": 1643,
      "मूल्यवान": 1644,
      "क्षणों": 1645,
      "प्रभावी": 1646,
      "बोलने": 1647,
      "पोषण": 1648,
      "मार्च": 1649,
      "मार्ट": 1650,
      "निर्धारित": 1651,
      "मौजूद": 1652,
      "शर्म": 1653,
      "ग्रस्त": 1654,
      "दबाव": 1655,
      "चूहों": 1656,
      "सिद्धांतों": 1657,
      "वित्तीय": 1658,
      "मेहनत": 1659,
      "आखिरकार": 1660,
      "फॉलो": 1661,
      "मनुष्य": 1662,
      "अप्र": 1663,
      "इंत": 1664,
      "उल्": 1665,
      "उबर": 1666,
      "गि": 1667,
      "चूह": 1668,
      "छु": 1669,
      "जें": 1670,
      "टर्न": 1671,
      "दस": 1672,
      "पद": 1673,
      "पया": 1674,
      "पति": 1675,
      "पत्": 1676,
      "बरा": 1677,
      "भिन": 1678,
      "मर": 1679,
      "मै": 1680,
      "रम": 1681,
      "वृ": 1682,
      "वरी": 1683,
      "शं": 1684,
      "समाज": 1685,
      "हक": 1686,
      "हिर": 1687,
      "िंग": 1688,
      "ेक्षा": 1689,
      "करके": 1690,
      "क्यू": 1691,
      "कोर": 1692,
      "स्मार्ट": 1693,
      "स्कोर": 1694,
      "काश": 1695,
      "जाग": 1696,
      "वादी": 1697,
      "मुश्": 1698,
      "लेता": 1699,
      "र्क": 1700,
      "हाथ": 1701,
      "प्रशि": 1702,
      "विड": 1703,
      "विधा": 1704,
      "विकास": 1705,
      "लाने": 1706,
      "तित": 1707,
      "चीनी": 1708,
      "निभा": 1709,
      "तोड़ने": 1710,
      "कार्": 1711,
      "सीमा": 1712,
      "सीमित": 1713,
      "हांत": 1714,
      "सबक": 1715,
      "गेम": 1716,
      "मानवीय": 1717,
      "स्टर": 1718,
      "कहेंगे": 1719,
      "सुंदर": 1720,
      "सुविधा": 1721,
      "ष्ठ": 1722,
      "देखना": 1723,
      "आदमी": 1724,
      "बनाती": 1725,
      "दोहरा": 1726,
      "ढ़ी": 1727,
      "जिनमें": 1728,
      "समझना": 1729,
      "योगदान": 1730,
      "लगाने": 1731,
      "द्धि": 1732,
      "पूछा": 1733,
      "चुन": 1734,
      "सुनो": 1735,
      "चिंतित": 1736,
      "क्रिय": 1737,
      "दूसरा": 1738,
      "पहुंचने": 1739,
      "पहुंचते": 1740,
      "सप्ताहांत": 1741,
      "जुड़ा": 1742,
      "ट्रैक": 1743,
      "अध्ययनों": 1744,
      "पेट": 1745,
      "किताबें": 1746,
      "सुरक्षित": 1747,
      "कृपया": 1748,
      "संभवतः": 1749,
      "गतिविधि": 1750,
      "पोस्टर": 1751,
      "ज्यादातर": 1752,
      "अभि": 1753,
      "फ्री": 1754,
      "दयालुता": 1755,
      "पूर्वक": 1756,
      "असुरक्षा": 1757,
      "बर्बाद": 1758,
      "समर्थन": 1759,
      "आज़मा": 1760,
      "इंतजार": 1761,
      "चूहे": 1762,
      "भिन्न": 1763,
      "मुश्किल": 1764,
      "आवा": 1765,
      "आश्": 1766,
      "आलो": 1767,
      "आधारित": 1768,
      "इए": 1769,
      "इम्": 1770,
      "ईं": 1771,
      "ऊर्": 1772,
      "कड़ी": 1773,
      "कदम": 1774,
      "खी": 1775,
      "गू": 1776,
      "गो": 1777,
      "चरण": 1778,
      "जारी": 1779,
      "जहाँ": 1780,
      "ड्र": 1781,
      "ड्रा": 1782,
      "ढूं": 1783,
      "णी": 1784,
      "द्र": 1785,
      "दूं": 1786,
      "धित": 1787,
      "नकारात्मक": 1788,
      "फु": 1789,
      "बटन": 1790,
      "भौ": 1791,
      "भारी": 1792,
      "भरो": 1793,
      "मैन": 1794,
      "यम": 1795,
      "यहीं": 1796,
      "यकीन": 1797,
      "लत": 1798,
      "लौ": 1799,
      "सहा": 1800,
      "सच्": 1801,
      "सर्व": 1802,
      "हल": 1803,
      "िका": 1804,
      "ीय": 1805,
      "ूत": 1806,
      "ृत": 1807,
      "ॉन": 1808,
      "्धि": 1809,
      "मेज": 1810,
      "सेट": 1811,
      "यां": 1812,
      "साइ": 1813,
      "साधार": 1814,
      "स्य": 1815,
      "रहें": 1816,
      "लियन": 1817,
      "जांच": 1818,
      "जाऊंगा": 1819,
      "जाहिर": 1820,
      "वाकां": 1821,
      "मुद्": 1822,
      "प्रशं": 1823,
      "अपेक्षा": 1824,
      "मायन": 1825,
      "देगा": 1826,
      "कुकी": 1827,
      "जिंदगी": 1828,
      "चाई": 1829,
      "संदेश": 1830,
      "निका": 1831,
      "सकूं": 1832,
      "त्वाकां": 1833,
      "जबकि": 1834,
      "राव": 1835,
      "व्यस्त": 1836,
      "खास": 1837,
      "महत्वाकां": 1838,
      "बिक्री": 1839,
      "सुपर": 1840,
      "सोचें": 1841,
      "देखें": 1842,
      "आदर्श": 1843,
      "दोष": 1844,
      "अनुरूप": 1845,
      "जिनका": 1846,
      "दिनचर्": 1847,
      "स्थिर": 1848,
      "तरफ": 1849,
      "पीढ़ी": 1850,
      "मिलते": 1851,
      "समझता": 1852,
      "लब्धि": 1853,
      "उपकरण": 1854,
      "उपलब्धि": 1855,
      "चुका": 1856,
      "विशेषज्ञ": 1857,
      "रुक": 1858,
      "गहरा": 1859,
      "जाएगी": 1860,
      "अवलोक": 1861,
      "अंतर": 1862,
      "दृढ़": 1863,
      "ट्रि": 1864,
      "हिस्से": 1865,
      "धाभा": 1866,
      "कारात्म": 1867,
      "सीखने": 1868,
      "बचने": 1869,
      "बचपन": 1870,
      "तनावग्रस्त": 1871,
      "गर्मि": 1872,
      "फैशन": 1873,
      "उद्योग": 1874,
      "घटित": 1875,
      "हफ्तों": 1876,
      "विरोधाभा": 1877,
      "आकर्षक": 1878,
      "वायरस": 1879,
      "मुड़कर": 1880,
      "जागरू": 1881,
      "आश्वस्त": 1882,
      "इम्पोस्टर": 1883,
      "ऊर्जा": 1884,
      "ढूंढ": 1885,
      "भौतिक": 1886,
      "भरोसा": 1887,
      "साधारण": 1888,
      "मायनों": 1889,
      "दिनचर्या": 1890,
      "अवलोकन": 1891,
      "अंति": 1892,
      "असुविधा": 1893,
      "आउ": 1894,
      "उचित": 1895,
      "ऊँ": 1896,
      "एगा": 1897,
      "कॉल": 1898,
      "खर्": 1899,
      "गिर": 1900,
      "छा": 1901,
      "छी": 1902,
      "जवा": 1903,
      "टक": 1904,
      "थक": 1905,
      "थि": 1906,
      "दर": 1907,
      "दारी": 1908,
      "दूंगा": 1909,
      "नकारात्म": 1910,
      "बल": 1911,
      "भया": 1912,
      "मछ": 1913,
      "रों": 1914,
      "रेंज": 1915,
      "लै": 1916,
      "लहर": 1917,
      "शू": 1918,
      "शिक": 1919,
      "शराब": 1920,
      "सैक": 1921,
      "ुणा": 1922,
      "ूड": 1923,
      "ेली": 1924,
      "नेट": 1925,
      "करुणा": 1926,
      "ैंडी": 1927,
      "नाक": 1928,
      "सात": 1929,
      "सायन": 1930,
      "सादृश्य": 1931,
      "स्ता": 1932,
      "कीमत": 1933,
      "वादा": 1934,
      "प्रती": 1935,
      "प्रगति": 1936,
      "प्रमुख": 1937,
      "लगते": 1938,
      "लगती": 1939,
      "बाजार": 1940,
      "जिए": 1941,
      "लाइ": 1942,
      "लास": 1943,
      "संस्": 1944,
      "तोड़": 1945,
      "खाली": 1946,
      "मानता": 1947,
      "तकनी": 1948,
      "पहचा": 1949,
      "सुनिश्चित": 1950,
      "देखी": 1951,
      "कहाँ": 1952,
      "बनाया": 1953,
      "रेड": 1954,
      "रखती": 1955,
      "रोलॉ": 1956,
      "मिलती": 1957,
      "समझते": 1958,
      "योग्य": 1959,
      "शेक": 1960,
      "लक्षण": 1961,
      "यहाँ": 1962,
      "नियमित": 1963,
      "अवधारणा": 1964,
      "​​​​": 1965,
      "पीछा": 1966,
      "धान": 1967,
      "निर्देश": 1968,
      "मनोविज्ञान": 1969,
      "ग्री": 1970,
      "बहन": 1971,
      "संकल्पों": 1972,
      "सहयोग": 1973,
      "पुराने": 1974,
      "चूहा": 1975,
      "दिखने": 1976,
      "टूट": 1977,
      "न्यूरोलॉ": 1978,
      "000": 1979,
      "ग्रह": 1980,
      "मान्यता": 1981,
      "ियाँ": 1982,
      "परिभाषा": 1983,
      "जुनून": 1984,
      "समाप्त": 1985,
      "त्याशित": 1986,
      "उड़ान": 1987,
      "निष्कर्ष": 1988,
      "मजाक": 1989,
      "कमजोर": 1990,
      "प्रतिबद्धता": 1991,
      "मूर्ख": 1992,
      "अतिथि": 1993,
      "निवेश": 1994,
      "अप्रत्याशित": 1995,
      "उल्लेख": 1996,
      "पदार्थ": 1997,
      "वृद्धि": 1998,
      "आलोचना": 1999,
      "सच्चाई": 2000,
      "अंतिम": 2001,
      "आउट": 2002,
      "खर्च": 2003,
      "छीन": 2004,
      "भयानक": 2005,
      "सैकड़ों": 2006,
      "अनिश्चित": 2007,
      "अल्प": 2008,
      "असहमत": 2009,
      "आइए": 2010,
      "एल": 2011,
      "कही": 2012,
      "कशेक": 2013,
      "ख्": 2014,
      "गड़": 2015,
      "चस्प": 2016,
      "चक्र": 2017,
      "छत": 2018,
      "जिक": 2019,
      "ट्स": 2020,
      "तली": 2021,
      "ध्व": 2022,
      "नस": 2023,
      "नो": 2024,
      "पत्र": 2025,
      "फूड": 2026,
      "बॉ": 2027,
      "बहा": 2028,
      "बचना": 2029,
      "मृ": 2030,
      "मर्": 2031,
      "वंचित": 2032,
      "शौ": 2033,
      "शहर": 2034,
      "शमै": 2035,
      "सार्": 2036,
      "सचे": 2037,
      "सफे": 2038,
      "हं": 2039,
      "हना": 2040,
      "िज": 2041,
      "ोर": 2042,
      "्मे": 2043,
      "कितने": 2044,
      "तापूर्ण": 2045,
      "याँ": 2046,
      "क्य": 2047,
      "कोने": 2048,
      "साबित": 2049,
      "काबू": 2050,
      "्रता": 2051,
      "लित": 2052,
      "जाकर": 2053,
      "जाऊं": 2054,
      "वाक्य": 2055,
      "परा": 2056,
      "परवाह": 2057,
      "हालां": 2058,
      "प्रबंध": 2059,
      "लगे": 2060,
      "दिशा": 2061,
      "माण": 2062,
      "देर": 2063,
      "विच": 2064,
      "विन": 2065,
      "विटर": 2066,
      "विलं": 2067,
      "बाना": 2068,
      "जित": 2069,
      "लाते": 2070,
      "पाउ": 2071,
      "नियों": 2072,
      "निवार": 2073,
      "क्षक": 2074,
      "साथी": 2075,
      "मिल्": 2076,
      "मिलियन": 2077,
      "व्यसन": 2078,
      "भाल": 2079,
      "्यास": 2080,
      "स्टॉक": 2081,
      "कहें": 2082,
      "पहेली": 2083,
      "सुख": 2084,
      "सुल": 2085,
      "सिडी": 2086,
      "देखभाल": 2087,
      "बनाता": 2088,
      "कैन": 2089,
      "ढ़े": 2090,
      "बेकार": 2091,
      "दुर्": 2092,
      "इनमें": 2093,
      "टीवी": 2094,
      "पुन": 2095,
      "लगाया": 2096,
      "बताएं": 2097,
      "ज़ा": 2098,
      "टाल": 2099,
      "प्रेमिका": 2100,
      "पूछें": 2101,
      "सुनता": 2102,
      "गलती": 2103,
      "तरीकों": 2104,
      "जानें": 2105,
      "अवधि": 2106,
      "बोल": 2107,
      "गुप्त": 2108,
      "ट्रे": 2109,
      "खोज": 2110,
      "खोजने": 2111,
      "मार्ग": 2112,
      "मार्शमै": 2113,
      "जिम्मे": 2114,
      "भूत": 2115,
      "फिल्": 2116,
      "टरनेट": 2117,
      "स्थापित": 2118,
      "इंटरनेट": 2119,
      "लंबी": 2120,
      "वजनिक": 2121,
      "शर्मि": 2122,
      "मानसिकता": 2123,
      "क्रम": 2124,
      "कृत": 2125,
      "दिखाया": 2126,
      "कार्यों": 2127,
      "पर्यावरण": 2128,
      "मामला": 2129,
      "डेविड": 2130,
      "पकड़": 2131,
      "पकड़ने": 2132,
      "मोटा": 2133,
      "बिताया": 2134,
      "करीब": 2135,
      "प्रोटीन": 2136,
      "अवसरों": 2137,
      "आश्चर्यजनक": 2138,
      "निकलने": 2139,
      "रास्ता": 2140,
      "सौभाग्य": 2141,
      "आरामदायक": 2142,
      "असुरक्षित": 2143,
      "मुख्य": 2144,
      "ट्विटर": 2145,
      "वस्तु": 2146,
      "टिप्पणियाँ": 2147,
      "परिभाषित": 2148,
      "जुनूनी": 2149,
      "रोमांच": 2150,
      "कुत्ते": 2151,
      "शोधकर्ताओं": 2152,
      "प्रदर्शन": 2153,
      "दिलचस्प": 2154,
      "निराशा": 2155,
      "उत्साहित": 2156,
      "धोखेबाज": 2157,
      "सराहना": 2158,
      "कार्पेट": 2159,
      "प्रशंसक": 2160,
      "गहराई": 2161,
      "ऊँगा": 2162,
      "जवाब": 2163,
      "नकारात्मकता": 2164,
      "मछली": 2165,
      "संस्करण": 2166,
      "न्यूरोलॉजिक": 2167,
      "अल्पकालिक": 2168,
      "ध्वनि": 2169,
      "मर्सिडी": 2170,
      "सार्वजनिक": 2171,
      "सचेत": 2172,
      "सफेद": 2173,
      "हालांकि": 2174,
      "मिल्कशेक": 2175,
      "मार्शमैलो": 2176,
      "न्यूरोलॉजिकल": 2177,
      "मर्सिडीज": 2178,
      "16": 2179,
      "25": 2180,
      "60": 2181,
      "ंट": 2182,
      "अर": 2183,
      "अस्त": 2184,
      "अचा": 2185,
      "असफल": 2186,
      "अंध": 2187,
      "असंभव": 2188,
      "अमान्य": 2189,
      "आर": 2190,
      "आना": 2191,
      "इरा": 2192,
      "उठ": 2193,
      "उद्ध": 2194,
      "उंज": 2195,
      "एजें": 2196,
      "कल्": 2197,
      "कपड़े": 2198,
      "खबर": 2199,
      "चैन": 2200,
      "चरम": 2201,
      "छप्": 2202,
      "जटि": 2203,
      "टुक": 2204,
      "तर्क": 2205,
      "दों": 2206,
      "दशक": 2207,
      "नवी": 2208,
      "नंबर": 2209,
      "पं": 2210,
      "पट": 2211,
      "पना": 2212,
      "पड़ी": 2213,
      "पॉप": 2214,
      "फन": 2215,
      "भरी": 2216,
      "म्यू": 2217,
      "यॉर्": 2218,
      "शै": 2219,
      "सद": 2220,
      "सक्रिय": 2221,
      "सख्": 2222,
      "िय": 2223,
      "कितनी": 2224,
      "करूं": 2225,
      "याण": 2226,
      "नाइट": 2227,
      "क्सी": 2228,
      "क्रा": 2229,
      "क्रो": 2230,
      "क्लब": 2231,
      "स्कैन": 2232,
      "काट": 2233,
      "रहती": 2234,
      "जाओ": 2235,
      "होनी": 2236,
      "वाता": 2237,
      "र्म": 2238,
      "र्स": 2239,
      "र्पित": 2240,
      "प्री": 2241,
      "प्रका": 2242,
      "प्रदान": 2243,
      "लगी": 2244,
      "दिए": 2245,
      "माने": 2246,
      "माइन": 2247,
      "मालिक": 2248,
      "मांस": 2249,
      "ड़ित": 2250,
      "ड़पति": 2251,
      "विज्ञा": 2252,
      "लाना": 2253,
      "लाउंज": 2254,
      "संग": 2255,
      "संपर्": 2256,
      "तियों": 2257,
      "जानना": 2258,
      "पामाइन": 2259,
      "समर्पित": 2260,
      "त्साह": 2261,
      "तीव": 2262,
      "पूर्": 2263,
      "जीवनशै": 2264,
      "अनफॉलो": 2265,
      "बिजने": 2266,
      "्याय": 2267,
      "थेरे": 2268,
      "सुधार": 2269,
      "प्ला": 2270,
      "देखेंगे": 2271,
      "आदी": 2272,
      "दोबार": 2273,
      "कैम": 2274,
      "कैलो": 2275,
      "अनुबंध": 2276,
      "जिनसे": 2277,
      "रिटर्न": 2278,
      "पीना": 2279,
      "पीड़ित": 2280,
      "स्वतंत्र": 2281,
      "परिदृश्य": 2282,
      "दुख": 2283,
      "पुतली": 2284,
      "उपचार": 2285,
      "होंगी": 2286,
      "प्रायो": 2287,
      "प्राकृ": 2288,
      "थोड़े": 2289,
      "टाइ": 2290,
      "चेस्टर": 2291,
      "चलने": 2292,
      "चलते": 2293,
      "पूछते": 2294,
      "चुकी": 2295,
      "बढ़ने": 2296,
      "कठपुतली": 2297,
      "रिकॉर्": 2298,
      "बैठे": 2299,
      "बैठता": 2300,
      "बोनस": 2301,
      "उपयोगी": 2302,
      "ट्रिक": 2303,
      "वालों": 2304,
      "खिला": 2305,
      "त्यु": 2306,
      "लॉग": 2307,
      "नामक": 2308,
      "सामग्री": 2309,
      "शक्तिशाली": 2310,
      "शक्तिहीन": 2311,
      "निर्भर": 2312,
      "लिखी": 2313,
      "वैज्ञानिकों": 2314,
      "विश्वविद्यालय": 2315,
      "माध्यमिक": 2316,
      "ग्राहक": 2317,
      "दिखाई": 2318,
      "संबंधी": 2319,
      "समस्याएं": 2320,
      "पिताजी": 2321,
      "खेलते": 2322,
      "परिणामों": 2323,
      "फाय": 2324,
      "मामलों": 2325,
      "संतुष्ट": 2326,
      "संतुलन": 2327,
      "दबाएं": 2328,
      "सहज": 2329,
      "रिश्तों": 2330,
      "मॉडलिंग": 2331,
      "स्टीफन": 2332,
      "टनर": 2333,
      "अभ्यास": 2334,
      "निकल": 2335,
      "न्यूयॉर्": 2336,
      "मूली": 2337,
      "धोखा": 2338,
      "रोकने": 2339,
      "खरीदने": 2340,
      "आशावाद": 2341,
      "डोपामाइन": 2342,
      "धीरे": 2343,
      "पार्क": 2344,
      "पार्टनर": 2345,
      "ब्रि": 2346,
      "ब्रे": 2347,
      "विफलता": 2348,
      "सिखाया": 2349,
      "करोड़पति": 2350,
      "श्रेष्ठ": 2351,
      "मनुष्यों": 2352,
      "बराबर": 2353,
      "आवाज": 2354,
      "मैनचेस्टर": 2355,
      "सर्वश्रेष्ठ": 2356,
      "कुकीज़": 2357,
      "खासकर": 2358,
      "महत्वाकांक्षा": 2359,
      "गर्मियों": 2360,
      "विरोधाभास": 2361,
      "प्रतीत": 2362,
      "लाइव": 2363,
      "मूर्खतापूर्ण": 2364,
      "मृत्यु": 2365,
      "दुर्भाग्य": 2366,
      "रोमांचक": 2367,
      "अचानक": 2368,
      "कल्याण": 2369,
      "छप्पर": 2370,
      "जटिल": 2371,
      "म्यूट": 2372,
      "सख्ती": 2373,
      "संपर्क": 2374,
      "जीवनशैली": 2375,
      "बिजनेस": 2376,
      "दोबारा": 2377,
      "कैलोरी": 2378,
      "प्राकृतिक": 2379,
      "न्यूयॉर्क": 2380,
      "15": 2381,
      "ँच": 2382,
      "ंश": 2383,
      "ंभी": 2384,
      "ंटर": 2385,
      "अमेर": 2386,
      "अल्": 2387,
      "अपरि": 2388,
      "अराज": 2389,
      "अंदा": 2390,
      "अनिवार": 2391,
      "आठ": 2392,
      "आंख": 2393,
      "आकाश": 2394,
      "इले": 2395,
      "उल": 2396,
      "उतनी": 2397,
      "उतने": 2398,
      "एक्": 2399,
      "ऑफ": 2400,
      "ऑर्": 2401,
      "ऑटो": 2402,
      "कॉ": 2403,
      "कक्ष": 2404,
      "कूल": 2405,
      "कंड": 2406,
      "ख़": 2407,
      "खड़ा": 2408,
      "गंभी": 2409,
      "घु": 2410,
      "छि": 2411,
      "जरी": 2412,
      "जंग": 2413,
      "जंक": 2414,
      "झे": 2415,
      "टकरा": 2416,
      "डोम": 2417,
      "डॉल": 2418,
      "तम": 2419,
      "तय": 2420,
      "तह": 2421,
      "तभी": 2422,
      "दू": 2423,
      "दवा": 2424,
      "दौर": 2425,
      "धु": 2426,
      "न्य": 2427,
      "नशे": 2428,
      "नजर": 2429,
      "पृ": 2430,
      "पें": 2431,
      "फो": 2432,
      "बज": 2433,
      "बैं": 2434,
      "बड़": 2435,
      "बेंज": 2436,
      "बार्ट": 2437,
      "भ्य": 2438,
      "भटक": 2439,
      "मना": 2440,
      "मजे": 2441,
      "मध्य": 2442,
      "यल": 2443,
      "यी": 2444,
      "रै": 2445,
      "रित": 2446,
      "रसायन": 2447,
      "लंद": 2448,
      "वर्ण": 2449,
      "वजूद": 2450,
      "वकू": 2451,
      "शतर": 2452,
      "शकों": 2453,
      "सका": 2454,
      "समु": 2455,
      "सिर": 2456,
      "सभ्य": 2457,
      "हार्ट": 2458,
      "ाधिक": 2459,
      "िकी": 2460,
      "ृति": 2461,
      "ेर": 2462,
      "ॉय": 2463,
      "ॉस": 2464,
      "सेवन": 2465,
      "सेंटर": 2466,
      "सेकंड": 2467,
      "केविन": 2468,
      "ताक": 2469,
      "आपमें": 2470,
      "नात्मक": 2471,
      "क्लास": 2472,
      "क्ट्रिक": 2473,
      "साक्षा": 2474,
      "रहेंगे": 2475,
      "रहस्य": 2476,
      "जाइन": 2477,
      "जाऊँगा": 2478,
      "परत": 2479,
      "जोड़": 2480,
      "हाइ": 2481,
      "प्रकृ": 2482,
      "प्रिय": 2483,
      "दिष्ट": 2484,
      "माँ": 2485,
      "देगी": 2486,
      "विमान": 2487,
      "विटा": 2488,
      "वियर": 2489,
      "विवाह": 2490,
      "बावजूद": 2491,
      "लांस": 2492,
      "लागू": 2493,
      "संज्ञा": 2494,
      "संयम": 2495,
      "तिहा": 2496,
      "पाता": 2497,
      "निरी": 2498,
      "ित्व": 2499,
      "सीधे": 2500,
      "नीला": 2501,
      "नीति": 2502,
      "नीली": 2503,
      "त्कार": 2504,
      "वेद": 2505,
      "वेतन": 2506,
      "शांति": 2507,
      "जीत": 2508,
      "जींस": 2509,
      "पूर": 2510,
      "क्षमा": 2511,
      "अध्याय": 2512,
      "व्यक्त": 2513,
      "खाद्य": 2514,
      "ल्से": 2515,
      "मानते": 2516,
      "बिस्तर": 2517,
      "स्टन": 2518,
      "स्टार": 2519,
      "स्ट्र": 2520,
      "सुझा": 2521,
      "सुनें": 2522,
      "जिसकी": 2523,
      "सियों": 2524,
      "सिगार": 2525,
      "प्लेट": 2526,
      "देखकर": 2527,
      "दाय": 2528,
      "कहानिया": 2529,
      "शुक्र": 2530,
      "रेट": 2531,
      "अनुसर": 2532,
      "अनुकूल": 2533,
      "दीवार": 2534,
      "प्रतिभा": 2535,
      "प्रतिबंध": 2536,
      "जनवरी": 2537,
      "बेहद": 2538,
      "बेवकू": 2539,
      "स्वरूप": 2540,
      "मिलने": 2541,
      "समझौ": 2542,
      "पुष्टि": 2543,
      "लगाना": 2544,
      "विश्ले": 2545,
      "ज़ूम": 2546,
      "पैमाने": 2547,
      "टाने": 2548,
      "स्वादिष्ट": 2549,
      "चुप": 2550,
      "चुके": 2551,
      "डिजाइन": 2552,
      "ूँगा": 2553,
      "विशेषाधिक": 2554,
      "बढ़ता": 2555,
      "बढ़ते": 2556,
      "दोस्ती": 2557,
      "गईं": 2558,
      "गहरी": 2559,
      "आवश्यक": 2560,
      "बोर्ड": 2561,
      "कर्मी": 2562,
      "गुना": 2563,
      "जुड़ी": 2564,
      "ट्रो": 2565,
      "स्कृत": 2566,
      "खोने": 2567,
      "सचेंज": 2568,
      "मार्के": 2569,
      "100": 2570,
      "पढ़ने": 2571,
      "तुमने": 2572,
      "स्थानों": 2573,
      "निर्माण": 2574,
      "अक्टू": 2575,
      "दौड़ना": 2576,
      "लंबा": 2577,
      "विकार": 2578,
      "परीक्षा": 2579,
      "ग्रे": 2580,
      "व्यापक": 2581,
      "भरपूर": 2582,
      "दिखाने": 2583,
      "दिखावा": 2584,
      "परिणामस्वरूप": 2585,
      "हार्य": 2586,
      "फाइ": 2587,
      "युक्त": 2588,
      "सहकर्मी": 2589,
      "बिताते": 2590,
      "रिश्ता": 2591,
      "कंपनियों": 2592,
      "करीबी": 2593,
      "मजबूत": 2594,
      "महिलाओं": 2595,
      "फ्रें": 2596,
      "फ्रिज": 2597,
      "लेंगे": 2598,
      "दिखता": 2599,
      "योजनाएं": 2600,
      "सौं": 2601,
      "क्षेप": 2602,
      "शीर्ष": 2603,
      "डोल्से": 2604,
      "भेजा": 2605,
      "लड़का": 2606,
      "आएगा": 2607,
      "वित्त": 2608,
      "टिप्पणी": 2609,
      "तंत्रिका": 2610,
      "मिलेगा": 2611,
      "मिलेगी": 2612,
      "उद्यमी": 2613,
      "हफ्ते": 2614,
      "क्षेत्रों": 2615,
      "इंसानों": 2616,
      "हजारों": 2617,
      "प्रदर्शित": 2618,
      "निराश": 2619,
      "धोखेबाज़": 2620,
      "चढ़ा": 2621,
      "सूची": 2622,
      "पूछताछ": 2623,
      "उबरने": 2624,
      "गिराव": 2625,
      "पत्नी": 2626,
      "प्रशिक्षित": 2627,
      "फ्रीलांस": 2628,
      "आज़माएं": 2629,
      "ड्राइ": 2630,
      "फुट": 2631,
      "लौट": 2632,
      "मुद्दा": 2633,
      "ट्रिगर": 2634,
      "जागरूकता": 2635,
      "ढूंढना": 2636,
      "शिकार": 2637,
      "पहचान": 2638,
      "अनिश्चितता": 2639,
      "गड़बड़": 2640,
      "बॉक्स": 2641,
      "शौक": 2642,
      "प्रबंधन": 2643,
      "सुखवादी": 2644,
      "सुलझा": 2645,
      "जिम्मेदारी": 2646,
      "फिल्म": 2647,
      "शर्मिंदा": 2648,
      "अस्तित्व": 2649,
      "अंधे": 2650,
      "उद्धरण": 2651,
      "चैनल": 2652,
      "पंक्ति": 2653,
      "वातावरण": 2654,
      "विज्ञापन": 2655,
      "थेरेपी": 2656,
      "प्रायोज": 2657,
      "रिकॉर्ड": 2658,
      "खिलाफ": 2659,
      "फायदे": 2660,
      "अपरिहार्य": 2661,
      "अनिवार्य": 2662,
      "इलेक्ट्रिक": 2663,
      "एक्सचेंज": 2664,
      "ऑर्डर": 2665,
      "गंभीर": 2666,
      "डॉलर": 2667,
      "बार्टलेट": 2668,
      "लंदन": 2669,
      "शतरंज": 2670,
      "समुद्र": 2671,
      "साक्षात्कार": 2672,
      "प्रकृति": 2673,
      "विटामिन": 2674,
      "संज्ञानात्मक": 2675,
      "निरीक्षण": 2676,
      "अनुसरण": 2677,
      "बेवकूफ": 2678,
      "विशेषाधिकार": 2679,
      "अक्टूबर": 2680,
      "गिरावट": 2681,
      "11": 2682,
      "14": 2683,
      "21": 2684,
      "40": 2685,
      "le": 2686,
      "ंजी": 2687,
      "ंस्टन": 2688,
      "अफ": 2689,
      "अना": 2690,
      "अंग": 2691,
      "अहसास": 2692,
      "अद्य": 2693,
      "असाधारण": 2694,
      "अहं": 2695,
      "अपरा": 2696,
      "आं": 2697,
      "आधार": 2698,
      "आंक": 2699,
      "आघा": 2700,
      "आधे": 2701,
      "आभारी": 2702,
      "उथ": 2703,
      "उतार": 2704,
      "कट": 2705,
      "खंड": 2706,
      "खड़े": 2707,
      "ख्यान": 2708,
      "गज": 2709,
      "गै": 2710,
      "गधा": 2711,
      "गब्": 2712,
      "गैंडी": 2713,
      "गरेट": 2714,
      "घो": 2715,
      "घबरा": 2716,
      "चम": 2717,
      "जहा": 2718,
      "टल": 2719,
      "टॉ": 2720,
      "टों": 2721,
      "टीक": 2722,
      "टकारा": 2723,
      "ड्स": 2724,
      "डराव": 2725,
      "ढा": 2726,
      "ढेर": 2727,
      "तका": 2728,
      "तरा": 2729,
      "तमान": 2730,
      "तस्वी": 2731,
      "थका": 2732,
      "दस्त": 2733,
      "दगी": 2734,
      "धर": 2735,
      "धै": 2736,
      "ध्र": 2737,
      "धार्": 2738,
      "नु": 2739,
      "नै": 2740,
      "नॉ": 2741,
      "न्": 2742,
      "नष्ट": 2743,
      "नशी": 2744,
      "नुक": 2745,
      "नरम": 2746,
      "पत": 2747,
      "पने": 2748,
      "पहा": 2749,
      "फर्क": 2750,
      "बर्न": 2751,
      "भय": 2752,
      "भार": 2753,
      "भोग": 2754,
      "मक्": 2755,
      "मंद": 2756,
      "यब": 2757,
      "रक्त": 2758,
      "रक्षक": 2759,
      "लक": 2760,
      "लसा": 2761,
      "लूंगा": 2762,
      "व्": 2763,
      "वहीं": 2764,
      "वधि": 2765,
      "शैं": 2766,
      "षणा": 2767,
      "सड़": 2768,
      "सदी": 2769,
      "सूँ": 2770,
      "सटीक": 2771,
      "हकों": 2772,
      "ातका": 2773,
      "िवार": 2774,
      "ीक्षा": 2775,
      "ूठ": 2776,
      "ूहों": 2777,
      "ैफ": 2778,
      "्म": 2779,
      "हैरी": 2780,
      "किक": 2781,
      "कियों": 2782,
      "नेस": 2783,
      "सेल्स": 2784,
      "कें": 2785,
      "करे": 2786,
      "आपातका": 2787,
      "सांस": 2788,
      "सादगी": 2789,
      "स्ना": 2790,
      "स्पर": 2791,
      "स्वे": 2792,
      "स्विच": 2793,
      "कानू": 2794,
      "कागज": 2795,
      "रहूंगा": 2796,
      "एकमा": 2797,
      "हूंगा": 2798,
      "वाक्या": 2799,
      "मुद्दे": 2800,
      "मुक्त": 2801,
      "मुझमें": 2802,
      "परक": 2803,
      "र्द": 2804,
      "र्सी": 2805,
      "जोड़ने": 2806,
      "प्रस्त": 2807,
      "प्रचार": 2808,
      "मांग": 2809,
      "विनम": 2810,
      "विंस्टन": 2811,
      "बाह": 2812,
      "कुंजी": 2813,
      "कुर्सी": 2814,
      "रूम": 2815,
      "जिज्ञा": 2816,
      "जितनी": 2817,
      "लाख": 2818,
      "लाभ": 2819,
      "लाया": 2820,
      "लाइसे": 2821,
      "लालसा": 2822,
      "चालित": 2823,
      "चाहूंगा": 2824,
      "संपत्": 2825,
      "संधान": 2826,
      "संवेद": 2827,
      "पाठ": 2828,
      "पाएं": 2829,
      "पाएंगे": 2830,
      "पाऊंगा": 2831,
      "पायल": 2832,
      "पावधि": 2833,
      "निप": 2834,
      "निदान": 2835,
      "समीक्षा": 2836,
      "समूहों": 2837,
      "तोड़ना": 2838,
      "कारक": 2839,
      "कारों": 2840,
      "नीतिक": 2841,
      "वेस्ट": 2842,
      "शाप": 2843,
      "शादिया": 2844,
      "जीने": 2845,
      "जीते": 2846,
      "तीसरा": 2847,
      "गायब": 2848,
      "सोने": 2849,
      "श्मन": 2850,
      "श्विक": 2851,
      "क्षी": 2852,
      "क्ष्य": 2853,
      "मिठा": 2854,
      "व्यर्थ": 2855,
      "सब्स": 2856,
      "सबुक": 2857,
      "खाता": 2858,
      "ल्ड": 2859,
      "भाई": 2860,
      "मानव": 2861,
      "मानना": 2862,
      "खुले": 2863,
      "लीन": 2864,
      "लीपॉप": 2865,
      "बिट": 2866,
      "कहकर": 2867,
      "सोचो": 2868,
      "सिगरेट": 2869,
      "द्वि": 2870,
      "द्दी": 2871,
      "बनाई": 2872,
      "बनाम": 2873,
      "बनाएंगे": 2874,
      "कैरि": 2875,
      "व्यक्तिपरक": 2876,
      "अनुसंधान": 2877,
      "दीजिए": 2878,
      "सरत": 2879,
      "रखेंगे": 2880,
      "प्रतिध्वनि": 2881,
      "रोवर": 2882,
      "जनता": 2883,
      "पूर्णता": 2884,
      "पीए": 2885,
      "पीठ": 2886,
      "ीकृति": 2887,
      "स्वीकृति": 2888,
      "परिचित": 2889,
      "मिलूंगा": 2890,
      "दुश्मन": 2891,
      "डालना": 2892,
      "बताना": 2893,
      "बताते": 2894,
      "कास्टिंग": 2895,
      "बदलते": 2896,
      "उपयुक्त": 2897,
      "उपभोग": 2898,
      "वैश्विक": 2899,
      "प्रासंग": 2900,
      "चिल": 2901,
      "ज़र": 2902,
      "पैक": 2903,
      "कतार": 2904,
      "प्रेम": 2905,
      "चेन": 2906,
      "चेतन": 2907,
      "चीज़ें": 2908,
      "आत्मसम्मान": 2909,
      "टेड": 2910,
      "टेली": 2911,
      "्यूटर": 2912,
      "िनय": 2913,
      "बीमार": 2914,
      "डिली": 2915,
      "स्पद": 2916,
      "सुनना": 2917,
      "उत्सु": 2918,
      "वीलॉग": 2919,
      "बैठने": 2920,
      "बैठकर": 2921,
      "बैठना": 2922,
      "नौकरि": 2923,
      "चलाने": 2924,
      "केंद्रीय": 2925,
      "प्रभावशाली": 2926,
      "बोत": 2927,
      "बोध": 2928,
      "बोलना": 2929,
      "कर्म": 2930,
      "गुज": 2931,
      "जुड़": 2932,
      "ट्रैफ": 2933,
      "विषयों": 2934,
      "भूख": 2935,
      "भूति": 2936,
      "दर्शन": 2937,
      "पेन": 2938,
      "पेशि": 2939,
      "पेशक": 2940,
      "लॉलीपॉप": 2941,
      "वर्क": 2942,
      "वर्तमान": 2943,
      "पड़ती": 2944,
      "निर्माता": 2945,
      "दौड़ने": 2946,
      "लिखना": 2947,
      "घर्षण": 2948,
      "डरता": 2949,
      "शर्ट": 2950,
      "शर्त": 2951,
      "सलाहकार": 2952,
      "क्रॉस": 2953,
      "सुरक्षा": 2954,
      "ब्रांडों": 2955,
      "यूट्यूबर्स": 2956,
      "ग्राहकों": 2957,
      "व्यापार": 2958,
      "परेशानी": 2959,
      "डीएम": 2960,
      "कार्यक्रम": 2961,
      "बहस": 2962,
      "फिटनेस": 2963,
      "ैनिक": 2964,
      "फाई": 2965,
      "फास्ट": 2966,
      "डेट": 2967,
      "तैयारी": 2968,
      "बिताए": 2969,
      "बिताना": 2970,
      "टीमों": 2971,
      "कंप्यूटर": 2972,
      "मॉडलों": 2973,
      "कराता": 2974,
      "संकेतों": 2975,
      "अभिनय": 2976,
      "गर्मी": 2977,
      "जल्द": 2978,
      "फेसबुक": 2979,
      "हटाने": 2980,
      "ॉर्म": 2981,
      "महिलाएं": 2982,
      "अकेला": 2983,
      "प्रोफे": 2984,
      "प्रोत्साह": 2985,
      "दिखते": 2986,
      "डालते": 2987,
      "चर्चा": 2988,
      "चर्चिल": 2989,
      "फैसला": 2990,
      "पूर्वज": 2991,
      "चित्र": 2992,
      "फ़ोन": 2993,
      "भेज": 2994,
      "पर्दे": 2995,
      "पहनने": 2996,
      "बढ़ाने": 2997,
      "बढ़ावा": 2998,
      "नियमों": 2999,
      "शब्दों": 3000,
      "टिप्पणियों": 3001,
      "बूढ़े": 3002,
      "मेहमान": 3003,
      "पुरस्कारों": 3004,
      "प्राथमिकताएं": 3005,
      "रोमांचित": 3006,
      "चलेगा": 3007,
      "बचाने": 3008,
      "सर्जरी": 3009,
      "कुत्ता": 3010,
      "निष्क्रिय": 3011,
      "कमाया": 3012,
      "दिलाता": 3013,
      "कमजोरी": 3014,
      "पुरुषों": 3015,
      "घूमता": 3016,
      "पलट": 3017,
      "पारिवार": 3018,
      "हल्के": 3019,
      "हल्की": 3020,
      "प्रसिद्धि": 3021,
      "लांसर": 3022,
      "छुटकारा": 3023,
      "अभिशाप": 3024,
      "फ्रीलांसर": 3025,
      "खींच": 3026,
      "गूगल": 3027,
      "ड्रॉ": 3028,
      "स्यता": 3029,
      "मुद्दों": 3030,
      "निकाल": 3031,
      "दोषी": 3032,
      "स्थिरता": 3033,
      "उपकरणों": 3034,
      "उपलब्धियों": 3035,
      "विशेषज्ञता": 3036,
      "दृढ़ता": 3037,
      "जागरूक": 3038,
      "दरवा": 3039,
      "शून्य": 3040,
      "निर्देशों": 3041,
      "पदार्थों": 3042,
      "बहाना": 3043,
      "विलंबित": 3044,
      "पाउंड": 3045,
      "बोलते": 3046,
      "वस्तुतः": 3047,
      "अरब": 3048,
      "इरादा": 3049,
      "टुकड़े": 3050,
      "सदस्यता": 3051,
      "क्राइ": 3052,
      "प्रकाशित": 3053,
      "मांसपेशि": 3054,
      "तीव्रता": 3055,
      "कैमरे": 3056,
      "दुखद": 3057,
      "टाइम": 3058,
      "अल्पावधि": 3059,
      "अराजकता": 3060,
      "ऑटोपायल": 3061,
      "जंगल": 3062,
      "पृष्ठ": 3063,
      "मजेदार": 3064,
      "ॉयस": 3065,
      "सुझाव": 3066,
      "समझौता": 3067,
      "विश्लेषण": 3068,
      "मार्केटिंग": 3069,
      "फायदेमंद": 3070,
      "अद्यतन": 3071,
      "अहंकार": 3072,
      "अपराध": 3073,
      "आघात": 3074,
      "गब्बाना": 3075,
      "घोषणा": 3076,
      "जहाज": 3077,
      "धैर्य": 3078,
      "ध्रु": 3079,
      "धार्मिक": 3080,
      "नुकसान": 3081,
      "पहाड़": 3082,
      "बर्नआउट": 3083,
      "शैंपेन": 3084,
      "सड़क": 3085,
      "आपातकालीन": 3086,
      "एकमात्र": 3087,
      "वाक्यांश": 3088,
      "प्रस्तु": 3089,
      "शादियां": 3090,
      "सब्सक्राइ": 3091,
      "कैरियर": 3092,
      "प्रासंगिक": 3093,
      "पेशकश": 3094,
      "पारिवारिक": 3095,
      "ऑटोपायलट": 3096,
      "22": 3097,
      "90": 3098,
      "91": 3099,
      "95": 3100,
      "ai": 3101,
      "bn": 3102,
      "co": 3103,
      "er": 3104,
      "go": 3105,
      "gle": 3106,
      "ogle": 3107,
      "rbn": 3108,
      "ंभ": 3109,
      "ंह": 3110,
      "ंबित": 3111,
      "अका": 3112,
      "असं": 3113,
      "असफलता": 3114,
      "अस्वस्थ": 3115,
      "अटक": 3116,
      "आग": 3117,
      "आवे": 3118,
      "आएंगे": 3119,
      "आऊंगा": 3120,
      "आग्रह": 3121,
      "इड": 3122,
      "इल": 3123,
      "इश": 3124,
      "इक्रो": 3125,
      "एन": 3126,
      "एप": 3127,
      "एल्": 3128,
      "एलो": 3129,
      "औस": 3130,
      "कने": 3131,
      "कहो": 3132,
      "कला": 3133,
      "कक्षा": 3134,
      "कभार": 3135,
      "कसरत": 3136,
      "खल": 3137,
      "खें": 3138,
      "खनि": 3139,
      "खित": 3140,
      "गरी": 3141,
      "गर्व": 3142,
      "घृ": 3143,
      "घ्न": 3144,
      "घटाने": 3145,
      "चर": 3146,
      "चबा": 3147,
      "चार्": 3148,
      "छू": 3149,
      "छवि": 3150,
      "छड़ी": 3151,
      "जह": 3152,
      "जरू": 3153,
      "जर्न": 3154,
      "झक": 3155,
      "झु": 3156,
      "झूठ": 3157,
      "टें": 3158,
      "ट्रा": 3159,
      "टूर": 3160,
      "डू": 3161,
      "डॉ": 3162,
      "डबल": 3163,
      "णव": 3164,
      "तट": 3165,
      "तहा": 3166,
      "थन": 3167,
      "थिए": 3168,
      "दराज": 3169,
      "दसियों": 3170,
      "दूँगा": 3171,
      "दैनिक": 3172,
      "धम": 3173,
      "नज": 3174,
      "नर": 3175,
      "नदार": 3176,
      "पॉ": 3177,
      "पौ": 3178,
      "पक्": 3179,
      "पका": 3180,
      "पसी": 3181,
      "पतला": 3182,
      "फर": 3183,
      "फें": 3184,
      "फंस": 3185,
      "फॉर्म": 3186,
      "बगी": 3187,
      "बॉल": 3188,
      "बनें": 3189,
      "बैंड": 3190,
      "मं": 3191,
      "मवार": 3192,
      "मकान": 3193,
      "मटो": 3194,
      "यता": 3195,
      "यथा": 3196,
      "यिक": 3197,
      "रार": 3198,
      "रोग": 3199,
      "रंग": 3200,
      "रक्षण": 3201,
      "रदार": 3202,
      "रॉन": 3203,
      "रदस्त": 3204,
      "रॉयस": 3205,
      "लफ्रें": 3206,
      "वनी": 3207,
      "वश्य": 3208,
      "वजह": 3209,
      "शने": 3210,
      "शक्त": 3211,
      "शरार": 3212,
      "सल": 3213,
      "सों": 3214,
      "सनी": 3215,
      "सरे": 3216,
      "सज्": 3217,
      "हता": 3218,
      "हित": 3219,
      "हवे": 3220,
      "ह्यू": 3221,
      "हस्ता": 3222,
      "़रत": 3223,
      "ीट": 3224,
      "ॉट": 3225,
      "ॉटि": 3226,
      "ोत्": 3227,
      "्जि": 3228,
      "हैबिट": 3229,
      "किसे": 3230,
      "किंग": 3231,
      "किरदार": 3232,
      "नेता": 3233,
      "सेवा": 3234,
      "सेक्सी": 3235,
      "केला": 3236,
      "तार्": 3237,
      "याब": 3238,
      "यायी": 3239,
      "मेंट": 3240,
      "हील": 3241,
      "नाओं": 3242,
      "नाजु": 3243,
      "तेज़": 3244,
      "क्सि": 3245,
      "साइन": 3246,
      "साइट": 3247,
      "साढ़े": 3248,
      "स्क्रि": 3249,
      "स्क्री": 3250,
      "स्नै": 3251,
      "काऊ": 3252,
      "रहित": 3253,
      "्रणी": 3254,
      "होऊंगा": 3255,
      "वाय": 3256,
      "वाने": 3257,
      "वाना": 3258,
      "वासी": 3259,
      "वाल्": 3260,
      "मुला": 3261,
      "लेंस": 3262,
      "र्ट": 3263,
      "जोड़ा": 3264,
      "जोड़ी": 3265,
      "हाट्स": 3266,
      "प्रसं": 3267,
      "प्रवे": 3268,
      "प्रणा": 3269,
      "प्रस्ता": 3270,
      "अपलो": 3271,
      "मां": 3272,
      "माह": 3273,
      "माना": 3274,
      "मात्रा": 3275,
      "मास्टर": 3276,
      "माउथ": 3277,
      "माइक्रो": 3278,
      "विशा": 3279,
      "विंग": 3280,
      "विवरण": 3281,
      "वितीय": 3282,
      "विवादा": 3283,
      "बाधा": 3284,
      "बाईं": 3285,
      "कुरा": 3286,
      "जिटल": 3287,
      "जिद्दी": 3288,
      "संरे": 3289,
      "संपूर्ण": 3290,
      "संक्र": 3291,
      "संरचना": 3292,
      "संग्रह": 3293,
      "संरक्षण": 3294,
      "जानकर": 3295,
      "जानवर": 3296,
      "पाए": 3297,
      "पाते": 3298,
      "पालन": 3299,
      "निर": 3300,
      "निदेश": 3301,
      "कारें": 3302,
      "सीढ़": 3303,
      "सीधा": 3304,
      "नीं": 3305,
      "नीकरण": 3306,
      "शाला": 3307,
      "शानदार": 3308,
      "अपनेपन": 3309,
      "जबरदस्त": 3310,
      "जीना": 3311,
      "चाहेंगे": 3312,
      "किनारे": 3313,
      "तीसरे": 3314,
      "रासायन": 3315,
      "गाड़ी": 3316,
      "सोना": 3317,
      "सोमवार": 3318,
      "क्षर": 3319,
      "अधू": 3320,
      "व्यव": 3321,
      "सबूत": 3322,
      "सब्जि": 3323,
      "ल्लाते": 3324,
      "मानो": 3325,
      "अनदेखा": 3326,
      "बिल": 3327,
      "बिंबित": 3328,
      "अधिकार": 3329,
      "हरे": 3330,
      "स्टिंग": 3331,
      "सुनी": 3332,
      "कामयाब": 3333,
      "सोचे": 3334,
      "सोचकर": 3335,
      "सिता": 3336,
      "सिक्स": 3337,
      "प्ट": 3338,
      "देखो": 3339,
      "कैफी": 3340,
      "कैस्पर": 3341,
      "ढ़ा": 3342,
      "अनुरो": 3343,
      "अनुयायी": 3344,
      "एंडर": 3345,
      "अग्रणी": 3346,
      "जिनकी": 3347,
      "रिंग": 3348,
      "रिदम": 3349,
      "बदले": 3350,
      "सरक": 3351,
      "रखूंगा": 3352,
      "ज्ञता": 3353,
      "प्रतिनि": 3354,
      "प्रतिबिंबित": 3355,
      "छोड़ा": 3356,
      "रोज": 3357,
      "रोना": 3358,
      "रोइन": 3359,
      "रोल्स": 3360,
      "चारों": 3361,
      "जनों": 3362,
      "जनजा": 3363,
      "बेचना": 3364,
      "बेतहा": 3365,
      "पीआर": 3366,
      "ज्ञात": 3367,
      "स्वचालित": 3368,
      "परिपक्": 3369,
      "दुः": 3370,
      "दुकान": 3371,
      "दुखी": 3372,
      "इनबॉक्स": 3373,
      "मीला": 3374,
      "लगाव": 3375,
      "लगाता": 3376,
      "विश्वासी": 3377,
      "बताएंगे": 3378,
      "बदलता": 3379,
      "शेयर": 3380,
      "शेवर": 3381,
      "चिल्लाते": 3382,
      "ज़े": 3383,
      "पैड": 3384,
      "पैर": 3385,
      "पैके": 3386,
      "ंडर": 3387,
      "नियादी": 3388,
      "बादल": 3389,
      "बादलों": 3390,
      "मूलभूत": 3391,
      "आत्मविश्वासी": 3392,
      "टेक": 3393,
      "वसायिक": 3394,
      "चलो": 3395,
      "अन्यथा": 3396,
      "प्रश्नों": 3397,
      "चुना": 3398,
      "चुनें": 3399,
      "लोटन": 3400,
      "डिजिटल": 3401,
      "योजन": 3402,
      "स्पॉटि": 3403,
      "लियां": 3404,
      "सुनकर": 3405,
      "सुनते": 3406,
      "भावनात्मक": 3407,
      "भावनाएँ": 3408,
      "उत्ते": 3409,
      "बैक": 3410,
      "बढ़ें": 3411,
      "बढ़िया": 3412,
      "रुख": 3413,
      "रुकें": 3414,
      "प्रेरक": 3415,
      "यूके": 3416,
      "टिस": 3417,
      "टियों": 3418,
      "बैठक": 3419,
      "व्यवसायों": 3420,
      "छोड़ना": 3421,
      "पहुंचेंगे": 3422,
      "अवचेतन": 3423,
      "हिला": 3424,
      "बुनियादी": 3425,
      "चिंताजनक": 3426,
      "गुफा": 3427,
      "गुणव": 3428,
      "जुड़े": 3429,
      "2020": 3430,
      "पढ़ी": 3431,
      "पढ़ना": 3432,
      "भूमि": 3433,
      "दर्शक": 3434,
      "दर्शकों": 3435,
      "पेशेवर": 3436,
      "पेलोटन": 3437,
      "डायने": 3438,
      "त्रासदी": 3439,
      "दौड़": 3440,
      "मौसम": 3441,
      "लिखता": 3442,
      "डरते": 3443,
      "शर्तों": 3444,
      "शर्करा": 3445,
      "शर्मीला": 3446,
      "परीक्षण": 3447,
      "रणनीति": 3448,
      "ग्राफ": 3449,
      "व्यावसायिक": 3450,
      "आजकल": 3451,
      "सफलतापूर्वक": 3452,
      "अद्वितीय": 3453,
      "उदासी": 3454,
      "वानु": 3455,
      "सीखी": 3456,
      "सीखना": 3457,
      "फ्ला": 3458,
      "शुरुआती": 3459,
      "डेटा": 3460,
      "दबाने": 3461,
      "मोटी": 3462,
      "युक्ति": 3463,
      "बिताने": 3464,
      "तिकला": 3465,
      "कराया": 3466,
      "म्प": 3467,
      "गर्म": 3468,
      "गर्लफ्रें": 3469,
      "चूक": 3470,
      "नफ़रत": 3471,
      "न्यूरॉन": 3472,
      "भाषा": 3473,
      "चुनौतियों": 3474,
      "उठाने": 3475,
      "उठाना": 3476,
      "प्रयोगशाला": 3477,
      "खरीदना": 3478,
      "खरीदारी": 3479,
      "एँगे": 3480,
      "ग्लाइसे": 3481,
      "लड़ें": 3482,
      "लड़कियों": 3483,
      "सितंबर": 3484,
      "पर्दा": 3485,
      "परिवर्तनकारी": 3486,
      "हीनता": 3487,
      "इसीलिए": 3488,
      "लेखक": 3489,
      "पहनना": 3490,
      "पहनते": 3491,
      "तत्वों": 3492,
      "मित्रता": 3493,
      "घटना": 3494,
      "समाधान": 3495,
      "त्याग": 3496,
      "राजनीतिक": 3497,
      "रोमांट": 3498,
      "घास": 3499,
      "बेचने": 3500,
      "समझाने": 3501,
      "समझाता": 3502,
      "समझाना": 3503,
      "दिलाते": 3504,
      "श्रेय": 3505,
      "श्रेणी": 3506,
      "मूर्तिकला": 3507,
      "नमकीन": 3508,
      "सूट": 3509,
      "हेरोइन": 3510,
      "हल्का": 3511,
      "शर्मनाक": 3512,
      "छुट्": 3513,
      "हाथों": 3514,
      "प्रशिक्षण": 3515,
      "निभाई": 3516,
      "सीमाएं": 3517,
      "जुड़ाव": 3518,
      "अभिनेता": 3519,
      "असुरक्षाएं": 3520,
      "असुरक्षाओं": 3521,
      "आज़माने": 3522,
      "गोरिदम": 3523,
      "सहायक": 3524,
      "सहानु": 3525,
      "सहायता": 3526,
      "सर्वोत्": 3527,
      "साइमन": 3528,
      "महत्वाकांक्षी": 3529,
      "गर्मियां": 3530,
      "विरोधाभासी": 3531,
      "छात्र": 3532,
      "लैपट": 3533,
      "तकनीक": 3534,
      "तकनीकी": 3535,
      "नोटिस": 3536,
      "विलंब": 3537,
      "पाउडर": 3538,
      "पुनः": 3539,
      "पुनर्": 3540,
      "टालमटो": 3541,
      "कृतघ्न": 3542,
      "कृतज्ञता": 3543,
      "मोटापे": 3544,
      "उठता": 3545,
      "एजेंसी": 3546,
      "नवीनीकरण": 3547,
      "लाउंजवियर": 3548,
      "पूर्वानु": 3549,
      "ब्रेक्सि": 3550,
      "अंदाज": 3551,
      "आंखें": 3552,
      "कॉम": 3553,
      "छिपी": 3554,
      "टकराव": 3555,
      "तहत": 3556,
      "नजरअंदाज": 3557,
      "फोर्ड": 3558,
      "वर्णन": 3559,
      "ताकतों": 3560,
      "तिहासिक": 3561,
      "जीतते": 3562,
      "कहानियाँ": 3563,
      "अनुकूलन": 3564,
      "दीवारों": 3565,
      "ग्रेड": 3566,
      "फाइवर": 3567,
      "चढ़ाव": 3568,
      "ड्राइविंग": 3569,
      "सुलझाने": 3570,
      "अंधेरे": 3571,
      "प्रायोजक": 3572,
      "खंडन": 3573,
      "तस्वीर": 3574,
      "व्हाट्स": 3575,
      "सूँघ": 3576,
      "कानून": 3577,
      "विनम्रता": 3578,
      "बाह्य": 3579,
      "संपत्ति": 3580,
      "संवेदनाओं": 3581,
      "निपटने": 3582,
      "प्रतिध्वनित": 3583,
      "बोतल": 3584,
      "गुजरा": 3585,
      "प्रोफेसर": 3586,
      "पूर्वजों": 3587,
      "दरवाजे": 3588,
      "अरबपति": 3589,
      "मांसपेशियों": 3590,
      "टाइमलाइन": 3591,
      "पृष्ठभूमि": 3592,
      "प्रस्तुत": 3593,
      "सब्सक्राइब": 3594,
      "airbn": 3595,
      "google": 3596,
      "आवेग": 3597,
      "एल्गोरिदम": 3598,
      "एलोन": 3599,
      "औसतन": 3600,
      "खनिज": 3601,
      "जरूरी": 3602,
      "जर्नल": 3603,
      "थिएटर": 3604,
      "धमका": 3605,
      "पॉटर": 3606,
      "फरवरी": 3607,
      "बगीचे": 3608,
      "यथासंभव": 3609,
      "वश्यक": 3610,
      "शरारती": 3611,
      "हवेली": 3612,
      "ह्यूएल": 3613,
      "हस्ताक्षर": 3614,
      "तार्किक": 3615,
      "नाजुक": 3616,
      "स्क्रीन": 3617,
      "स्नैप": 3618,
      "वाल्टर": 3619,
      "प्रसंस्कृत": 3620,
      "प्रवेश": 3621,
      "प्रस्ताव": 3622,
      "अपलोड": 3623,
      "विशाल": 3624,
      "विवादास्पद": 3625,
      "संरेखित": 3626,
      "संक्रमित": 3627,
      "निदेशक": 3628,
      "सीढ़ियों": 3629,
      "रासायनिक": 3630,
      "कैफीन": 3631,
      "अनुरोध": 3632,
      "बेतहाशा": 3633,
      "परिपक्व": 3634,
      "स्पॉटिफाई": 3635,
      "गुफाओं": 3636,
      "गुणवत्": 3637,
      "न्यूरॉन्स": 3638,
      "ग्लाइसेमिक": 3639,
      "रोमांटिक": 3640,
      "सहानुभूति": 3641,
      "सर्वोत्तम": 3642,
      "लैपटॉप": 3643,
      "टालमटोल": 3644,
      "ब्रेक्सिट": 3645,
      "व्हाट्सएप": 3646,
      "airbnb": 3647,
      "17": 3648,
      "23": 3649,
      "24": 3650,
      "26": 3651,
      "52": 3652,
      "5जी": 3653,
      "66": 3654,
      "80": 3655,
      "fi": 3656,
      "ver": 3657,
      "ँक": 3658,
      "ँकि": 3659,
      "ँखें": 3660,
      "ंछ": 3661,
      "ंजा": 3662,
      "ंटी": 3663,
      "अड": 3664,
      "अल": 3665,
      "अला": 3666,
      "अती": 3667,
      "अरे": 3668,
      "अवास्तविक": 3669,
      "अस्वास्थ्य": 3670,
      "अस्थिर": 3671,
      "अभूत": 3672,
      "असहज": 3673,
      "असभ्य": 3674,
      "अशक्त": 3675,
      "अज्ञात": 3676,
      "आओ": 3677,
      "आह": 3678,
      "आकर": 3679,
      "आसा": 3680,
      "आइस": 3681,
      "आत्": 3682,
      "आएं": 3683,
      "आर्थ": 3684,
      "आदेश": 3685,
      "आकां": 3686,
      "आँखें": 3687,
      "इक": 3688,
      "इलि": 3689,
      "इला": 3690,
      "इंड": 3691,
      "इंग": 3692,
      "इमार": 3693,
      "इयाँ": 3694,
      "इतिहा": 3695,
      "इधर": 3696,
      "इर्द": 3697,
      "इटेड": 3698,
      "ईक्यू": 3699,
      "ईएल": 3700,
      "ईमाउथ": 3701,
      "उक": 3702,
      "उछ": 3703,
      "उड़": 3704,
      "उपा": 3705,
      "उधार": 3706,
      "उधर": 3707,
      "एफ": 3708,
      "एनि": 3709,
      "एयर": 3710,
      "एनए": 3711,
      "एम्": 3712,
      "एक्स": 3713,
      "ऐतिहासिक": 3714,
      "ऑपरे": 3715,
      "ऑक्सी": 3716,
      "ओपि": 3717,
      "ओलं": 3718,
      "ओल्ड": 3719,
      "कैं": 3720,
      "कड़": 3721,
      "कैंडी": 3722,
      "खर": 3723,
      "खू": 3724,
      "ख्याल": 3725,
      "खरों": 3726,
      "खतरा": 3727,
      "गन": 3728,
      "गम": 3729,
      "गंद": 3730,
      "गहों": 3731,
      "गिन": 3732,
      "गंध": 3733,
      "गौर": 3734,
      "गिला": 3735,
      "गंदगी": 3736,
      "घिर": 3737,
      "चय": 3738,
      "चै": 3739,
      "चॉ": 3740,
      "चो": 3741,
      "चता": 3742,
      "चूं": 3743,
      "चें": 3744,
      "चली": 3745,
      "चारी": 3746,
      "चतुर": 3747,
      "चोर": 3748,
      "छता": 3749,
      "जल": 3750,
      "जला": 3751,
      "जमी": 3752,
      "जहरी": 3753,
      "जलन": 3754,
      "जॉन": 3755,
      "जर्म": 3756,
      "जगहों": 3757,
      "झि": 3758,
      "झो": 3759,
      "टस": 3760,
      "टै": 3761,
      "टहा": 3762,
      "टिक": 3763,
      "टरी": 3764,
      "टॉप": 3765,
      "टैंडी": 3766,
      "टलॉग": 3767,
      "टशर्ट": 3768,
      "ठे": 3769,
      "ठंड": 3770,
      "डों": 3771,
      "डमिल": 3772,
      "डरूम": 3773,
      "डबैक": 3774,
      "ढंग": 3775,
      "णति": 3776,
      "णित": 3777,
      "तै": 3778,
      "तही": 3779,
      "तथा": 3780,
      "तव्य": 3781,
      "तम्": 3782,
      "थल": 3783,
      "थै": 3784,
      "थॉ": 3785,
      "दल": 3786,
      "दने": 3787,
      "दोग": 3788,
      "दार्": 3789,
      "दमिक": 3790,
      "दशकों": 3791,
      "धर्म": 3792,
      "नव": 3793,
      "नारा": 3794,
      "नज़र": 3795,
      "पयोग": 3796,
      "पद्ध": 3797,
      "पकारी": 3798,
      "पछता": 3799,
      "फट": 3800,
      "फ्रा": 3801,
      "फर्श": 3802,
      "बौ": 3803,
      "बलि": 3804,
      "बारी": 3805,
      "बजना": 3806,
      "भरे": 3807,
      "भंड": 3808,
      "मरी": 3809,
      "म्स": 3810,
      "मशी": 3811,
      "मधु": 3812,
      "मवर्क": 3813,
      "यत": 3814,
      "रवि": 3815,
      "रद्": 3816,
      "रवाना": 3817,
      "लस": 3818,
      "लची": 3819,
      "लैंड": 3820,
      "वो": 3821,
      "वरू": 3822,
      "वीक": 3823,
      "शॉट": 3824,
      "सृ": 3825,
      "सने": 3826,
      "सूं": 3827,
      "सवार": 3828,
      "सैंड": 3829,
      "सपना": 3830,
      "सतही": 3831,
      "हँ": 3832,
      "हट": 3833,
      "हवा": 3834,
      "हतो": 3835,
      "हार्": 3836,
      "हवाई": 3837,
      "ायक": 3838,
      "िश": 3839,
      "िता": 3840,
      "िम्": 3841,
      "ीर": 3842,
      "ुना": 3843,
      "ृद्ध": 3844,
      "ेट": 3845,
      "ेफ": 3846,
      "ैश": 3847,
      "ैनी": 3848,
      "ैच्छ": 3849,
      "ोता": 3850,
      "ोपकारी": 3851,
      "ौल": 3852,
      "्ने": 3853,
      "्मुख": 3854,
      "्मजा": 3855,
      "हैप्": 3856,
      "किलो": 3857,
      "मेज़": 3858,
      "मेशन": 3859,
      "मेदारी": 3860,
      "नेह": 3861,
      "सेस": 3862,
      "सेल्": 3863,
      "केक": 3864,
      "केले": 3865,
      "ताखो": 3866,
      "तावनी": 3867,
      "करार": 3868,
      "यानी": 3869,
      "आपदा": 3870,
      "ैंग": 3871,
      "ारक": 3872,
      "ारंभ": 3873,
      "हील्स": 3874,
      "नाते": 3875,
      "नाश्": 3876,
      "नांत": 3877,
      "नाखुशी": 3878,
      "नाइटेड": 3879,
      "क्ट": 3880,
      "क्ड": 3881,
      "क्लि": 3882,
      "क्रू": 3883,
      "क्रे": 3884,
      "क्शन": 3885,
      "क्विड": 3886,
      "कोलॉ": 3887,
      "कोटीन": 3888,
      "कोरोना": 3889,
      "साने": 3890,
      "साया": 3891,
      "साधन": 3892,
      "सातों": 3893,
      "सांख": 3894,
      "साधित": 3895,
      "साझे": 3896,
      "साक्ष्य": 3897,
      "स्ते": 3898,
      "स्सा": 3899,
      "स्यों": 3900,
      "स्पि": 3901,
      "स्यो": 3902,
      "स्तार": 3903,
      "स्पर्": 3904,
      "स्कुरा": 3905,
      "स्नेह": 3906,
      "काइ": 3907,
      "कात": 3908,
      "काल": 3909,
      "काला": 3910,
      "काटने": 3911,
      "कायम": 3912,
      "कायत": 3913,
      "रहकर": 3914,
      "रहूं": 3915,
      "रहूँगा": 3916,
      "रहस्यो": 3917,
      "लिं": 3918,
      "लियो": 3919,
      "कीजिए": 3920,
      "जाज": 3921,
      "जाइए": 3922,
      "जादू": 3923,
      "्यक्रम": 3924,
      "्यिकी": 3925,
      "एकल": 3926,
      "एकदम": 3927,
      "एकपत्नी": 3928,
      "होश": 3929,
      "होकर": 3930,
      "होमवर्क": 3931,
      "वादे": 3932,
      "वापसी": 3933,
      "वांछ": 3934,
      "मुड़ने": 3935,
      "मुफ्": 3936,
      "मुंह": 3937,
      "मुस्कुरा": 3938,
      "थाई": 3939,
      "लेती": 3940,
      "लेगा": 3941,
      "लेज़": 3942,
      "लेपन": 3943,
      "लेक्स": 3944,
      "पर्स": 3945,
      "परफे": 3946,
      "परोपकारी": 3947,
      "र्दृष्टि": 3948,
      "जोन": 3949,
      "हाई": 3950,
      "हाला": 3951,
      "हानिक": 3952,
      "प्रार्थ": 3953,
      "प्रकाश": 3954,
      "प्रफु": 3955,
      "प्रमाण": 3956,
      "प्रारंभ": 3957,
      "िकों": 3958,
      "लगने": 3959,
      "लग्न": 3960,
      "लगेगा": 3961,
      "लगवाने": 3962,
      "अपार्ट": 3963,
      "अपडेट": 3964,
      "दित": 3965,
      "दियों": 3966,
      "दिसं": 3967,
      "मानि": 3968,
      "माशी": 3969,
      "स्त्र": 3970,
      "स्तरा": 3971,
      "ड़की": 3972,
      "उन्मुख": 3973,
      "देनी": 3974,
      "देशन": 3975,
      "विभा": 3976,
      "विदेश": 3977,
      "विभिन्न": 3978,
      "विस्तार": 3979,
      "बाय": 3980,
      "बाल": 3981,
      "बादी": 3982,
      "बाकू": 3983,
      "बाधित": 3984,
      "बालक": 3985,
      "बाइल": 3986,
      "हमसे": 3987,
      "हमला": 3988,
      "रूटीन": 3989,
      "जिल्स": 3990,
      "लाई": 3991,
      "लाता": 3992,
      "लासा": 3993,
      "लागत": 3994,
      "चाय": 3995,
      "चालू": 3996,
      "संचार": 3997,
      "संबो": 3998,
      "संभावित": 3999,
      "संक्षेप": 4000,
      "संकट": 4001,
      "संयोजन": 4002,
      "संलग्न": 4003,
      "ोगे": 4004,
      "जानती": 4005,
      "पाना": 4006,
      "पात्र": 4007,
      "पाब्": 4008,
      "पाँच": 4009,
      "निवर्": 4010,
      "निपट": 4011,
      "निटस": 4012,
      "निकोटीन": 4013,
      "समस": 4014,
      "समग्र": 4015,
      "समृद्ध": 4016,
      "कारकों": 4017,
      "कार्याल": 4018,
      "कारमेल": 4019,
      "सीट": 4020,
      "सीखे": 4021,
      "त्ति": 4022,
      "वेक्षण": 4023,
      "वेट्रे": 4024,
      "बहुतों": 4025,
      "शाम": 4026,
      "शाता": 4027,
      "शासित": 4028,
      "शास्त्र": 4029,
      "जीवित": 4030,
      "जीक्यू": 4031,
      "चाहें": 4032,
      "राग": 4033,
      "राजी": 4034,
      "रातों": 4035,
      "सोस": 4036,
      "सोएंगे": 4037,
      "सोफे": 4038,
      "जैक": 4039,
      "क्षु": 4040,
      "क्ष्म": 4041,
      "साथियों": 4042,
      "अधीर": 4043,
      "रहेगा": 4044,
      "मिशे": 4045,
      "मिलेंगे": 4046,
      "व्यसनी": 4047,
      "खाया": 4048,
      "खाते": 4049,
      "खाऊंगा": 4050,
      "बातों": 4051,
      "ल्ट": 4052,
      "ल्लित": 4053,
      "भागी": 4054,
      "मानने": 4055,
      "खुलासा": 4056,
      "लीजिए": 4057,
      "तकों": 4058,
      "अनजाने": 4059,
      "बिलियन": 4060,
      "बिसात": 4061,
      "अधिकतम": 4062,
      "हरों": 4063,
      "स्टै": 4064,
      "स्टैन": 4065,
      "स्टार्ट": 4066,
      "स्टैंड": 4067,
      "स्टेफ": 4068,
      "कहे": 4069,
      "पहलू": 4070,
      "सुराग": 4071,
      "कामना": 4072,
      "कामका": 4073,
      "सोचेंगे": 4074,
      "थीम": 4075,
      "सिटी": 4076,
      "द्वी": 4077,
      "द्घा": 4078,
      "प्लग": 4079,
      "प्लस": 4080,
      "दादा": 4081,
      "दादी": 4082,
      "दाईं": 4083,
      "बनाएं": 4084,
      "बनाईं": 4085,
      "दोहरी": 4086,
      "कैद": 4087,
      "कैसी": 4088,
      "कैटलॉग": 4089,
      "रेत": 4090,
      "रेखा": 4091,
      "रेस्तरा": 4092,
      "अनुभाग": 4093,
      "अनुवर्": 4094,
      "अनुपयोग": 4095,
      "एंड": 4096,
      "एंटी": 4097,
      "एंजिल्स": 4098,
      "शिया": 4099,
      "शिवि": 4100,
      "शिष्ट": 4101,
      "शिकायत": 4102,
      "ार्थी": 4103,
      "पिय": 4104,
      "पिया": 4105,
      "पिज्": 4106,
      "पियन": 4107,
      "पिंज": 4108,
      "रिक्त": 4109,
      "रियां": 4110,
      "बदतर": 4111,
      "बदमाशी": 4112,
      "रखी": 4113,
      "रखकर": 4114,
      "प्रतिरो": 4115,
      "प्रतिस्थापित": 4116,
      "प्रतिस्पर्": 4117,
      "स्थित": 4118,
      "रोने": 4119,
      "रोका": 4120,
      "रोकता": 4121,
      "रोस्टिंग": 4122,
      "चारियों": 4123,
      "जन्म": 4124,
      "जन्मजा": 4125,
      "बेन": 4126,
      "बेताब": 4127,
      "बेशक": 4128,
      "बेरोज": 4129,
      "बेडरूम": 4130,
      "त्वरित": 4131,
      "पीओ": 4132,
      "बनता": 4133,
      "स्वर्ण": 4134,
      "स्वार्थी": 4135,
      "परिप्रे": 4136,
      "परिचय": 4137,
      "परिणति": 4138,
      "मिलकर": 4139,
      "समझेंगे": 4140,
      "मीटर": 4141,
      "पुकार": 4142,
      "लगाए": 4143,
      "लगाम": 4144,
      "डाइ": 4145,
      "डांस": 4146,
      "डालने": 4147,
      "डालें": 4148,
      "डाइट": 4149,
      "बताई": 4150,
      "बताऊंगा": 4151,
      "उपस्थिति": 4152,
      "फलर": 4153,
      "वैध": 4154,
      "प्राणी": 4155,
      "चिंग": 4156,
      "चिढ़ा": 4157,
      "ज़ार": 4158,
      "ज़ोर": 4159,
      "ज़िम्": 4160,
      "पैल": 4161,
      "पैटर्न": 4162,
      "ंडो": 4163,
      "नियां": 4164,
      "पसन": 4165,
      "प्रेस": 4166,
      "प्रेमी": 4167,
      "ंगर": 4168,
      "चेक": 4169,
      "चेतावनी": 4170,
      "ड़ेदान": 4171,
      "द्धा": 4172,
      "टेन": 4173,
      "टेप": 4174,
      "टेल": 4175,
      "टेबल": 4176,
      "पहुँच": 4177,
      "बीत": 4178,
      "बीएस": 4179,
      "बीएन": 4180,
      "डिज़ा": 4181,
      "योइड": 4182,
      "स्पो": 4183,
      "लियाँ": 4184,
      "फीडबैक": 4185,
      "बढ़ना": 4186,
      "बढ़ेंगे": 4187,
      "वीट": 4188,
      "यूनाइटेड": 4189,
      "यूनिवर्": 4190,
      "क्रिसमस": 4191,
      "टिश": 4192,
      "टिके": 4193,
      "टिकाऊ": 4194,
      "टिनिटस": 4195,
      "ंत्रित": 4196,
      "बैठते": 4197,
      "बैठें": 4198,
      "बैठती": 4199,
      "बैठेंगे": 4200,
      "निर्णयों": 4201,
      "निर्णायक": 4202,
      "छोड़ता": 4203,
      "पहुंचे": 4204,
      "अवगत": 4205,
      "अंतर्दृष्टि": 4206,
      "व्यवहारिक": 4207,
      "मददगार": 4208,
      "खेद": 4209,
      "चलाता": 4210,
      "चलाते": 4211,
      "शनिकों": 4212,
      "हिट": 4213,
      "र्थक": 4214,
      "व्यवसायिक": 4215,
      "बरकरार": 4216,
      "बोहाइ": 4217,
      "बुद्धि": 4218,
      "चिंताओं": 4219,
      "गुंजा": 4220,
      "गुस्सा": 4221,
      "पिछला": 4222,
      "पिछली": 4223,
      "जुटा": 4224,
      "शोर": 4225,
      "20k": 4226,
      "2019": 4227,
      "खोजा": 4228,
      "खोलना": 4229,
      "पन्ने": 4230,
      "जेट": 4231,
      "जेमी": 4232,
      "जेम्स": 4233,
      "पोक": 4234,
      "पढ़ता": 4235,
      "पढ़ते": 4236,
      "भूखा": 4237,
      "अनुभवों": 4238,
      "अनुभवहीन": 4239,
      "खिड़की": 4240,
      "दर्पण": 4241,
      "दर्शाता": 4242,
      "फिसल": 4243,
      "हिस्सों": 4244,
      "पेपैल": 4245,
      "लॉस": 4246,
      "वर्से": 4247,
      "वर्किंग": 4248,
      "घरों": 4249,
      "पड़ना": 4250,
      "स्थापना": 4251,
      "स्थानांत": 4252,
      "निर्देशन": 4253,
      "इंटेल": 4254,
      "मौत": 4255,
      "मौके": 4256,
      "मौलिक": 4257,
      "लिखते": 4258,
      "लिखें": 4259,
      "डरपोक": 4260,
      "यूट्यूबर": 4261,
      "श्रोता": 4262,
      "ग्रो": 4263,
      "ग्रैंड": 4264,
      "क्रैश": 4265,
      "ग्राफ्": 4266,
      "व्याप्त": 4267,
      "व्याख्यान": 4268,
      "प्रेरणाएँ": 4269,
      "प्रेरणादायक": 4270,
      "आजमा": 4271,
      "ब्लू": 4272,
      "भरने": 4273,
      "दिखाता": 4274,
      "दिखाना": 4275,
      "उदास": 4276,
      "डीजे": 4277,
      "हुईं": 4278,
      "सीखते": 4279,
      "सीखेंगे": 4280,
      "घंटा": 4281,
      "घंटों": 4282,
      "झाँक": 4283,
      "बचते": 4284,
      "देंगी": 4285,
      "भोलेपन": 4286,
      "उत्तरों": 4287,
      "एपिफे": 4288,
      "खरीदी": 4289,
      "खरीदार": 4290,
      "जूझ": 4291,
      "जूते": 4292,
      "जूतों": 4293,
      "डेढ़": 4294,
      "पकड़ना": 4295,
      "मोटे": 4296,
      "मोहक": 4297,
      "मोबाइल": 4298,
      "मोहरों": 4299,
      "युग": 4300,
      "युद्ध": 4301,
      "सकतीं": 4302,
      "मिनो": 4303,
      "कंपनियां": 4304,
      "आईं": 4305,
      "आईईएल": 4306,
      "आईपीओ": 4307,
      "कराते": 4308,
      "कराती": 4309,
      "कराएगा": 4310,
      "पुराना": 4311,
      "म्पसन": 4312,
      "अभिया": 4313,
      "गर्स": 4314,
      "उद्देश्यहीनता": 4315,
      "प्यारा": 4316,
      "प्रोसेस": 4317,
      "दिखना": 4318,
      "टूटी": 4319,
      "निकलना": 4320,
      "मूड": 4321,
      "भाषण": 4322,
      "उठाया": 4323,
      "उठाते": 4324,
      "प्रयोगों": 4325,
      "मिलीं": 4326,
      "रोकना": 4327,
      "खरीदते": 4328,
      "फैशने": 4329,
      "सम्मोहक": 4330,
      "ग्लेज़": 4331,
      "डोर": 4332,
      "डोमिनो": 4333,
      "फ़ा": 4334,
      "फ़े": 4335,
      "फ़्": 4336,
      "भेजना": 4337,
      "भेजने": 4338,
      "भेजें": 4339,
      "लड़कों": 4340,
      "पर्व": 4341,
      "पुरस्कृत": 4342,
      "मिनटों": 4343,
      "दृष्टिकोणों": 4344,
      "अमीरात": 4345,
      "ट्ठा": 4346,
      "ट्वीट": 4347,
      "मारा": 4348,
      "मारने": 4349,
      "मारूंगा": 4350,
      "लेखों": 4351,
      "पुस्तकों": 4352,
      "बढ़ाया": 4353,
      "भूमिकाओं": 4354,
      "सकेंगे": 4355,
      "क्रीम": 4356,
      "कलम": 4357,
      "कूड़ेदान": 4358,
      "घटक": 4359,
      "पक्षपा": 4360,
      "बर्गर": 4361,
      "गुजरने": 4362,
      "गुजरते": 4363,
      "अवसादग्रस्त": 4364,
      "एमएस": 4365,
      "नतम": 4366,
      "पड़ेगा": 4367,
      "बचाव": 4368,
      "बचाया": 4369,
      "बचाएगा": 4370,
      "सर्वेक्षण": 4371,
      "कुत्तों": 4372,
      "सिखाए": 4373,
      "बेचते": 4374,
      "बेचैनी": 4375,
      "126": 4376,
      "आमंत्रित": 4377,
      "कमाई": 4378,
      "कमाऊंगा": 4379,
      "कमांडो": 4380,
      "दिलाया": 4381,
      "विरोध": 4382,
      "दर्दनाक": 4383,
      "पहुंचाने": 4384,
      "अतिरिक्त": 4385,
      "आकर्षित": 4386,
      "गारंटी": 4387,
      "घूमने": 4388,
      "चढ़ने": 4389,
      "नम्र": 4390,
      "नमस्ते": 4391,
      "सूक्ष्म": 4392,
      "वायरल": 4393,
      "निवेशक": 4394,
      "लोकप्रिय": 4395,
      "उत्पादक": 4396,
      "उत्पादों": 4397,
      "गिरा": 4398,
      "गिर्द": 4399,
      "छुआ": 4400,
      "पदक": 4401,
      "मरती": 4402,
      "वृत्ति": 4403,
      "निभाने": 4404,
      "कार्बोहाइ": 4405,
      "सीमाओं": 4406,
      "दोहराव": 4407,
      "दोहराया": 4408,
      "चुनने": 4409,
      "चुनते": 4410,
      "गतिविधियों": 4411,
      "असुरक्षाएँ": 4412,
      "आज़माया": 4413,
      "गोताखो": 4414,
      "ड्रेट": 4415,
      "ॉन्": 4416,
      "साइकिल": 4417,
      "साइकोलॉ": 4418,
      "प्रशंसा": 4419,
      "अपेक्षाओं": 4420,
      "संदेशों": 4421,
      "रुकना": 4422,
      "ट्रिगर्स": 4423,
      "ढूंढने": 4424,
      "लैस": 4425,
      "लहरें": 4426,
      "शूट": 4427,
      "शूटिंग": 4428,
      "प्रतीक्षा": 4429,
      "लाइक": 4430,
      "पहचानें": 4431,
      "देखीं": 4432,
      "निर्देशक": 4433,
      "निवेशकों": 4434,
      "उल्लेखनीय": 4435,
      "आलोचनात्मक": 4436,
      "गड़बड़ी": 4437,
      "पत्रिका": 4438,
      "बहाने": 4439,
      "दिशानिर्देशों": 4440,
      "बोलता": 4441,
      "ट्रेन": 4442,
      "ट्रेडमिल": 4443,
      "जिम्मेदार": 4444,
      "फिल्मा": 4445,
      "शर्मिंदगी": 4446,
      "पर्यावरणीय": 4447,
      "मोटापा": 4448,
      "निराशाजनक": 4449,
      "नकारात्मकताओं": 4450,
      "एजेंसियों": 4451,
      "टुकड़ों": 4452,
      "नवीनतम": 4453,
      "सदस्यों": 4454,
      "क्रांति": 4455,
      "क्रोधित": 4456,
      "क्लबों": 4457,
      "प्रकाशक": 4458,
      "त्साहित": 4459,
      "तीव्र": 4460,
      "पूर्ति": 4461,
      "प्लाईमाउथ": 4462,
      "अनुबंधों": 4463,
      "स्वतंत्रता": 4464,
      "परिदृश्यों": 4465,
      "शक्तिहीनता": 4466,
      "निर्भरता": 4467,
      "सहजता": 4468,
      "ब्रिड": 4469,
      "ब्रिटेन": 4470,
      "ब्रिटिश": 4471,
      "दुर्भाग्यपूर्ण": 4472,
      "अमेरिका": 4473,
      "अमेरिकी": 4474,
      "अंदाज़ा": 4475,
      "उलझे": 4476,
      "ख़त्म": 4477,
      "छिप": 4478,
      "दौरों": 4479,
      "पेंटिंग": 4480,
      "पेंटहा": 4481,
      "बजते": 4482,
      "बैंक": 4483,
      "बैंकों": 4484,
      "मनाते": 4485,
      "रैफलर": 4486,
      "वर्णित": 4487,
      "ताकत": 4488,
      "हाइब्रिड": 4489,
      "स्ट्रिक": 4490,
      "स्ट्रीट": 4491,
      "दायरा": 4492,
      "दायरे": 4493,
      "कहानियां": 4494,
      "प्रतिभाएं": 4495,
      "प्रतिबंधों": 4496,
      "फाइबर": 4497,
      "अस्तित्ववादी": 4498,
      "प्रायोजकों": 4499,
      "अफवाह": 4500,
      "अफसोस": 4501,
      "अनाज": 4502,
      "अनावश्यक": 4503,
      "अंगरक्षक": 4504,
      "आंशिक": 4505,
      "ख्यानों": 4506,
      "गैस्ट्रिक": 4507,
      "चमड़ी": 4508,
      "टॉगल": 4509,
      "डरावने": 4510,
      "डरावना": 4511,
      "नॉर्थ": 4512,
      "नशीले": 4513,
      "पतले": 4514,
      "मक्खि": 4515,
      "स्नान": 4516,
      "स्वेच्छा": 4517,
      "स्वेटशर्ट": 4518,
      "जिज्ञासा": 4519,
      "जिज्ञासु": 4520,
      "लाखों": 4521,
      "पाठों": 4522,
      "पाठ्यक्रम": 4523,
      "मिठाई": 4524,
      "मिठाइयाँ": 4525,
      "द्विध्रु": 4526,
      "डिलीवरी": 4527,
      "डिलीवरू": 4528,
      "उत्सुक": 4529,
      "उत्सुकता": 4530,
      "नौकरियों": 4531,
      "नौकरियाँ": 4532,
      "कर्मचारी": 4533,
      "कर्मचारियों": 4534,
      "जुड़ते": 4535,
      "ट्रैफिक": 4536,
      "ट्रैफर्ड": 4537,
      "वर्कआउट": 4538,
      "क्रॉसस्टॉक": 4539,
      "डीएमएस": 4540,
      "अकेलापन": 4541,
      "प्रोत्साहित": 4542,
      "प्रोत्साहनों": 4543,
      "चित्रित": 4544,
      "मेहमानों": 4545,
      "अपराधबोध": 4546,
      "ध्रुवीक": 4547,
      "com": 4548,
      "अकादमिक": 4549,
      "असंगति": 4550,
      "खलती": 4551,
      "गरीब": 4552,
      "घृणित": 4553,
      "चार्ज": 4554,
      "छूटने": 4555,
      "डूब": 4556,
      "नजरि": 4557,
      "पौधे": 4558,
      "फेंक": 4559,
      "रोगन": 4560,
      "हताश": 4561,
      "स्क्रिप्ट": 4562,
      "वायरिंग": 4563,
      "मुलाकात": 4564,
      "प्रणाली": 4565,
      "माहौल": 4566,
      "बाधाएं": 4567,
      "निरर्थक": 4568,
      "नींव": 4569,
      "अधूरा": 4570,
      "व्यवस्थित": 4571,
      "सब्जियों": 4572,
      "एंडरसन": 4573,
      "प्रतिनिधि": 4574,
      "जनजातियों": 4575,
      "दुःख": 4576,
      "पैडलिंग": 4577,
      "पैकेज": 4578,
      "उत्तेजना": 4579,
      "फ्लाइट": 4580,
      "गर्लफ्रेंड्स": 4581,
      "छुट्टियों": 4582,
      "पूर्वानुमानि": 4583,
      "तस्वीरें": 4584,
      "सूँघता": 4585,
      "धमकाया": 4586,
      "स्नैपशॉट": 4587,
      "गुणवत्ता": 4588,
      "fiver": 4589,
      "अड्": 4590,
      "अलावा": 4591,
      "अतीत": 4592,
      "अस्वास्थ्यकर": 4593,
      "अभूतपूर्व": 4594,
      "आसानी": 4595,
      "आर्थिक": 4596,
      "आकांक्षा": 4597,
      "इकट्ठा": 4598,
      "इलाज": 4599,
      "इमारत": 4600,
      "इतिहास": 4601,
      "उकसाया": 4602,
      "उछल": 4603,
      "उपाख्यानों": 4604,
      "एयरबीएन": 4605,
      "ऑपरेशन": 4606,
      "ओपियोइड": 4607,
      "खरोंचता": 4608,
      "गंदी": 4609,
      "गिलास": 4610,
      "घिरे": 4611,
      "चैट": 4612,
      "चॉपर": 4613,
      "चूंकि": 4614,
      "चेंजर": 4615,
      "जमीन": 4616,
      "जहरीली": 4617,
      "जर्मनी": 4618,
      "झिझक": 4619,
      "टैब": 4620,
      "तम्बाकू": 4621,
      "थैचर": 4622,
      "थॉम्पसन": 4623,
      "दोगुना": 4624,
      "दार्शनिकों": 4625,
      "नवंबर": 4626,
      "नाराज": 4627,
      "पद्धति": 4628,
      "पछतावा": 4629,
      "बलिदान": 4630,
      "भंडार": 4631,
      "मरीज़": 4632,
      "मशीन": 4633,
      "मधुमक्खि": 4634,
      "रविवार": 4635,
      "रद्द": 4636,
      "सृजन": 4637,
      "सूंघ": 4638,
      "सैंडविच": 4639,
      "हतोत्साहित": 4640,
      "ैच्छिक": 4641,
      "हैप्पी": 4642,
      "सांख्यिकी": 4643,
      "रहस्योद्घा": 4644,
      "एकपत्नीत्व": 4645,
      "वांछित": 4646,
      "मुफ्त": 4647,
      "परफेक्ट": 4648,
      "हालाँकि": 4649,
      "हानिकारक": 4650,
      "प्रार्थना": 4651,
      "प्रफुल्लित": 4652,
      "प्रारंभिक": 4653,
      "अपार्टमेंट": 4654,
      "दिसंबर": 4655,
      "विभाजित": 4656,
      "बालकनी": 4657,
      "संबोधित": 4658,
      "पाब्लो": 4659,
      "निपटना": 4660,
      "कार्यालयों": 4661,
      "वेट्रेस": 4662,
      "मिशेल": 4663,
      "भागीदार": 4664,
      "स्टैनफोर्ड": 4665,
      "स्टार्टअप": 4666,
      "द्वीप": 4667,
      "रेस्तरां": 4668,
      "अनुवर्ती": 4669,
      "अनुपयोगी": 4670,
      "पिज्जा": 4671,
      "प्रतिरोधी": 4672,
      "प्रतिस्पर्धी": 4673,
      "जन्मजात": 4674,
      "बेरोजगार": 4675,
      "परिप्रेक्ष्य": 4676,
      "चिढ़ाने": 4677,
      "ज़िम्मेदारी": 4678,
      "डिज़ाइन": 4679,
      "यूनिवर्सिटी": 4680,
      "गुंजाइश": 4681,
      "स्थानांतरित": 4682,
      "ग्राफ्टिंग": 4683,
      "झाँकते": 4684,
      "एपिफेनी": 4685,
      "अभियान": 4686,
      "फैशनेबल": 4687,
      "ग्लेज़िंग": 4688,
      "कार्बोहाइड्रेट": 4689,
      "गोताखोर": 4690,
      "साइकोलॉजी": 4691,
      "पेंटहाउस": 4692,
      "ध्रुवीकृत": 4693,
      "पूर्वानुमानित": 4694,
      "fiverr": 4695,
      "एयरबीएनबी": 4696,
      "सांख्यिकीय": 4697,
      "रहस्योद्घाटन": 4698
    },
    "merges": [
      [
        "ह",
        "ै"
      ],
      [
        "क",
        "ि"
      ],
      [
        "म",
        "े"
      ],
      [
        "न",
        "े"
      ],
      [
        "स",
        "े"
      ],
      [
        "औ",
        "र"
      ],
      [
        "क",
        "े"
      ],
      [
        "त",
        "ा"
      ],
      [
        "क",
        "र"
      ],
      [
        "य",
        "ा"
      ],
      [
        "मे",
        "ं"
      ],
      [
        "आ",
        "प"
      ],
      [
        "है",
        "ं"
      ],
      [
        "ै",
        "ं"
      ],
      [
        "म",
        "ैं"
      ],
      [
        "ा",
        "र"
      ],
      [
        "ह",
        "ी"
      ],
      [
        "ो",
        "ं"
      ],
      [
        "न",
        "ा"
      ],
      [
        "त",
        "े"
      ],
      [
        "क",
        "्"
      ],
      [
        "क",
        "ो"
      ],
      [
        "य",
        "ह"
      ],
      [
        "स",
        "ा"
      ],
      [
        "स",
        "्"
      ],
      [
        "क",
        "ा"
      ],
      [
        "र",
        "ह"
      ],
      [
        "्",
        "र"
      ],
      [
        "ल",
        "ि"
      ],
      [
        "क",
        "ी"
      ],
      [
        "ू",
        "ं"
      ],
      [
        "ज",
        "ा"
      ],
      [
        "ही",
        "ं"
      ],
      [
        "इ",
        "स"
      ],
      [
        "्",
        "य"
      ],
      [
        "न",
        "हीं"
      ],
      [
        "ए",
        "क"
      ],
      [
        "ह",
        "ो"
      ],
      [
        "ह",
        "ूं"
      ],
      [
        "व",
        "ा"
      ],
      [
        "म",
        "ु"
      ],
      [
        "लि",
        "ए"
      ],
      [
        "थ",
        "ा"
      ],
      [
        "ल",
        "े"
      ],
      [
        "भ",
        "ी"
      ],
      [
        "मु",
        "झ"
      ],
      [
        "प",
        "र"
      ],
      [
        "मुझ",
        "े"
      ],
      [
        "र",
        "्"
      ],
      [
        "ज",
        "ो"
      ],
      [
        "ह",
        "ा"
      ],
      [
        "मे",
        "र"
      ],
      [
        "प",
        "्र"
      ],
      [
        "ि",
        "क"
      ],
      [
        "े",
        "ं"
      ],
      [
        "ह",
        "ु"
      ],
      [
        "ल",
        "ग"
      ],
      [
        "अ",
        "प"
      ],
      [
        "द",
        "ि"
      ],
      [
        "म",
        "ा"
      ],
      [
        "स्",
        "त"
      ],
      [
        "ड",
        "़"
      ],
      [
        "उ",
        "न"
      ],
      [
        "द",
        "े"
      ],
      [
        "व",
        "ि"
      ],
      [
        "ब",
        "ा"
      ],
      [
        "क",
        "ु"
      ],
      [
        "ह",
        "म"
      ],
      [
        "र",
        "ू"
      ],
      [
        "ज",
        "ि"
      ],
      [
        "ल",
        "ा"
      ],
      [
        "उ",
        "स"
      ],
      [
        "य",
        "ों"
      ],
      [
        "च",
        "ा"
      ],
      [
        "स",
        "ं"
      ],
      [
        "त",
        "ि"
      ],
      [
        "ो",
        "ग"
      ],
      [
        "व",
        "ह"
      ],
      [
        "रह",
        "ा"
      ],
      [
        "जा",
        "न"
      ],
      [
        "मेर",
        "े"
      ],
      [
        "प",
        "ा"
      ],
      [
        "च",
        "ी"
      ],
      [
        "मैं",
        "ने"
      ],
      [
        "ार",
        "े"
      ],
      [
        "न",
        "ि"
      ],
      [
        "स",
        "म"
      ],
      [
        "कु",
        "छ"
      ],
      [
        "कर",
        "ने"
      ],
      [
        "त",
        "ो"
      ],
      [
        "ऐ",
        "सा"
      ],
      [
        "क",
        "ार"
      ],
      [
        "ि",
        "त"
      ],
      [
        "क्",
        "यों"
      ],
      [
        "स",
        "ी"
      ],
      [
        "स",
        "क"
      ],
      [
        "न",
        "ी"
      ],
      [
        "त",
        "्"
      ],
      [
        "व",
        "े"
      ],
      [
        "ब",
        "हु"
      ],
      [
        "बहु",
        "त"
      ],
      [
        "ची",
        "ज"
      ],
      [
        "श",
        "ा"
      ],
      [
        "अप",
        "ने"
      ],
      [
        "र",
        "ी"
      ],
      [
        "त",
        "रह"
      ],
      [
        "ज",
        "ब"
      ],
      [
        "ज",
        "ी"
      ],
      [
        "ल",
        "ोग"
      ],
      [
        "चा",
        "ह"
      ],
      [
        "क्",
        "या"
      ],
      [
        "कि",
        "न"
      ],
      [
        "ले",
        "किन"
      ],
      [
        "जान",
        "ते"
      ],
      [
        "वा",
        "स्त"
      ],
      [
        "रू",
        "प"
      ],
      [
        "वास्त",
        "व"
      ],
      [
        "त",
        "ी"
      ],
      [
        "र",
        "ा"
      ],
      [
        "ग",
        "ा"
      ],
      [
        "प",
        "ू"
      ],
      [
        "आप",
        "को"
      ],
      [
        "क्यों",
        "कि"
      ],
      [
        "च",
        "्"
      ],
      [
        "ब",
        "ारे"
      ],
      [
        "स",
        "ो"
      ],
      [
        "लग",
        "ता"
      ],
      [
        "ज",
        "ै"
      ],
      [
        "श",
        "्"
      ],
      [
        "क्",
        "ष"
      ],
      [
        "कर",
        "ना"
      ],
      [
        "सा",
        "थ"
      ],
      [
        "हा",
        "ं"
      ],
      [
        "अ",
        "ध"
      ],
      [
        "इस",
        "लिए"
      ],
      [
        "रह",
        "े"
      ],
      [
        "म",
        "ि"
      ],
      [
        "कि",
        "या"
      ],
      [
        "व",
        "्य"
      ],
      [
        "कर",
        "ते"
      ],
      [
        "स",
        "ब"
      ],
      [
        "ख",
        "ा"
      ],
      [
        "बा",
        "त"
      ],
      [
        "ल",
        "्"
      ],
      [
        "आप",
        "के"
      ],
      [
        "इ",
        "से"
      ],
      [
        "व",
        "न"
      ],
      [
        "्",
        "ह"
      ],
      [
        "भ",
        "ा"
      ],
      [
        "ग",
        "े"
      ],
      [
        "मा",
        "न"
      ],
      [
        "ख",
        "ु"
      ],
      [
        "जी",
        "वन"
      ],
      [
        "पा",
        "स"
      ],
      [
        "च्",
        "छ"
      ],
      [
        "ल",
        "ी"
      ],
      [
        "म",
        "ह"
      ],
      [
        "सम",
        "य"
      ],
      [
        "ं",
        "द"
      ],
      [
        "ग",
        "या"
      ],
      [
        "कर",
        "ता"
      ],
      [
        "त",
        "क"
      ],
      [
        "अ",
        "न"
      ],
      [
        "ब",
        "ि"
      ],
      [
        "अध",
        "िक"
      ],
      [
        "्",
        "या"
      ],
      [
        "अ",
        "च्छ"
      ],
      [
        "ह",
        "र"
      ],
      [
        "स्",
        "ट"
      ],
      [
        "क",
        "ह"
      ],
      [
        "थ",
        "े"
      ],
      [
        "प",
        "ह"
      ],
      [
        "स",
        "ु"
      ],
      [
        "का",
        "म"
      ],
      [
        "उ",
        "म"
      ],
      [
        "ं",
        "त"
      ],
      [
        "सो",
        "च"
      ],
      [
        "ि",
        "र"
      ],
      [
        "लोग",
        "ों"
      ],
      [
        "सक",
        "ता"
      ],
      [
        "कि",
        "सी"
      ],
      [
        "उन",
        "्ह"
      ],
      [
        "जि",
        "स"
      ],
      [
        "थ",
        "ी"
      ],
      [
        "स",
        "ि"
      ],
      [
        "ष",
        "्"
      ],
      [
        "द",
        "्"
      ],
      [
        "क्",
        "ति"
      ],
      [
        "प",
        "्"
      ],
      [
        "जै",
        "से"
      ],
      [
        "य",
        "दि"
      ],
      [
        "ू",
        "स"
      ],
      [
        "ड़",
        "ा"
      ],
      [
        "स",
        "भी"
      ],
      [
        "दे",
        "ख"
      ],
      [
        "हो",
        "ता"
      ],
      [
        "द",
        "ा"
      ],
      [
        "क",
        "भी"
      ],
      [
        "सक",
        "ते"
      ],
      [
        "सब",
        "से"
      ],
      [
        "क",
        "हा"
      ],
      [
        "र्",
        "ण"
      ],
      [
        "को",
        "ई"
      ],
      [
        "आ",
        "द"
      ],
      [
        "ब",
        "ना"
      ],
      [
        "खु",
        "द"
      ],
      [
        "दि",
        "या"
      ],
      [
        "क",
        "म"
      ],
      [
        "सं",
        "द"
      ],
      [
        "द",
        "ो"
      ],
      [
        "ार",
        "ी"
      ],
      [
        "त",
        "ना"
      ],
      [
        "फ",
        "िर"
      ],
      [
        "श",
        "ु"
      ],
      [
        "कर",
        "ें"
      ],
      [
        "हा",
        "ँ"
      ],
      [
        "क",
        "ै"
      ],
      [
        "ढ",
        "़"
      ],
      [
        "त्",
        "म"
      ],
      [
        "र",
        "े"
      ],
      [
        "व्य",
        "क्ति"
      ],
      [
        "अन",
        "ु"
      ],
      [
        "ए",
        "ं"
      ],
      [
        "प",
        "ता"
      ],
      [
        "प",
        "संद"
      ],
      [
        "मेर",
        "ा"
      ],
      [
        "ू",
        "ल"
      ],
      [
        "अच्छ",
        "ा"
      ],
      [
        "चाह",
        "ता"
      ],
      [
        "अ",
        "ब"
      ],
      [
        "चीज",
        "ों"
      ],
      [
        "पह",
        "ले"
      ],
      [
        "हो",
        "गा"
      ],
      [
        "कार",
        "ण"
      ],
      [
        "अ",
        "ग"
      ],
      [
        "भा",
        "व"
      ],
      [
        "श",
        "ि"
      ],
      [
        "द",
        "ी"
      ],
      [
        "स",
        "ूस"
      ],
      [
        "ार",
        "्"
      ],
      [
        "जि",
        "न"
      ],
      [
        "मह",
        "सूस"
      ],
      [
        "ग",
        "ी"
      ],
      [
        "प",
        "ि"
      ],
      [
        "इस",
        "के"
      ],
      [
        "अप",
        "नी"
      ],
      [
        "ज",
        "्"
      ],
      [
        "दि",
        "न"
      ],
      [
        "र",
        "ि"
      ],
      [
        "्र",
        "ा"
      ],
      [
        "मेर",
        "ी"
      ],
      [
        "शु",
        "रू"
      ],
      [
        "ं",
        "च"
      ],
      [
        "ब",
        "द"
      ],
      [
        "हो",
        "ने"
      ],
      [
        "स",
        "र"
      ],
      [
        "चाह",
        "ते"
      ],
      [
        "अ",
        "भी"
      ],
      [
        "र",
        "ख"
      ],
      [
        "ज्",
        "ञ"
      ],
      [
        "म",
        "त"
      ],
      [
        "प्र",
        "ति"
      ],
      [
        "य",
        "ही"
      ],
      [
        "छ",
        "ो"
      ],
      [
        "आद",
        "त"
      ],
      [
        "अ",
        "लग"
      ],
      [
        "स्",
        "थ"
      ],
      [
        "उन्ह",
        "ें"
      ],
      [
        "ब",
        "स"
      ],
      [
        "जै",
        "सा"
      ],
      [
        "त",
        "ु"
      ],
      [
        "र",
        "ो"
      ],
      [
        "ॉ",
        "ड"
      ],
      [
        "जा",
        "ता"
      ],
      [
        "च",
        "ार"
      ],
      [
        "चीज",
        "ें"
      ],
      [
        "ज",
        "न"
      ],
      [
        "य",
        "द"
      ],
      [
        "आप",
        "ने"
      ],
      [
        "शा",
        "यद"
      ],
      [
        "त",
        "र"
      ],
      [
        "ब",
        "े"
      ],
      [
        "ब",
        "ार"
      ],
      [
        "र्",
        "ष"
      ],
      [
        "त्",
        "व"
      ],
      [
        "पू",
        "र्ण"
      ],
      [
        "ष्",
        "ट"
      ],
      [
        "प",
        "ी"
      ],
      [
        "ब",
        "न"
      ],
      [
        "ज्ञ",
        "ा"
      ],
      [
        "ी",
        "क"
      ],
      [
        "स्",
        "व"
      ],
      [
        "पर",
        "ि"
      ],
      [
        "मि",
        "ल"
      ],
      [
        "ह",
        "मे"
      ],
      [
        "सा",
        "ल"
      ],
      [
        "हमे",
        "शा"
      ],
      [
        "द",
        "ु"
      ],
      [
        "ों",
        "ने"
      ],
      [
        "हु",
        "आ"
      ],
      [
        "सम",
        "झ"
      ],
      [
        "ज",
        "हां"
      ],
      [
        "कै",
        "से"
      ],
      [
        "को",
        "शि"
      ],
      [
        "हम",
        "ारे"
      ],
      [
        "श्",
        "च"
      ],
      [
        "कोशि",
        "श"
      ],
      [
        "इ",
        "न"
      ],
      [
        "ट",
        "ी"
      ],
      [
        "म",
        "ी"
      ],
      [
        "य",
        "ोग"
      ],
      [
        "श",
        "्य"
      ],
      [
        "प",
        "ु"
      ],
      [
        "ण",
        "ा"
      ],
      [
        "लग",
        "ा"
      ],
      [
        "वि",
        "श्"
      ],
      [
        "ठ",
        "ीक"
      ],
      [
        "ल",
        "ब"
      ],
      [
        "ड",
        "ा"
      ],
      [
        "ब",
        "ता"
      ],
      [
        "का",
        "स्ट"
      ],
      [
        "बद",
        "ल"
      ],
      [
        "उन",
        "के"
      ],
      [
        "ि",
        "ए"
      ],
      [
        "आप",
        "की"
      ],
      [
        "श",
        "े"
      ],
      [
        "उ",
        "प"
      ],
      [
        "फ",
        "ल"
      ],
      [
        "व",
        "ै"
      ],
      [
        "अप",
        "ना"
      ],
      [
        "ड़",
        "ी"
      ],
      [
        "ह",
        "ों"
      ],
      [
        "प्र",
        "ा"
      ],
      [
        "जि",
        "से"
      ],
      [
        "उन्ह",
        "ोंने"
      ],
      [
        "च",
        "ि"
      ],
      [
        "ज",
        "़"
      ],
      [
        "थ",
        "ो"
      ],
      [
        "प",
        "ॉड"
      ],
      [
        "पॉड",
        "कास्ट"
      ],
      [
        "प",
        "ै"
      ],
      [
        "प्",
        "त"
      ],
      [
        "अग",
        "र"
      ],
      [
        "ज्ञा",
        "न"
      ],
      [
        "ऐ",
        "से"
      ],
      [
        "मह",
        "त्व"
      ],
      [
        "ं",
        "ड"
      ],
      [
        "नि",
        "या"
      ],
      [
        "चाह",
        "िए"
      ],
      [
        "बा",
        "द"
      ],
      [
        "खु",
        "श"
      ],
      [
        "ट",
        "ा"
      ],
      [
        "म",
        "ूल"
      ],
      [
        "इस",
        "का"
      ],
      [
        "वा",
        "स"
      ],
      [
        "क",
        "ता"
      ],
      [
        "प",
        "स"
      ],
      [
        "व",
        "हां"
      ],
      [
        "प्र",
        "े"
      ],
      [
        "ं",
        "ग"
      ],
      [
        "च",
        "े"
      ],
      [
        "य",
        "न"
      ],
      [
        "वा",
        "पस"
      ],
      [
        "नि",
        "श्च"
      ],
      [
        "निश्च",
        "ित"
      ],
      [
        "चीज",
        "़"
      ],
      [
        "पू",
        "री"
      ],
      [
        "मत",
        "लब"
      ],
      [
        "आ",
        "त्म"
      ],
      [
        "म",
        "न"
      ],
      [
        "व",
        "ार"
      ],
      [
        "इस",
        "से"
      ],
      [
        "ड़",
        "े"
      ],
      [
        "वि",
        "चार"
      ],
      [
        "द्",
        "ध"
      ],
      [
        "हो",
        "ते"
      ],
      [
        "दे",
        "खा"
      ],
      [
        "दु",
        "निया"
      ],
      [
        "ट",
        "े"
      ],
      [
        "व",
        "सा"
      ],
      [
        "क",
        "ई"
      ],
      [
        "च",
        "ल"
      ],
      [
        "भ",
        "ग"
      ],
      [
        "ल",
        "क्ष"
      ],
      [
        "स्",
        "वा"
      ],
      [
        "्य",
        "ू"
      ],
      [
        "कु",
        "ल"
      ],
      [
        "बि",
        "ल्"
      ],
      [
        "महत्व",
        "पूर्ण"
      ],
      [
        "प",
        "हु"
      ],
      [
        "भ",
        "व"
      ],
      [
        "अन",
        "्य"
      ],
      [
        "उ",
        "से"
      ],
      [
        "ओ",
        "ं"
      ],
      [
        "स",
        "फल"
      ],
      [
        "हो",
        "ती"
      ],
      [
        "बिल्",
        "कुल"
      ],
      [
        "ि",
        "न"
      ],
      [
        "प्र",
        "श्"
      ],
      [
        "ल्",
        "प"
      ],
      [
        "प्रश्",
        "न"
      ],
      [
        "पू",
        "छ"
      ],
      [
        "च",
        "ु"
      ],
      [
        "ब",
        "ी"
      ],
      [
        "ल",
        "ो"
      ],
      [
        "र्",
        "फ"
      ],
      [
        "स्त",
        "ि"
      ],
      [
        "्या",
        "न"
      ],
      [
        "ड",
        "ि"
      ],
      [
        "म",
        "स्ति"
      ],
      [
        "य",
        "ो"
      ],
      [
        "स्",
        "प"
      ],
      [
        "ें",
        "गे"
      ],
      [
        "सि",
        "र्फ"
      ],
      [
        "ष्",
        "क"
      ],
      [
        "थो",
        "ड़ा"
      ],
      [
        "मस्ति",
        "ष्क"
      ],
      [
        "व",
        "र्ष"
      ],
      [
        "ू",
        "ँ"
      ],
      [
        "आप",
        "का"
      ],
      [
        "यह",
        "ा"
      ],
      [
        "लि",
        "या"
      ],
      [
        "हो",
        "ना"
      ],
      [
        "वि",
        "शे"
      ],
      [
        "सु",
        "न"
      ],
      [
        "भाव",
        "ना"
      ],
      [
        "विशे",
        "ष"
      ],
      [
        "उ",
        "त्"
      ],
      [
        "ग",
        "ल"
      ],
      [
        "त",
        "री"
      ],
      [
        "फ",
        "ी"
      ],
      [
        "ब",
        "ड़ा"
      ],
      [
        "जा",
        "ते"
      ],
      [
        "दे",
        "ता"
      ],
      [
        "ं",
        "ध"
      ],
      [
        "ध",
        "्यान"
      ],
      [
        "ब",
        "ै"
      ],
      [
        "ब",
        "ढ़"
      ],
      [
        "र",
        "ु"
      ],
      [
        "या",
        "द"
      ],
      [
        "नि",
        "य"
      ],
      [
        "प्रे",
        "र"
      ],
      [
        "लक्ष",
        "्य"
      ],
      [
        "व",
        "ी"
      ],
      [
        "उस",
        "के"
      ],
      [
        "दो",
        "स्त"
      ],
      [
        "आ",
        "व"
      ],
      [
        "ग",
        "ए"
      ],
      [
        "भ",
        "ु"
      ],
      [
        "स",
        "ही"
      ],
      [
        "उम",
        "्"
      ],
      [
        "चि",
        "ं"
      ],
      [
        "ध",
        "ार"
      ],
      [
        "य",
        "ू"
      ],
      [
        "क्",
        "रि"
      ],
      [
        "इस",
        "में"
      ],
      [
        "हु",
        "ए"
      ],
      [
        "लग",
        "भग"
      ],
      [
        "अच्छ",
        "ी"
      ],
      [
        "सोच",
        "ते"
      ],
      [
        "ग",
        "ई"
      ],
      [
        "ग",
        "ह"
      ],
      [
        "र",
        "त"
      ],
      [
        "सा",
        "न"
      ],
      [
        "ई",
        "मान"
      ],
      [
        "क",
        "ौ"
      ],
      [
        "ट",
        "ि"
      ],
      [
        "मूल",
        "्य"
      ],
      [
        "आव",
        "श्य"
      ],
      [
        "ईमान",
        "द"
      ],
      [
        "क",
        "ठ"
      ],
      [
        "र",
        "िक"
      ],
      [
        "श",
        "ल"
      ],
      [
        "का",
        "फी"
      ],
      [
        "ूं",
        "गा"
      ],
      [
        "ंत",
        "्र"
      ],
      [
        "यहा",
        "ं"
      ],
      [
        "बै",
        "ठ"
      ],
      [
        "द",
        "ूस"
      ],
      [
        "न",
        "ौ"
      ],
      [
        "य",
        "र"
      ],
      [
        "र",
        "ही"
      ],
      [
        "ह",
        "में"
      ],
      [
        "जा",
        "ए"
      ],
      [
        "जा",
        "ने"
      ],
      [
        "वा",
        "ला"
      ],
      [
        "वह",
        "ार"
      ],
      [
        "नि",
        "र्ण"
      ],
      [
        "क्ष",
        "ा"
      ],
      [
        "व्य",
        "वसा"
      ],
      [
        "प्",
        "ता"
      ],
      [
        "छो",
        "ड़"
      ],
      [
        "पहु",
        "ंच"
      ],
      [
        "अ",
        "व"
      ],
      [
        "अ",
        "ंत"
      ],
      [
        "व",
        "ही"
      ],
      [
        "हम",
        "ने"
      ],
      [
        "व्य",
        "वहार"
      ],
      [
        "भा",
        "ग"
      ],
      [
        "त",
        "ब"
      ],
      [
        "द",
        "द"
      ],
      [
        "ब",
        "च्"
      ],
      [
        "ब",
        "ंध"
      ],
      [
        "म",
        "दद"
      ],
      [
        "स",
        "प्ता"
      ],
      [
        "ह",
        "ूँ"
      ],
      [
        "क्ष",
        "ण"
      ],
      [
        "क्ष",
        "म"
      ],
      [
        "ंद",
        "्र"
      ],
      [
        "ख",
        "े"
      ],
      [
        "च",
        "ला"
      ],
      [
        "श",
        "न"
      ],
      [
        "ह",
        "ि"
      ],
      [
        "ौ",
        "र"
      ],
      [
        "के",
        "ंद्र"
      ],
      [
        "र्",
        "थ"
      ],
      [
        "प्र",
        "भाव"
      ],
      [
        "कह",
        "ते"
      ],
      [
        "आवश्य",
        "कता"
      ],
      [
        "व्यवसा",
        "य"
      ],
      [
        "ब",
        "र"
      ],
      [
        "ब",
        "ो"
      ],
      [
        "व",
        "ल"
      ],
      [
        "जा",
        "ना"
      ],
      [
        "बा",
        "हर"
      ],
      [
        "ंद",
        "ु"
      ],
      [
        "बि",
        "ंदु"
      ],
      [
        "विश्",
        "वास"
      ],
      [
        "निर्ण",
        "य"
      ],
      [
        "ब",
        "ु"
      ],
      [
        "कर",
        "्"
      ],
      [
        "वा",
        "ले"
      ],
      [
        "दि",
        "मा"
      ],
      [
        "चिं",
        "ता"
      ],
      [
        "दिमा",
        "ग"
      ],
      [
        "इ",
        "तना"
      ],
      [
        "ग",
        "ु"
      ],
      [
        "के",
        "वल"
      ],
      [
        "्ह",
        "ें"
      ],
      [
        "त्म",
        "क"
      ],
      [
        "उप",
        "योग"
      ],
      [
        "प्रा",
        "प्त"
      ],
      [
        "कठ",
        "िन"
      ],
      [
        "द",
        "ृ"
      ],
      [
        "इस",
        "ने"
      ],
      [
        "बना",
        "ने"
      ],
      [
        "करें",
        "गे"
      ],
      [
        "पि",
        "छ"
      ],
      [
        "क",
        "हूं"
      ],
      [
        "क",
        "ल्प"
      ],
      [
        "ज",
        "ु"
      ],
      [
        "ट",
        "्र"
      ],
      [
        "श",
        "ो"
      ],
      [
        "​",
        "​"
      ],
      [
        "स्",
        "क"
      ],
      [
        "वा",
        "ल"
      ],
      [
        "वास्तव",
        "िक"
      ],
      [
        "बि",
        "ना"
      ],
      [
        "स्प",
        "ष्ट"
      ],
      [
        "2",
        "0"
      ],
      [
        "ख",
        "ो"
      ],
      [
        "प",
        "न"
      ],
      [
        "स",
        "च"
      ],
      [
        "्य",
        "यन"
      ],
      [
        "वि",
        "ष"
      ],
      [
        "उस",
        "ने"
      ],
      [
        "जान",
        "ता"
      ],
      [
        "अध",
        "्ययन"
      ],
      [
        "उम्",
        "म"
      ],
      [
        "ज",
        "े"
      ],
      [
        "त",
        "ः"
      ],
      [
        "प",
        "ो"
      ],
      [
        "म",
        "ार्"
      ],
      [
        "ै",
        "या"
      ],
      [
        "उन",
        "में"
      ],
      [
        "जि",
        "म"
      ],
      [
        "सोच",
        "ता"
      ],
      [
        "पी",
        "छ"
      ],
      [
        "1",
        "0"
      ],
      [
        "ध",
        "न"
      ],
      [
        "प",
        "ढ़"
      ],
      [
        "भ",
        "ू"
      ],
      [
        "ू",
        "र"
      ],
      [
        "मुझ",
        "से"
      ],
      [
        "मा",
        "ज"
      ],
      [
        "सो",
        "चा"
      ],
      [
        "मि",
        "ला"
      ],
      [
        "एं",
        "गे"
      ],
      [
        "ऊ",
        "ं"
      ],
      [
        "ज",
        "गह"
      ],
      [
        "ध",
        "्य"
      ],
      [
        "स",
        "ला"
      ],
      [
        "दे",
        "ने"
      ],
      [
        "पू",
        "रे"
      ],
      [
        "अनु",
        "भव"
      ],
      [
        "तु",
        "म"
      ],
      [
        "ष्ट",
        "ि"
      ],
      [
        "क्रि",
        "या"
      ],
      [
        "सप्ता",
        "ह"
      ],
      [
        "पिछ",
        "ले"
      ],
      [
        "ख",
        "ि"
      ],
      [
        "त",
        "्य"
      ],
      [
        "द",
        "र्"
      ],
      [
        "फ",
        "ि"
      ],
      [
        "स",
        "िक"
      ],
      [
        "वा",
        "द"
      ],
      [
        "वा",
        "ली"
      ],
      [
        "कह",
        "ता"
      ],
      [
        "भाग",
        "्य"
      ],
      [
        "हि",
        "स्"
      ],
      [
        "आ",
        "गे"
      ],
      [
        "आ",
        "सान"
      ],
      [
        "ध",
        "ा"
      ],
      [
        "प",
        "े"
      ],
      [
        "ल",
        "ॉ"
      ],
      [
        "ल",
        "ना"
      ],
      [
        "व",
        "र्"
      ],
      [
        "स",
        "वाल"
      ],
      [
        "ह",
        "सा"
      ],
      [
        "ू",
        "म"
      ],
      [
        "ना",
        "म"
      ],
      [
        "ते",
        "ं"
      ],
      [
        "सा",
        "म"
      ],
      [
        "स्त",
        "र"
      ],
      [
        "कार",
        "ी"
      ],
      [
        "सर",
        "ल"
      ],
      [
        "डा",
        "य"
      ],
      [
        "हसा",
        "स"
      ],
      [
        "घ",
        "र"
      ],
      [
        "ट",
        "र"
      ],
      [
        "प",
        "ड़"
      ],
      [
        "ब",
        "ड़े"
      ],
      [
        "म",
        "ित"
      ],
      [
        "य",
        "े"
      ],
      [
        "श",
        "क्ति"
      ],
      [
        "ह",
        "द"
      ],
      [
        "ि",
        "ति"
      ],
      [
        "ता",
        "ब"
      ],
      [
        "स्",
        "था"
      ],
      [
        "हो",
        "गी"
      ],
      [
        "नि",
        "र्"
      ],
      [
        "स्थ",
        "्य"
      ],
      [
        "स्थ",
        "िति"
      ],
      [
        "स्वा",
        "स्थ्य"
      ],
      [
        "अ",
        "क्"
      ],
      [
        "इ",
        "ं"
      ],
      [
        "च",
        "ना"
      ],
      [
        "त",
        "ों"
      ],
      [
        "त",
        "्रा"
      ],
      [
        "द",
        "ौ"
      ],
      [
        "न",
        "ों"
      ],
      [
        "म",
        "ौ"
      ],
      [
        "ल",
        "ं"
      ],
      [
        "व",
        "िक"
      ],
      [
        "लि",
        "ख"
      ],
      [
        "दे",
        "ते"
      ],
      [
        "वि",
        "ज्ञान"
      ],
      [
        "वै",
        "ज्ञान"
      ],
      [
        "खुश",
        "ी"
      ],
      [
        "वैज्ञान",
        "िक"
      ],
      [
        "क",
        "ों"
      ],
      [
        "ग",
        "त"
      ],
      [
        "घ",
        "र्ष"
      ],
      [
        "ड",
        "र"
      ],
      [
        "ब",
        "ड़ी"
      ],
      [
        "व",
        "जन"
      ],
      [
        "श",
        "र्"
      ],
      [
        "स",
        "ार"
      ],
      [
        "कि",
        "ताब"
      ],
      [
        "आप",
        "से"
      ],
      [
        "लि",
        "क"
      ],
      [
        "पर",
        "ी"
      ],
      [
        "कार",
        "ा"
      ],
      [
        "जिस",
        "के"
      ],
      [
        "विश्",
        "व"
      ],
      [
        "मन",
        "ो"
      ],
      [
        "यू",
        "ट"
      ],
      [
        "केंद्र",
        "ित"
      ],
      [
        "सला",
        "ह"
      ],
      [
        "आ",
        "ने"
      ],
      [
        "ए",
        "हसास"
      ],
      [
        "त",
        "्र"
      ],
      [
        "ब",
        "्रा"
      ],
      [
        "म",
        "िक"
      ],
      [
        "य",
        "क"
      ],
      [
        "र",
        "ण"
      ],
      [
        "्",
        "स"
      ],
      [
        "प्र",
        "कार"
      ],
      [
        "मा",
        "ध्य"
      ],
      [
        "ची",
        "त"
      ],
      [
        "बात",
        "चीत"
      ],
      [
        "मान",
        "सिक"
      ],
      [
        "द्",
        "वार"
      ],
      [
        "देख",
        "ते"
      ],
      [
        "बन",
        "ना"
      ],
      [
        "निय",
        "ंत्र"
      ],
      [
        "पीछ",
        "े"
      ],
      [
        "यूट",
        "्यू"
      ],
      [
        "क",
        "हीं"
      ],
      [
        "त",
        "न"
      ],
      [
        "ध",
        "ि"
      ],
      [
        "श",
        "्र"
      ],
      [
        "स",
        "क्षम"
      ],
      [
        "ू",
        "ह"
      ],
      [
        "रह",
        "ते"
      ],
      [
        "पर",
        "े"
      ],
      [
        "उन",
        "की"
      ],
      [
        "रू",
        "रत"
      ],
      [
        "पह",
        "ली"
      ],
      [
        "देख",
        "ने"
      ],
      [
        "हों",
        "गे"
      ],
      [
        "वर्ष",
        "ों"
      ],
      [
        "ईमानद",
        "ारी"
      ],
      [
        "डाय",
        "री"
      ],
      [
        "द्वार",
        "ा"
      ],
      [
        "ग",
        "्र"
      ],
      [
        "न",
        "ए"
      ],
      [
        "क्",
        "र"
      ],
      [
        "सु",
        "र"
      ],
      [
        "जिन",
        "्हें"
      ],
      [
        "तरी",
        "के"
      ],
      [
        "ब्रा",
        "ंड"
      ],
      [
        "यूट्यू",
        "ब"
      ],
      [
        "आ",
        "ंत"
      ],
      [
        "ऐ",
        "सी"
      ],
      [
        "ओ",
        "र"
      ],
      [
        "क",
        "ृ"
      ],
      [
        "ग",
        "्रा"
      ],
      [
        "न",
        "ई"
      ],
      [
        "ब",
        "ंद"
      ],
      [
        "व",
        "्या"
      ],
      [
        "सा",
        "माज"
      ],
      [
        "स्",
        "या"
      ],
      [
        "ड़",
        "ने"
      ],
      [
        "जि",
        "तना"
      ],
      [
        "सं",
        "घर्ष"
      ],
      [
        "शा",
        "मिल"
      ],
      [
        "बे",
        "ह"
      ],
      [
        "प्रेर",
        "णा"
      ],
      [
        "दोस्त",
        "ों"
      ],
      [
        "अक्",
        "सर"
      ],
      [
        "आंत",
        "रिक"
      ],
      [
        "सामाज",
        "िक"
      ],
      [
        "ं",
        "स"
      ],
      [
        "आ",
        "ज"
      ],
      [
        "आ",
        "या"
      ],
      [
        "ज",
        "ार"
      ],
      [
        "ब",
        "्"
      ],
      [
        "भ",
        "र"
      ],
      [
        "म",
        "ही"
      ],
      [
        "म",
        "हा"
      ],
      [
        "या",
        "त्रा"
      ],
      [
        "्य",
        "वाद"
      ],
      [
        "ले",
        "ट"
      ],
      [
        "र्",
        "व"
      ],
      [
        "प्र",
        "या"
      ],
      [
        "दि",
        "खा"
      ],
      [
        "उस",
        "से"
      ],
      [
        "सं",
        "बंध"
      ],
      [
        "जान",
        "कारी"
      ],
      [
        "सम",
        "स्या"
      ],
      [
        "शा",
        "ली"
      ],
      [
        "आदत",
        "ों"
      ],
      [
        "सफल",
        "ता"
      ],
      [
        "बी",
        "च"
      ],
      [
        "कौ",
        "न"
      ],
      [
        "धन",
        "्यवाद"
      ],
      [
        "परे",
        "शा"
      ],
      [
        "बेह",
        "तर"
      ],
      [
        "अ",
        "द्"
      ],
      [
        "उ",
        "दा"
      ],
      [
        "क",
        "ं"
      ],
      [
        "ड",
        "ी"
      ],
      [
        "त",
        "नी"
      ],
      [
        "ता",
        "र"
      ],
      [
        "सा",
        "मान"
      ],
      [
        "वा",
        "न"
      ],
      [
        "हु",
        "ई"
      ],
      [
        "दे",
        "श"
      ],
      [
        "कार",
        "्य"
      ],
      [
        "सो",
        "शल"
      ],
      [
        "्या",
        "ल"
      ],
      [
        "कह",
        "ना"
      ],
      [
        "सि",
        "द्ध"
      ],
      [
        "पि",
        "ता"
      ],
      [
        "प्रया",
        "स"
      ],
      [
        "अ",
        "जी"
      ],
      [
        "आ",
        "ता"
      ],
      [
        "क",
        "वास"
      ],
      [
        "ठ",
        "ा"
      ],
      [
        "ब",
        "ह"
      ],
      [
        "ब",
        "कवास"
      ],
      [
        "ह",
        "री"
      ],
      [
        "सी",
        "ख"
      ],
      [
        "नी",
        "य"
      ],
      [
        "ंद",
        "र"
      ],
      [
        "अच्छ",
        "े"
      ],
      [
        "थी",
        "ं"
      ],
      [
        "दा",
        "न"
      ],
      [
        "जिन",
        "के"
      ],
      [
        "परि",
        "णा"
      ],
      [
        "वै",
        "सा"
      ],
      [
        "खे",
        "ल"
      ],
      [
        "ऊं",
        "गा"
      ],
      [
        "फि",
        "ट"
      ],
      [
        "हिस्",
        "सा"
      ],
      [
        "माध्य",
        "म"
      ],
      [
        "अजी",
        "ब"
      ],
      [
        "परिणा",
        "म"
      ],
      [
        "अ",
        "र्थ"
      ],
      [
        "घ",
        "ं"
      ],
      [
        "ज",
        "ना"
      ],
      [
        "झ",
        "ा"
      ],
      [
        "ब",
        "च"
      ],
      [
        "ह",
        "ार"
      ],
      [
        "ै",
        "न"
      ],
      [
        "कि",
        "स"
      ],
      [
        "पर",
        "्या"
      ],
      [
        "वि",
        "परी"
      ],
      [
        "सं",
        "भव"
      ],
      [
        "उम",
        "्र"
      ],
      [
        "सि",
        "ल"
      ],
      [
        "द्",
        "दे"
      ],
      [
        "तना",
        "व"
      ],
      [
        "व्यक्ति",
        "गत"
      ],
      [
        "ार्",
        "थ"
      ],
      [
        "दूस",
        "रे"
      ],
      [
        "अंत",
        "तः"
      ],
      [
        "विपरी",
        "त"
      ],
      [
        "उ",
        "ह"
      ],
      [
        "क",
        "हां"
      ],
      [
        "त",
        "ने"
      ],
      [
        "द",
        "ें"
      ],
      [
        "फ",
        "ा"
      ],
      [
        "फ",
        "्"
      ],
      [
        "भ",
        "ो"
      ],
      [
        "स",
        "ारे"
      ],
      [
        "का",
        "लिक"
      ],
      [
        "रह",
        "ने"
      ],
      [
        "रह",
        "ना"
      ],
      [
        "इस",
        "की"
      ],
      [
        "मा",
        "म"
      ],
      [
        "सं",
        "तु"
      ],
      [
        "सं",
        "कल्प"
      ],
      [
        "रा",
        "ब"
      ],
      [
        "शु",
        "रु"
      ],
      [
        "प्रति",
        "क्रिया"
      ],
      [
        "उत्",
        "तर"
      ],
      [
        "भु",
        "त"
      ],
      [
        "परेशा",
        "न"
      ],
      [
        "अद्",
        "भुत"
      ],
      [
        "शुरु",
        "आ"
      ],
      [
        "उ",
        "तना"
      ],
      [
        "ए",
        "पि"
      ],
      [
        "ख",
        "री"
      ],
      [
        "ग",
        "ति"
      ],
      [
        "ज",
        "ू"
      ],
      [
        "ड",
        "े"
      ],
      [
        "त",
        "ैया"
      ],
      [
        "द",
        "या"
      ],
      [
        "द",
        "बा"
      ],
      [
        "प",
        "क"
      ],
      [
        "म",
        "ो"
      ],
      [
        "म",
        "ति"
      ],
      [
        "य",
        "ु"
      ],
      [
        "र",
        "्य"
      ],
      [
        "ल",
        "ू"
      ],
      [
        "स",
        "ह"
      ],
      [
        "स",
        "ारी"
      ],
      [
        "ॉ",
        "क"
      ],
      [
        "कर",
        "ण"
      ],
      [
        "कर",
        "ि"
      ],
      [
        "क्",
        "त"
      ],
      [
        "ले",
        "ने"
      ],
      [
        "हा",
        "सिल"
      ],
      [
        "दे",
        "ना"
      ],
      [
        "सक",
        "ती"
      ],
      [
        "चाह",
        "े"
      ],
      [
        "मि",
        "न"
      ],
      [
        "बि",
        "ता"
      ],
      [
        "सोच",
        "ने"
      ],
      [
        "आद",
        "तें"
      ],
      [
        "कम",
        "ी"
      ],
      [
        "अनु",
        "मति"
      ],
      [
        "रि",
        "श्"
      ],
      [
        "टी",
        "म"
      ],
      [
        "गल",
        "त"
      ],
      [
        "प्रेर",
        "ित"
      ],
      [
        "पो",
        "स्ट"
      ],
      [
        "कं",
        "प"
      ],
      [
        "्याल",
        "य"
      ],
      [
        "ं",
        "ख"
      ],
      [
        "अ",
        "विश्व"
      ],
      [
        "आ",
        "ई"
      ],
      [
        "ओ",
        "ह"
      ],
      [
        "त",
        "िक"
      ],
      [
        "द",
        "्य"
      ],
      [
        "भ",
        "ूल"
      ],
      [
        "भ",
        "विष"
      ],
      [
        "म",
        "ॉड"
      ],
      [
        "ल",
        "ु"
      ],
      [
        "स",
        "नीय"
      ],
      [
        "ि",
        "ला"
      ],
      [
        "ो",
        "म"
      ],
      [
        "कर",
        "ा"
      ],
      [
        "कर",
        "ी"
      ],
      [
        "का",
        "ं"
      ],
      [
        "हम",
        "ारी"
      ],
      [
        "्या",
        "दा"
      ],
      [
        "हर",
        "ण"
      ],
      [
        "स्ट",
        "ी"
      ],
      [
        "जिस",
        "ने"
      ],
      [
        "जिस",
        "में"
      ],
      [
        "स्व",
        "ी"
      ],
      [
        "पु",
        "रा"
      ],
      [
        "कौ",
        "शल"
      ],
      [
        "जाए",
        "गा"
      ],
      [
        "बच्",
        "चे"
      ],
      [
        "स्क",
        "ूल"
      ],
      [
        "उदा",
        "हरण"
      ],
      [
        "भो",
        "जन"
      ],
      [
        "अविश्व",
        "सनीय"
      ],
      [
        "भविष",
        "्य"
      ],
      [
        "ज",
        "्यादा"
      ],
      [
        "ट",
        "न"
      ],
      [
        "ध",
        "िक"
      ],
      [
        "म",
        "्"
      ],
      [
        "म",
        "जब"
      ],
      [
        "य",
        "ं"
      ],
      [
        "ल",
        "ने"
      ],
      [
        "स",
        "के"
      ],
      [
        "रह",
        "ता"
      ],
      [
        "बा",
        "हरी"
      ],
      [
        "सं",
        "के"
      ],
      [
        "पू",
        "रा"
      ],
      [
        "सो",
        "ड"
      ],
      [
        "मि",
        "का"
      ],
      [
        "दिन",
        "ों"
      ],
      [
        "रख",
        "ने"
      ],
      [
        "तु",
        "लना"
      ],
      [
        "बन",
        "ने"
      ],
      [
        "स्व",
        "स्थ"
      ],
      [
        "स्व",
        "यं"
      ],
      [
        "मी",
        "डि"
      ],
      [
        "पै",
        "सा"
      ],
      [
        "शो",
        "ध"
      ],
      [
        "दौ",
        "रा"
      ],
      [
        "मनो",
        "वैज्ञानिक"
      ],
      [
        "शुरुआ",
        "त"
      ],
      [
        "एपि",
        "सोड"
      ],
      [
        "मीडि",
        "या"
      ],
      [
        "अ",
        "भ"
      ],
      [
        "आ",
        "मत"
      ],
      [
        "उ",
        "द्दे"
      ],
      [
        "ग",
        "र्"
      ],
      [
        "च",
        "ू"
      ],
      [
        "ज",
        "र"
      ],
      [
        "ज",
        "ल्"
      ],
      [
        "ज",
        "रूरत"
      ],
      [
        "न",
        "फ"
      ],
      [
        "फ",
        "े"
      ],
      [
        "ल",
        "ों"
      ],
      [
        "ह",
        "टा"
      ],
      [
        "ॉ",
        "र्"
      ],
      [
        "ो",
        "न"
      ],
      [
        "कि",
        "तना"
      ],
      [
        "ता",
        "कि"
      ],
      [
        "लि",
        "खा"
      ],
      [
        "उस",
        "ी"
      ],
      [
        "पा",
        "न"
      ],
      [
        "सम",
        "ूह"
      ],
      [
        "ती",
        "न"
      ],
      [
        "क्ष",
        "ित"
      ],
      [
        "च्छ",
        "ा"
      ],
      [
        "मह",
        "िला"
      ],
      [
        "कहा",
        "नी"
      ],
      [
        "छो",
        "टी"
      ],
      [
        "पड़",
        "ता"
      ],
      [
        "कारा",
        "त्मक"
      ],
      [
        "घं",
        "टे"
      ],
      [
        "आमत",
        "ौर"
      ],
      [
        "उद्दे",
        "श्य"
      ],
      [
        "अ",
        "के"
      ],
      [
        "आ",
        "न"
      ],
      [
        "आ",
        "स"
      ],
      [
        "आ",
        "श्च"
      ],
      [
        "द",
        "ार"
      ],
      [
        "द",
        "ूर"
      ],
      [
        "ध",
        "ूम"
      ],
      [
        "प",
        "्या"
      ],
      [
        "फ",
        "्र"
      ],
      [
        "कर",
        "नी"
      ],
      [
        "कर",
        "ूंगा"
      ],
      [
        "क्",
        "स"
      ],
      [
        "्र",
        "पान"
      ],
      [
        "वा",
        "ह"
      ],
      [
        "ले",
        "ं"
      ],
      [
        "ले",
        "ते"
      ],
      [
        "प्र",
        "ो"
      ],
      [
        "दि",
        "ख"
      ],
      [
        "लगा",
        "तार"
      ],
      [
        "डा",
        "ल"
      ],
      [
        "बता",
        "या"
      ],
      [
        "बदल",
        "ने"
      ],
      [
        "यो",
        "जना"
      ],
      [
        "ईमानद",
        "ार"
      ],
      [
        "अव",
        "सर"
      ],
      [
        "दृ",
        "ष्टि"
      ],
      [
        "नियंत्र",
        "ण"
      ],
      [
        "तैया",
        "र"
      ],
      [
        "दौरा",
        "न"
      ],
      [
        "आश्च",
        "र्य"
      ],
      [
        "धूम",
        "्रपान"
      ],
      [
        "आ",
        "कार"
      ],
      [
        "इ",
        "च्छा"
      ],
      [
        "ट",
        "ू"
      ],
      [
        "त",
        "ौर"
      ],
      [
        "न",
        "िक"
      ],
      [
        "न",
        "्यू"
      ],
      [
        "ब",
        "जे"
      ],
      [
        "म",
        "ू"
      ],
      [
        "सा",
        "ह"
      ],
      [
        "जा",
        "ती"
      ],
      [
        "ले",
        "ना"
      ],
      [
        "ला",
        "इन"
      ],
      [
        "पा",
        "गल"
      ],
      [
        "सी",
        "खा"
      ],
      [
        "नी",
        "चे"
      ],
      [
        "रा",
        "म"
      ],
      [
        "रा",
        "स्"
      ],
      [
        "खा",
        "ने"
      ],
      [
        "भा",
        "ष"
      ],
      [
        "कह",
        "ने"
      ],
      [
        "जिस",
        "से"
      ],
      [
        "देख",
        "ता"
      ],
      [
        "गी",
        "त"
      ],
      [
        "बद",
        "ला"
      ],
      [
        "पै",
        "से"
      ],
      [
        "चु",
        "नौ"
      ],
      [
        "धार",
        "ित"
      ],
      [
        "कहूं",
        "गा"
      ],
      [
        "भाग्य",
        "शाली"
      ],
      [
        "दया",
        "लु"
      ],
      [
        "करि",
        "यर"
      ],
      [
        "आन",
        "ंद"
      ],
      [
        "अ",
        "त्य"
      ],
      [
        "आ",
        "ती"
      ],
      [
        "उ",
        "ठा"
      ],
      [
        "ध",
        "ो"
      ],
      [
        "न",
        "ू"
      ],
      [
        "प",
        "ण"
      ],
      [
        "व",
        "हाँ"
      ],
      [
        "श",
        "क"
      ],
      [
        "स",
        "ौ"
      ],
      [
        "ै",
        "क"
      ],
      [
        "ॉ",
        "ल"
      ],
      [
        "।",
        "'"
      ],
      [
        "कि",
        "ए"
      ],
      [
        "मे",
        "ल"
      ],
      [
        "कर",
        "ती"
      ],
      [
        "्र",
        "ोम"
      ],
      [
        "जा",
        "एंगे"
      ],
      [
        "र्",
        "न"
      ],
      [
        "प्र",
        "योग"
      ],
      [
        "ें",
        "ज"
      ],
      [
        "दे",
        "ह"
      ],
      [
        "उस",
        "का"
      ],
      [
        "सं",
        "गीत"
      ],
      [
        "सं",
        "देह"
      ],
      [
        "पा",
        "ंच"
      ],
      [
        "जै",
        "सी"
      ],
      [
        "क्ष",
        "े"
      ],
      [
        "मि",
        "ली"
      ],
      [
        "सोच",
        "ना"
      ],
      [
        "सि",
        "ंड"
      ],
      [
        "छो",
        "टे"
      ],
      [
        "रो",
        "क"
      ],
      [
        "डि",
        "यो"
      ],
      [
        "तरी",
        "का"
      ],
      [
        "बु",
        "री"
      ],
      [
        "कर्",
        "ष"
      ],
      [
        "साम",
        "ने"
      ],
      [
        "पर्या",
        "प्त"
      ],
      [
        "खरी",
        "द"
      ],
      [
        "नफ",
        "रत"
      ],
      [
        "सिंड",
        "्रोम"
      ],
      [
        "0",
        "0"
      ],
      [
        "अ",
        "ंदर"
      ],
      [
        "आ",
        "राम"
      ],
      [
        "इ",
        "नाम"
      ],
      [
        "घ",
        "कालिक"
      ],
      [
        "च",
        "र्"
      ],
      [
        "च",
        "ॉक"
      ],
      [
        "फ",
        "ै"
      ],
      [
        "ब",
        "ल्"
      ],
      [
        "म",
        "ारी"
      ],
      [
        "व",
        "र"
      ],
      [
        "श",
        "ी"
      ],
      [
        "श",
        "ित"
      ],
      [
        "स",
        "मान"
      ],
      [
        "ा",
        "ंत"
      ],
      [
        "को",
        "ण"
      ],
      [
        "मु",
        "च"
      ],
      [
        "र्",
        "घकालिक"
      ],
      [
        "उन",
        "का"
      ],
      [
        "वि",
        "त"
      ],
      [
        "सम",
        "्"
      ],
      [
        "नी",
        "ंद"
      ],
      [
        "पू",
        "र्व"
      ],
      [
        "दी",
        "र्घकालिक"
      ],
      [
        "परि",
        "वर्"
      ],
      [
        "वी",
        "डियो"
      ],
      [
        "सच",
        "मुच"
      ],
      [
        "सार",
        "ा"
      ],
      [
        "स्वी",
        "कार"
      ],
      [
        "जल्",
        "दी"
      ],
      [
        "आस",
        "पास"
      ],
      [
        "प्या",
        "र"
      ],
      [
        "अत्य",
        "धिक"
      ],
      [
        "चॉक",
        "लेट"
      ],
      [
        "अ",
        "सुर"
      ],
      [
        "आ",
        "शा"
      ],
      [
        "आ",
        "हार"
      ],
      [
        "ए",
        "ँ"
      ],
      [
        "ख",
        "राब"
      ],
      [
        "ग",
        "्"
      ],
      [
        "च",
        "ित"
      ],
      [
        "छ",
        "ह"
      ],
      [
        "ड",
        "ो"
      ],
      [
        "त",
        "ला"
      ],
      [
        "थ",
        "मिक"
      ],
      [
        "न",
        "या"
      ],
      [
        "प",
        "ड़ा"
      ],
      [
        "फ",
        "़"
      ],
      [
        "भ",
        "े"
      ],
      [
        "र",
        "चना"
      ],
      [
        "ल",
        "ड़"
      ],
      [
        "ल",
        "ैया"
      ],
      [
        "श",
        "री"
      ],
      [
        "श",
        "ब्"
      ],
      [
        "स",
        "ित"
      ],
      [
        "स",
        "ार्थ"
      ],
      [
        "ु",
        "क"
      ],
      [
        "ृ",
        "ंख"
      ],
      [
        "्",
        "न"
      ],
      [
        "मु",
        "ख"
      ],
      [
        "पर",
        "्"
      ],
      [
        "उन",
        "से"
      ],
      [
        "खा",
        "ना"
      ],
      [
        "मान",
        "्य"
      ],
      [
        "रख",
        "ें"
      ],
      [
        "पु",
        "र"
      ],
      [
        "प्रा",
        "थमिक"
      ],
      [
        "विचार",
        "ों"
      ],
      [
        "भु",
        "लैया"
      ],
      [
        "टि",
        "प्"
      ],
      [
        "क्षम",
        "ता"
      ],
      [
        "पढ़",
        "ा"
      ],
      [
        "स्था",
        "न"
      ],
      [
        "श्र",
        "ृंख"
      ],
      [
        "सिद्ध",
        "ांत"
      ],
      [
        "मिन",
        "ट"
      ],
      [
        "भूल",
        "भुलैया"
      ],
      [
        "मजब",
        "ूर"
      ],
      [
        "संके",
        "त"
      ],
      [
        "अके",
        "ले"
      ],
      [
        "दृष्टि",
        "कोण"
      ],
      [
        "बदला",
        "व"
      ],
      [
        "चुनौ",
        "ती"
      ],
      [
        "बल्",
        "कि"
      ],
      [
        "परिवर्",
        "तन"
      ],
      [
        "शरी",
        "र"
      ],
      [
        "सार्थ",
        "क"
      ],
      [
        "श्रृंख",
        "ला"
      ],
      [
        "अ",
        "मी"
      ],
      [
        "आ",
        "ए"
      ],
      [
        "इ",
        "ट"
      ],
      [
        "ई",
        "ओ"
      ],
      [
        "ऑ",
        "न"
      ],
      [
        "ज",
        "ने"
      ],
      [
        "ट",
        "्"
      ],
      [
        "द",
        "ेंगे"
      ],
      [
        "न",
        "क"
      ],
      [
        "ब",
        "जा"
      ],
      [
        "ब",
        "द्ध"
      ],
      [
        "म",
        "ार"
      ],
      [
        "य",
        "ने"
      ],
      [
        "व",
        "स्त"
      ],
      [
        "श",
        "ारी"
      ],
      [
        "ि",
        "यों"
      ],
      [
        "े",
        "गा"
      ],
      [
        "ने",
        "ं"
      ],
      [
        "ही",
        "न"
      ],
      [
        "इस",
        "ी"
      ],
      [
        "ले",
        "ख"
      ],
      [
        "र्",
        "भ"
      ],
      [
        "मा",
        "ता"
      ],
      [
        "मा",
        "यने"
      ],
      [
        "वि",
        "त्"
      ],
      [
        "ला",
        "यक"
      ],
      [
        "सं",
        "भावना"
      ],
      [
        "सी",
        "ईओ"
      ],
      [
        "रा",
        "त"
      ],
      [
        "पह",
        "न"
      ],
      [
        "संद",
        "र्भ"
      ],
      [
        "अनु",
        "सार"
      ],
      [
        "समझ",
        "ने"
      ],
      [
        "पु",
        "स्त"
      ],
      [
        "बता",
        "ता"
      ],
      [
        "बढ़",
        "ा"
      ],
      [
        "निय",
        "म"
      ],
      [
        "कल्प",
        "ना"
      ],
      [
        "भू",
        "मिका"
      ],
      [
        "लिख",
        "ने"
      ],
      [
        "ग्रा",
        "म"
      ],
      [
        "मही",
        "ने"
      ],
      [
        "महा",
        "मारी"
      ],
      [
        "जू",
        "द"
      ],
      [
        "स्टी",
        "व"
      ],
      [
        "सके",
        "ं"
      ],
      [
        "पागल",
        "पन"
      ],
      [
        "सम्",
        "मान"
      ],
      [
        "शब्",
        "द"
      ],
      [
        "टिप्",
        "पण"
      ],
      [
        "ऑन",
        "लाइन"
      ],
      [
        "शारी",
        "रिक"
      ],
      [
        "1",
        "8"
      ],
      [
        "ं",
        "ति"
      ],
      [
        "उ",
        "च्"
      ],
      [
        "ख",
        "त्म"
      ],
      [
        "त",
        "थ"
      ],
      [
        "त",
        "त्व"
      ],
      [
        "त",
        "ंत्र"
      ],
      [
        "फ",
        "ोन"
      ],
      [
        "ब",
        "ू"
      ],
      [
        "व",
        "रण"
      ],
      [
        "ष",
        "ण"
      ],
      [
        "ि",
        "या"
      ],
      [
        "मे",
        "ह"
      ],
      [
        "क्",
        "री"
      ],
      [
        "स्",
        "कार"
      ],
      [
        "जा",
        "एं"
      ],
      [
        "वा",
        "ई"
      ],
      [
        "भी",
        "तर"
      ],
      [
        "पा",
        "नी"
      ],
      [
        "शा",
        "ंत"
      ],
      [
        "ती",
        "य"
      ],
      [
        "मि",
        "ले"
      ],
      [
        "भा",
        "वित"
      ],
      [
        "स्ट",
        "ा"
      ],
      [
        "सु",
        "ना"
      ],
      [
        "जिस",
        "का"
      ],
      [
        "बना",
        "ना"
      ],
      [
        "अग",
        "ले"
      ],
      [
        "तु",
        "र"
      ],
      [
        "परि",
        "भाष"
      ],
      [
        "स्वा",
        "द"
      ],
      [
        "धार",
        "णा"
      ],
      [
        "कर्",
        "ता"
      ],
      [
        "दृ",
        "श्य"
      ],
      [
        "जु",
        "नू"
      ],
      [
        "मित",
        "्र"
      ],
      [
        "संबंध",
        "ित"
      ],
      [
        "पुर",
        "स्कार"
      ],
      [
        "प्राथमिक",
        "ता"
      ],
      [
        "बजा",
        "य"
      ],
      [
        "तथ",
        "्य"
      ],
      [
        "ं",
        "ज"
      ],
      [
        "अ",
        "वसा"
      ],
      [
        "उ",
        "द्य"
      ],
      [
        "क",
        "ल"
      ],
      [
        "क",
        "ू"
      ],
      [
        "ग",
        "ता"
      ],
      [
        "घ",
        "ट"
      ],
      [
        "द",
        "म"
      ],
      [
        "द",
        "्यालय"
      ],
      [
        "ध",
        "ी"
      ],
      [
        "प",
        "क्ष"
      ],
      [
        "प",
        "ार्"
      ],
      [
        "ब",
        "र्"
      ],
      [
        "ब",
        "ित"
      ],
      [
        "भ",
        "रा"
      ],
      [
        "म",
        "ंच"
      ],
      [
        "श",
        "त"
      ],
      [
        "स",
        "मा"
      ],
      [
        "ह",
        "फ्"
      ],
      [
        "या",
        "म"
      ],
      [
        "ार",
        "ा"
      ],
      [
        "सा",
        "झा"
      ],
      [
        "ले",
        "कर"
      ],
      [
        "जो",
        "खि"
      ],
      [
        "दे",
        "ती"
      ],
      [
        "वि",
        "द्यालय"
      ],
      [
        "जान",
        "ने"
      ],
      [
        "पा",
        "ने"
      ],
      [
        "पा",
        "या"
      ],
      [
        "त्",
        "या"
      ],
      [
        "रा",
        "ज"
      ],
      [
        "्ह",
        "ोंने"
      ],
      [
        "कै",
        "सा"
      ],
      [
        "अग",
        "ला"
      ],
      [
        "ार्",
        "ट"
      ],
      [
        "जिन",
        "्होंने"
      ],
      [
        "प्रति",
        "शत"
      ],
      [
        "रो",
        "मा"
      ],
      [
        "परि",
        "वार"
      ],
      [
        "मी",
        "द"
      ],
      [
        "सुन",
        "ने"
      ],
      [
        "भावना",
        "ओं"
      ],
      [
        "उम्",
        "मीद"
      ],
      [
        "दूस",
        "री"
      ],
      [
        "बच्",
        "चा"
      ],
      [
        "बु",
        "रा"
      ],
      [
        "गु",
        "जर"
      ],
      [
        "विष",
        "य"
      ],
      [
        "तुम",
        "्हें"
      ],
      [
        "मौ",
        "का"
      ],
      [
        "लं",
        "बे"
      ],
      [
        "व्या",
        "याम"
      ],
      [
        "संतु",
        "ष्टि"
      ],
      [
        "लू",
        "प"
      ],
      [
        "रिश्",
        "ते"
      ],
      [
        "कंप",
        "नी"
      ],
      [
        "मॉड",
        "ल"
      ],
      [
        "इच्छा",
        "शक्ति"
      ],
      [
        "क्षे",
        "त्र"
      ],
      [
        "तला",
        "श"
      ],
      [
        "रचना",
        "त्मक"
      ],
      [
        "अमी",
        "र"
      ],
      [
        "पुस्त",
        "क"
      ],
      [
        "उच्",
        "च"
      ],
      [
        "अवसा",
        "द"
      ],
      [
        "जोखि",
        "म"
      ],
      [
        "1",
        "9"
      ],
      [
        "3",
        "0"
      ],
      [
        "ं",
        "क"
      ],
      [
        "इ",
        "तनी"
      ],
      [
        "इ",
        "तने"
      ],
      [
        "उ",
        "ड़ा"
      ],
      [
        "ऊ",
        "पर"
      ],
      [
        "ए",
        "म"
      ],
      [
        "ख",
        "्या"
      ],
      [
        "घ",
        "ा"
      ],
      [
        "च",
        "ले"
      ],
      [
        "न",
        "त"
      ],
      [
        "प",
        "ित"
      ],
      [
        "प",
        "ड़े"
      ],
      [
        "ब",
        "्र"
      ],
      [
        "ब",
        "चा"
      ],
      [
        "स",
        "न"
      ],
      [
        "स",
        "र्"
      ],
      [
        "स",
        "हम"
      ],
      [
        "स",
        "कारात्मक"
      ],
      [
        "ह",
        "रा"
      ],
      [
        "ि",
        "कां"
      ],
      [
        "ी",
        "दा"
      ],
      [
        "े",
        "क"
      ],
      [
        "्",
        "व"
      ],
      [
        "कि",
        "त्"
      ],
      [
        "ते",
        "जी"
      ],
      [
        "की",
        "न"
      ],
      [
        "र्",
        "ड"
      ],
      [
        "हा",
        "ल"
      ],
      [
        "प्र",
        "त्य"
      ],
      [
        "प्र",
        "भावित"
      ],
      [
        "वि",
        "फल"
      ],
      [
        "कु",
        "त्"
      ],
      [
        "सं",
        "ख्या"
      ],
      [
        "नि",
        "ष्"
      ],
      [
        "रा",
        "य"
      ],
      [
        "अध",
        "िकां"
      ],
      [
        "मि",
        "शन"
      ],
      [
        "ल्",
        "स"
      ],
      [
        "ंद",
        "गी"
      ],
      [
        "सु",
        "बह"
      ],
      [
        "सि",
        "खा"
      ],
      [
        "पसंद",
        "ीदा"
      ],
      [
        "रख",
        "ना"
      ],
      [
        "छो",
        "टा"
      ],
      [
        "जन",
        "क"
      ],
      [
        "बे",
        "च"
      ],
      [
        "मिल",
        "ता"
      ],
      [
        "समझ",
        "ा"
      ],
      [
        "चि",
        "कित्"
      ],
      [
        "थो",
        "ड़ी"
      ],
      [
        "पै",
        "दा"
      ],
      [
        "आत्म",
        "विश्वास"
      ],
      [
        "चल",
        "ता"
      ],
      [
        "पहु",
        "ं"
      ],
      [
        "पूछ",
        "ना"
      ],
      [
        "लक्ष्य",
        "ों"
      ],
      [
        "भु",
        "गता"
      ],
      [
        "बैठ",
        "ा"
      ],
      [
        "इं",
        "सान"
      ],
      [
        "विक",
        "ल्प"
      ],
      [
        "मही",
        "नों"
      ],
      [
        "महा",
        "न"
      ],
      [
        "माम",
        "ले"
      ],
      [
        "पुरा",
        "नी"
      ],
      [
        "शोध",
        "कर्ता"
      ],
      [
        "रास्",
        "ते"
      ],
      [
        "तुर",
        "ंत"
      ],
      [
        "सहम",
        "त"
      ],
      [
        "अधिकां",
        "श"
      ],
      [
        "भुगता",
        "न"
      ],
      [
        "1",
        "2"
      ],
      [
        "5",
        "0"
      ],
      [
        "आ",
        "ख"
      ],
      [
        "आ",
        "म"
      ],
      [
        "आ",
        "खि"
      ],
      [
        "ई",
        "मेल"
      ],
      [
        "ए",
        "स"
      ],
      [
        "क",
        "मा"
      ],
      [
        "क",
        "डा"
      ],
      [
        "ग",
        "र"
      ],
      [
        "च",
        "ों"
      ],
      [
        "भ",
        "ले"
      ],
      [
        "म",
        "जा"
      ],
      [
        "र",
        "खा"
      ],
      [
        "ल",
        "न"
      ],
      [
        "ह",
        "जार"
      ],
      [
        "ु",
        "ष"
      ],
      [
        "कि",
        "ल"
      ],
      [
        "कर",
        "ो"
      ],
      [
        "कर",
        "ेगा"
      ],
      [
        "का",
        "न"
      ],
      [
        "्र",
        "वाई"
      ],
      [
        "र्",
        "श"
      ],
      [
        "प्र",
        "क्रिया"
      ],
      [
        "प्र",
        "दर्"
      ],
      [
        "दि",
        "ल"
      ],
      [
        "दि",
        "ला"
      ],
      [
        "ड़",
        "ना"
      ],
      [
        "दे",
        "री"
      ],
      [
        "वि",
        "रो"
      ],
      [
        "बा",
        "की"
      ],
      [
        "बा",
        "तें"
      ],
      [
        "पा",
        "द"
      ],
      [
        "नि",
        "रा"
      ],
      [
        "सम",
        "र्थ"
      ],
      [
        "कार",
        "्रवाई"
      ],
      [
        "पह",
        "ला"
      ],
      [
        "िर",
        "कार"
      ],
      [
        "दा",
        "यक"
      ],
      [
        "बना",
        "ते"
      ],
      [
        "कम",
        "जो"
      ],
      [
        "कम",
        "रे"
      ],
      [
        "अनु",
        "मान"
      ],
      [
        "कारण",
        "ों"
      ],
      [
        "प्रति",
        "बद्ध"
      ],
      [
        "पु",
        "रु"
      ],
      [
        "बदल",
        "ना"
      ],
      [
        "वै",
        "से"
      ],
      [
        "चीज़",
        "ों"
      ],
      [
        "भग",
        "वान"
      ],
      [
        "पूछ",
        "ने"
      ],
      [
        "उत्",
        "साह"
      ],
      [
        "टि",
        "ंग"
      ],
      [
        "नौ",
        "करी"
      ],
      [
        "छोड़",
        "ने"
      ],
      [
        "बच्",
        "चों"
      ],
      [
        "खे",
        "बा"
      ],
      [
        "दर्",
        "द"
      ],
      [
        "लॉ",
        "कडा"
      ],
      [
        "साम",
        "ना"
      ],
      [
        "इं",
        "स्टा"
      ],
      [
        "विक",
        "सित"
      ],
      [
        "नियंत्र",
        "ित"
      ],
      [
        "श्र",
        "े"
      ],
      [
        "सामान",
        "्य"
      ],
      [
        "यु",
        "वा"
      ],
      [
        "मू",
        "र्"
      ],
      [
        "धो",
        "खेबा"
      ],
      [
        "प्रत्य",
        "ेक"
      ],
      [
        "चिकित्",
        "सक"
      ],
      [
        "पहुं",
        "चा"
      ],
      [
        "आखि",
        "री"
      ],
      [
        "पुरु",
        "ष"
      ],
      [
        "लॉकडा",
        "उन"
      ],
      [
        "इंस्टा",
        "ग्राम"
      ],
      [
        "ं",
        "बर"
      ],
      [
        "अ",
        "ति"
      ],
      [
        "आ",
        "ते"
      ],
      [
        "आ",
        "ज़"
      ],
      [
        "आ",
        "कर्ष"
      ],
      [
        "क",
        "ब"
      ],
      [
        "ग",
        "ार"
      ],
      [
        "घ",
        "ूम"
      ],
      [
        "च",
        "ढ़"
      ],
      [
        "ट",
        "ो"
      ],
      [
        "ट",
        "ने"
      ],
      [
        "ध",
        "े"
      ],
      [
        "न",
        "म"
      ],
      [
        "प",
        "ल"
      ],
      [
        "प",
        "ार"
      ],
      [
        "फ",
        "ॉ"
      ],
      [
        "ब",
        "ने"
      ],
      [
        "य",
        "स्क"
      ],
      [
        "व",
        "यस्क"
      ],
      [
        "स",
        "ू"
      ],
      [
        "स",
        "रा"
      ],
      [
        "ह",
        "े"
      ],
      [
        "ह",
        "ल्"
      ],
      [
        "ॉ",
        "प"
      ],
      [
        "ैं",
        "ड"
      ],
      [
        "का",
        "स"
      ],
      [
        "लि",
        "ंग"
      ],
      [
        "वा",
        "यर"
      ],
      [
        "मु",
        "ड़"
      ],
      [
        "प्र",
        "सिद्ध"
      ],
      [
        "ड़",
        "ों"
      ],
      [
        "वि",
        "धि"
      ],
      [
        "हम",
        "में"
      ],
      [
        "हम",
        "ारा"
      ],
      [
        "ला",
        "ं"
      ],
      [
        "उस",
        "में"
      ],
      [
        "उस",
        "की"
      ],
      [
        "नि",
        "वे"
      ],
      [
        "नि",
        "जी"
      ],
      [
        "कार",
        "्यालय"
      ],
      [
        "शा",
        "दी"
      ],
      [
        "ंद",
        "ा"
      ],
      [
        "बना",
        "ए"
      ],
      [
        "दो",
        "नों"
      ],
      [
        "अग",
        "ली"
      ],
      [
        "भाव",
        "िक"
      ],
      [
        "ंच",
        "ित"
      ],
      [
        "रख",
        "ता"
      ],
      [
        "रख",
        "ते"
      ],
      [
        "टी",
        "न"
      ],
      [
        "बता",
        "ने"
      ],
      [
        "ज़",
        "रूरत"
      ],
      [
        "मन",
        "ुष"
      ],
      [
        "स्वा",
        "भाविक"
      ],
      [
        "पूछ",
        "ता"
      ],
      [
        "लो",
        "क"
      ],
      [
        "उत्",
        "पाद"
      ],
      [
        "वी",
        "य"
      ],
      [
        "मूल्य",
        "ों"
      ],
      [
        "मूल्य",
        "वान"
      ],
      [
        "क्षण",
        "ों"
      ],
      [
        "प्रभाव",
        "ी"
      ],
      [
        "बो",
        "लने"
      ],
      [
        "पो",
        "षण"
      ],
      [
        "मार्",
        "च"
      ],
      [
        "मार्",
        "ट"
      ],
      [
        "निर्",
        "धारित"
      ],
      [
        "मौ",
        "जूद"
      ],
      [
        "शर्",
        "म"
      ],
      [
        "ग्र",
        "स्त"
      ],
      [
        "दबा",
        "व"
      ],
      [
        "चू",
        "हों"
      ],
      [
        "सिद्धांत",
        "ों"
      ],
      [
        "वित्",
        "तीय"
      ],
      [
        "मेह",
        "नत"
      ],
      [
        "आख",
        "िरकार"
      ],
      [
        "फॉ",
        "लो"
      ],
      [
        "मनुष",
        "्य"
      ],
      [
        "अ",
        "प्र"
      ],
      [
        "इ",
        "ंत"
      ],
      [
        "उ",
        "ल्"
      ],
      [
        "उ",
        "बर"
      ],
      [
        "ग",
        "ि"
      ],
      [
        "च",
        "ूह"
      ],
      [
        "छ",
        "ु"
      ],
      [
        "ज",
        "ें"
      ],
      [
        "ट",
        "र्न"
      ],
      [
        "द",
        "स"
      ],
      [
        "प",
        "द"
      ],
      [
        "प",
        "या"
      ],
      [
        "प",
        "ति"
      ],
      [
        "प",
        "त्"
      ],
      [
        "ब",
        "रा"
      ],
      [
        "भ",
        "िन"
      ],
      [
        "म",
        "र"
      ],
      [
        "म",
        "ै"
      ],
      [
        "र",
        "म"
      ],
      [
        "व",
        "ृ"
      ],
      [
        "व",
        "री"
      ],
      [
        "श",
        "ं"
      ],
      [
        "स",
        "माज"
      ],
      [
        "ह",
        "क"
      ],
      [
        "ह",
        "िर"
      ],
      [
        "ि",
        "ंग"
      ],
      [
        "े",
        "क्षा"
      ],
      [
        "कर",
        "के"
      ],
      [
        "क्",
        "यू"
      ],
      [
        "को",
        "र"
      ],
      [
        "स्",
        "मार्ट"
      ],
      [
        "स्",
        "कोर"
      ],
      [
        "का",
        "श"
      ],
      [
        "जा",
        "ग"
      ],
      [
        "वा",
        "दी"
      ],
      [
        "मु",
        "श्"
      ],
      [
        "ले",
        "ता"
      ],
      [
        "र्",
        "क"
      ],
      [
        "हा",
        "थ"
      ],
      [
        "प्र",
        "शि"
      ],
      [
        "वि",
        "ड"
      ],
      [
        "वि",
        "धा"
      ],
      [
        "वि",
        "कास"
      ],
      [
        "ला",
        "ने"
      ],
      [
        "ति",
        "त"
      ],
      [
        "ची",
        "नी"
      ],
      [
        "नि",
        "भा"
      ],
      [
        "तो",
        "ड़ने"
      ],
      [
        "कार",
        "्"
      ],
      [
        "सी",
        "मा"
      ],
      [
        "सी",
        "मित"
      ],
      [
        "हां",
        "त"
      ],
      [
        "सब",
        "क"
      ],
      [
        "गे",
        "म"
      ],
      [
        "मान",
        "वीय"
      ],
      [
        "स्ट",
        "र"
      ],
      [
        "कह",
        "ेंगे"
      ],
      [
        "सु",
        "ंदर"
      ],
      [
        "सु",
        "विधा"
      ],
      [
        "ष्",
        "ठ"
      ],
      [
        "देख",
        "ना"
      ],
      [
        "आद",
        "मी"
      ],
      [
        "बना",
        "ती"
      ],
      [
        "दो",
        "हरा"
      ],
      [
        "ढ़",
        "ी"
      ],
      [
        "जिन",
        "में"
      ],
      [
        "समझ",
        "ना"
      ],
      [
        "योग",
        "दान"
      ],
      [
        "लगा",
        "ने"
      ],
      [
        "द्ध",
        "ि"
      ],
      [
        "पूछ",
        "ा"
      ],
      [
        "चु",
        "न"
      ],
      [
        "सुन",
        "ो"
      ],
      [
        "चिं",
        "तित"
      ],
      [
        "क्रि",
        "य"
      ],
      [
        "दूस",
        "रा"
      ],
      [
        "पहुंच",
        "ने"
      ],
      [
        "पहुंच",
        "ते"
      ],
      [
        "सप्ता",
        "हांत"
      ],
      [
        "जु",
        "ड़ा"
      ],
      [
        "ट्र",
        "ैक"
      ],
      [
        "अध्ययन",
        "ों"
      ],
      [
        "पे",
        "ट"
      ],
      [
        "किताब",
        "ें"
      ],
      [
        "सुर",
        "क्षित"
      ],
      [
        "कृ",
        "पया"
      ],
      [
        "संभव",
        "तः"
      ],
      [
        "गति",
        "विधि"
      ],
      [
        "पोस्ट",
        "र"
      ],
      [
        "ज्यादा",
        "तर"
      ],
      [
        "अभ",
        "ि"
      ],
      [
        "फ्र",
        "ी"
      ],
      [
        "दयालु",
        "ता"
      ],
      [
        "पूर्व",
        "क"
      ],
      [
        "असुर",
        "क्षा"
      ],
      [
        "बर्",
        "बाद"
      ],
      [
        "समर्थ",
        "न"
      ],
      [
        "आज़",
        "मा"
      ],
      [
        "इंत",
        "जार"
      ],
      [
        "चूह",
        "े"
      ],
      [
        "भिन",
        "्न"
      ],
      [
        "मुश्",
        "किल"
      ],
      [
        "आ",
        "वा"
      ],
      [
        "आ",
        "श्"
      ],
      [
        "आ",
        "लो"
      ],
      [
        "आ",
        "धारित"
      ],
      [
        "इ",
        "ए"
      ],
      [
        "इ",
        "म्"
      ],
      [
        "ई",
        "ं"
      ],
      [
        "ऊ",
        "र्"
      ],
      [
        "क",
        "ड़ी"
      ],
      [
        "क",
        "दम"
      ],
      [
        "ख",
        "ी"
      ],
      [
        "ग",
        "ू"
      ],
      [
        "ग",
        "ो"
      ],
      [
        "च",
        "रण"
      ],
      [
        "ज",
        "ारी"
      ],
      [
        "ज",
        "हाँ"
      ],
      [
        "ड",
        "्र"
      ],
      [
        "ड",
        "्रा"
      ],
      [
        "ढ",
        "ूं"
      ],
      [
        "ण",
        "ी"
      ],
      [
        "द",
        "्र"
      ],
      [
        "द",
        "ूं"
      ],
      [
        "ध",
        "ित"
      ],
      [
        "न",
        "कारात्मक"
      ],
      [
        "फ",
        "ु"
      ],
      [
        "ब",
        "टन"
      ],
      [
        "भ",
        "ौ"
      ],
      [
        "भ",
        "ारी"
      ],
      [
        "भ",
        "रो"
      ],
      [
        "म",
        "ैन"
      ],
      [
        "य",
        "म"
      ],
      [
        "य",
        "हीं"
      ],
      [
        "य",
        "कीन"
      ],
      [
        "ल",
        "त"
      ],
      [
        "ल",
        "ौ"
      ],
      [
        "स",
        "हा"
      ],
      [
        "स",
        "च्"
      ],
      [
        "स",
        "र्व"
      ],
      [
        "ह",
        "ल"
      ],
      [
        "ि",
        "का"
      ],
      [
        "ी",
        "य"
      ],
      [
        "ू",
        "त"
      ],
      [
        "ृ",
        "त"
      ],
      [
        "ॉ",
        "न"
      ],
      [
        "्",
        "धि"
      ],
      [
        "मे",
        "ज"
      ],
      [
        "से",
        "ट"
      ],
      [
        "या",
        "ं"
      ],
      [
        "सा",
        "इ"
      ],
      [
        "सा",
        "धार"
      ],
      [
        "स्",
        "य"
      ],
      [
        "रह",
        "ें"
      ],
      [
        "लि",
        "यन"
      ],
      [
        "जा",
        "ंच"
      ],
      [
        "जा",
        "ऊंगा"
      ],
      [
        "जा",
        "हिर"
      ],
      [
        "वा",
        "कां"
      ],
      [
        "मु",
        "द्"
      ],
      [
        "प्र",
        "शं"
      ],
      [
        "अप",
        "ेक्षा"
      ],
      [
        "मा",
        "यन"
      ],
      [
        "दे",
        "गा"
      ],
      [
        "कु",
        "की"
      ],
      [
        "जि",
        "ंदगी"
      ],
      [
        "चा",
        "ई"
      ],
      [
        "सं",
        "देश"
      ],
      [
        "नि",
        "का"
      ],
      [
        "सक",
        "ूं"
      ],
      [
        "त्",
        "वाकां"
      ],
      [
        "जब",
        "कि"
      ],
      [
        "रा",
        "व"
      ],
      [
        "व्य",
        "स्त"
      ],
      [
        "खा",
        "स"
      ],
      [
        "मह",
        "त्वाकां"
      ],
      [
        "बि",
        "क्री"
      ],
      [
        "सु",
        "पर"
      ],
      [
        "सोच",
        "ें"
      ],
      [
        "देख",
        "ें"
      ],
      [
        "आद",
        "र्श"
      ],
      [
        "दो",
        "ष"
      ],
      [
        "अनु",
        "रूप"
      ],
      [
        "जिन",
        "का"
      ],
      [
        "दिन",
        "चर्"
      ],
      [
        "स्थ",
        "िर"
      ],
      [
        "तर",
        "फ"
      ],
      [
        "पी",
        "ढ़ी"
      ],
      [
        "मिल",
        "ते"
      ],
      [
        "समझ",
        "ता"
      ],
      [
        "लब",
        "्धि"
      ],
      [
        "उप",
        "करण"
      ],
      [
        "उप",
        "लब्धि"
      ],
      [
        "चु",
        "का"
      ],
      [
        "विशेष",
        "ज्ञ"
      ],
      [
        "रु",
        "क"
      ],
      [
        "गह",
        "रा"
      ],
      [
        "जाए",
        "गी"
      ],
      [
        "अव",
        "लोक"
      ],
      [
        "अंत",
        "र"
      ],
      [
        "दृ",
        "ढ़"
      ],
      [
        "ट्र",
        "ि"
      ],
      [
        "हिस्",
        "से"
      ],
      [
        "धा",
        "भा"
      ],
      [
        "कारा",
        "त्म"
      ],
      [
        "सीख",
        "ने"
      ],
      [
        "बच",
        "ने"
      ],
      [
        "बच",
        "पन"
      ],
      [
        "तनाव",
        "ग्रस्त"
      ],
      [
        "गर्",
        "मि"
      ],
      [
        "फै",
        "शन"
      ],
      [
        "उद्य",
        "ोग"
      ],
      [
        "घट",
        "ित"
      ],
      [
        "हफ्",
        "तों"
      ],
      [
        "विरो",
        "धाभा"
      ],
      [
        "आकर्ष",
        "क"
      ],
      [
        "वायर",
        "स"
      ],
      [
        "मुड़",
        "कर"
      ],
      [
        "जाग",
        "रू"
      ],
      [
        "आश्",
        "वस्त"
      ],
      [
        "इम्",
        "पोस्टर"
      ],
      [
        "ऊर्",
        "जा"
      ],
      [
        "ढूं",
        "ढ"
      ],
      [
        "भौ",
        "तिक"
      ],
      [
        "भरो",
        "सा"
      ],
      [
        "साधार",
        "ण"
      ],
      [
        "मायन",
        "ों"
      ],
      [
        "दिनचर्",
        "या"
      ],
      [
        "अवलोक",
        "न"
      ],
      [
        "अ",
        "ंति"
      ],
      [
        "अ",
        "सुविधा"
      ],
      [
        "आ",
        "उ"
      ],
      [
        "उ",
        "चित"
      ],
      [
        "ऊ",
        "ँ"
      ],
      [
        "ए",
        "गा"
      ],
      [
        "क",
        "ॉल"
      ],
      [
        "ख",
        "र्"
      ],
      [
        "ग",
        "िर"
      ],
      [
        "छ",
        "ा"
      ],
      [
        "छ",
        "ी"
      ],
      [
        "ज",
        "वा"
      ],
      [
        "ट",
        "क"
      ],
      [
        "थ",
        "क"
      ],
      [
        "थ",
        "ि"
      ],
      [
        "द",
        "र"
      ],
      [
        "द",
        "ारी"
      ],
      [
        "द",
        "ूंगा"
      ],
      [
        "न",
        "कारात्म"
      ],
      [
        "ब",
        "ल"
      ],
      [
        "भ",
        "या"
      ],
      [
        "म",
        "छ"
      ],
      [
        "र",
        "ों"
      ],
      [
        "र",
        "ेंज"
      ],
      [
        "ल",
        "ै"
      ],
      [
        "ल",
        "हर"
      ],
      [
        "श",
        "ू"
      ],
      [
        "श",
        "िक"
      ],
      [
        "श",
        "राब"
      ],
      [
        "स",
        "ैक"
      ],
      [
        "ु",
        "णा"
      ],
      [
        "ू",
        "ड"
      ],
      [
        "े",
        "ली"
      ],
      [
        "ने",
        "ट"
      ],
      [
        "कर",
        "ुणा"
      ],
      [
        "ैं",
        "डी"
      ],
      [
        "ना",
        "क"
      ],
      [
        "सा",
        "त"
      ],
      [
        "सा",
        "यन"
      ],
      [
        "सा",
        "दृश्य"
      ],
      [
        "स्",
        "ता"
      ],
      [
        "की",
        "मत"
      ],
      [
        "वा",
        "दा"
      ],
      [
        "प्र",
        "ती"
      ],
      [
        "प्र",
        "गति"
      ],
      [
        "प्र",
        "मुख"
      ],
      [
        "लग",
        "ते"
      ],
      [
        "लग",
        "ती"
      ],
      [
        "बा",
        "जार"
      ],
      [
        "जि",
        "ए"
      ],
      [
        "ला",
        "इ"
      ],
      [
        "ला",
        "स"
      ],
      [
        "सं",
        "स्"
      ],
      [
        "तो",
        "ड़"
      ],
      [
        "खा",
        "ली"
      ],
      [
        "मान",
        "ता"
      ],
      [
        "तक",
        "नी"
      ],
      [
        "पह",
        "चा"
      ],
      [
        "सु",
        "निश्चित"
      ],
      [
        "देख",
        "ी"
      ],
      [
        "कहा",
        "ँ"
      ],
      [
        "बना",
        "या"
      ],
      [
        "रे",
        "ड"
      ],
      [
        "रख",
        "ती"
      ],
      [
        "रो",
        "लॉ"
      ],
      [
        "मिल",
        "ती"
      ],
      [
        "समझ",
        "ते"
      ],
      [
        "योग",
        "्य"
      ],
      [
        "शे",
        "क"
      ],
      [
        "लक्ष",
        "ण"
      ],
      [
        "यहा",
        "ँ"
      ],
      [
        "निय",
        "मित"
      ],
      [
        "अव",
        "धारणा"
      ],
      [
        "​​",
        "​​"
      ],
      [
        "पीछ",
        "ा"
      ],
      [
        "धा",
        "न"
      ],
      [
        "निर्",
        "देश"
      ],
      [
        "मनो",
        "विज्ञान"
      ],
      [
        "ग्र",
        "ी"
      ],
      [
        "बह",
        "न"
      ],
      [
        "संकल्प",
        "ों"
      ],
      [
        "सह",
        "योग"
      ],
      [
        "पुरा",
        "ने"
      ],
      [
        "चू",
        "हा"
      ],
      [
        "दिख",
        "ने"
      ],
      [
        "टू",
        "ट"
      ],
      [
        "न्यू",
        "रोलॉ"
      ],
      [
        "00",
        "0"
      ],
      [
        "ग्",
        "रह"
      ],
      [
        "मान्य",
        "ता"
      ],
      [
        "िया",
        "ँ"
      ],
      [
        "परिभाष",
        "ा"
      ],
      [
        "जुनू",
        "न"
      ],
      [
        "समा",
        "प्त"
      ],
      [
        "त्या",
        "शित"
      ],
      [
        "उड़ा",
        "न"
      ],
      [
        "निष्",
        "कर्ष"
      ],
      [
        "मजा",
        "क"
      ],
      [
        "कमजो",
        "र"
      ],
      [
        "प्रतिबद्ध",
        "ता"
      ],
      [
        "मूर्",
        "ख"
      ],
      [
        "अति",
        "थि"
      ],
      [
        "निवे",
        "श"
      ],
      [
        "अप्र",
        "त्याशित"
      ],
      [
        "उल्",
        "लेख"
      ],
      [
        "पद",
        "ार्थ"
      ],
      [
        "वृ",
        "द्धि"
      ],
      [
        "आलो",
        "चना"
      ],
      [
        "सच्",
        "चाई"
      ],
      [
        "अंति",
        "म"
      ],
      [
        "आउ",
        "ट"
      ],
      [
        "खर्",
        "च"
      ],
      [
        "छी",
        "न"
      ],
      [
        "भया",
        "नक"
      ],
      [
        "सैक",
        "ड़ों"
      ],
      [
        "अ",
        "निश्चित"
      ],
      [
        "अ",
        "ल्प"
      ],
      [
        "अ",
        "सहमत"
      ],
      [
        "आ",
        "इए"
      ],
      [
        "ए",
        "ल"
      ],
      [
        "क",
        "ही"
      ],
      [
        "क",
        "शेक"
      ],
      [
        "ख",
        "्"
      ],
      [
        "ग",
        "ड़"
      ],
      [
        "च",
        "स्प"
      ],
      [
        "च",
        "क्र"
      ],
      [
        "छ",
        "त"
      ],
      [
        "ज",
        "िक"
      ],
      [
        "ट",
        "्स"
      ],
      [
        "त",
        "ली"
      ],
      [
        "ध",
        "्व"
      ],
      [
        "न",
        "स"
      ],
      [
        "न",
        "ो"
      ],
      [
        "प",
        "त्र"
      ],
      [
        "फ",
        "ूड"
      ],
      [
        "ब",
        "ॉ"
      ],
      [
        "ब",
        "हा"
      ],
      [
        "ब",
        "चना"
      ],
      [
        "म",
        "ृ"
      ],
      [
        "म",
        "र्"
      ],
      [
        "व",
        "ंचित"
      ],
      [
        "श",
        "ौ"
      ],
      [
        "श",
        "हर"
      ],
      [
        "श",
        "मै"
      ],
      [
        "स",
        "ार्"
      ],
      [
        "स",
        "चे"
      ],
      [
        "स",
        "फे"
      ],
      [
        "ह",
        "ं"
      ],
      [
        "ह",
        "ना"
      ],
      [
        "ि",
        "ज"
      ],
      [
        "ो",
        "र"
      ],
      [
        "्",
        "मे"
      ],
      [
        "कि",
        "तने"
      ],
      [
        "ता",
        "पूर्ण"
      ],
      [
        "या",
        "ँ"
      ],
      [
        "क्",
        "य"
      ],
      [
        "को",
        "ने"
      ],
      [
        "सा",
        "बित"
      ],
      [
        "का",
        "बू"
      ],
      [
        "्र",
        "ता"
      ],
      [
        "लि",
        "त"
      ],
      [
        "जा",
        "कर"
      ],
      [
        "जा",
        "ऊं"
      ],
      [
        "वा",
        "क्य"
      ],
      [
        "पर",
        "ा"
      ],
      [
        "पर",
        "वाह"
      ],
      [
        "हा",
        "लां"
      ],
      [
        "प्र",
        "बंध"
      ],
      [
        "लग",
        "े"
      ],
      [
        "दि",
        "शा"
      ],
      [
        "मा",
        "ण"
      ],
      [
        "दे",
        "र"
      ],
      [
        "वि",
        "च"
      ],
      [
        "वि",
        "न"
      ],
      [
        "वि",
        "टर"
      ],
      [
        "वि",
        "लं"
      ],
      [
        "बा",
        "ना"
      ],
      [
        "जि",
        "त"
      ],
      [
        "ला",
        "ते"
      ],
      [
        "पा",
        "उ"
      ],
      [
        "नि",
        "यों"
      ],
      [
        "नि",
        "वार"
      ],
      [
        "क्ष",
        "क"
      ],
      [
        "साथ",
        "ी"
      ],
      [
        "मि",
        "ल्"
      ],
      [
        "मि",
        "लियन"
      ],
      [
        "व्य",
        "सन"
      ],
      [
        "भा",
        "ल"
      ],
      [
        "्या",
        "स"
      ],
      [
        "स्ट",
        "ॉक"
      ],
      [
        "कह",
        "ें"
      ],
      [
        "पह",
        "ेली"
      ],
      [
        "सु",
        "ख"
      ],
      [
        "सु",
        "ल"
      ],
      [
        "सि",
        "डी"
      ],
      [
        "देख",
        "भाल"
      ],
      [
        "बना",
        "ता"
      ],
      [
        "कै",
        "न"
      ],
      [
        "ढ़",
        "े"
      ],
      [
        "बे",
        "कार"
      ],
      [
        "दु",
        "र्"
      ],
      [
        "इन",
        "में"
      ],
      [
        "टी",
        "वी"
      ],
      [
        "पु",
        "न"
      ],
      [
        "लगा",
        "या"
      ],
      [
        "बता",
        "एं"
      ],
      [
        "ज़",
        "ा"
      ],
      [
        "टा",
        "ल"
      ],
      [
        "प्रे",
        "मिका"
      ],
      [
        "पूछ",
        "ें"
      ],
      [
        "सुन",
        "ता"
      ],
      [
        "गल",
        "ती"
      ],
      [
        "तरी",
        "कों"
      ],
      [
        "जाने",
        "ं"
      ],
      [
        "अव",
        "धि"
      ],
      [
        "बो",
        "ल"
      ],
      [
        "गु",
        "प्त"
      ],
      [
        "ट्र",
        "े"
      ],
      [
        "खो",
        "ज"
      ],
      [
        "खो",
        "जने"
      ],
      [
        "मार्",
        "ग"
      ],
      [
        "मार्",
        "शमै"
      ],
      [
        "जिम",
        "्मे"
      ],
      [
        "भू",
        "त"
      ],
      [
        "फि",
        "ल्"
      ],
      [
        "टर",
        "नेट"
      ],
      [
        "स्था",
        "पित"
      ],
      [
        "इं",
        "टरनेट"
      ],
      [
        "लं",
        "बी"
      ],
      [
        "वजन",
        "िक"
      ],
      [
        "शर्",
        "मि"
      ],
      [
        "मानसिक",
        "ता"
      ],
      [
        "क्र",
        "म"
      ],
      [
        "कृ",
        "त"
      ],
      [
        "दिखा",
        "या"
      ],
      [
        "कार्य",
        "ों"
      ],
      [
        "पर्या",
        "वरण"
      ],
      [
        "माम",
        "ला"
      ],
      [
        "डे",
        "विड"
      ],
      [
        "पक",
        "ड़"
      ],
      [
        "पक",
        "ड़ने"
      ],
      [
        "मो",
        "टा"
      ],
      [
        "बिता",
        "या"
      ],
      [
        "करी",
        "ब"
      ],
      [
        "प्रो",
        "टीन"
      ],
      [
        "अवसर",
        "ों"
      ],
      [
        "आश्चर्य",
        "जनक"
      ],
      [
        "निक",
        "लने"
      ],
      [
        "रास्",
        "ता"
      ],
      [
        "सौ",
        "भाग्य"
      ],
      [
        "आराम",
        "दायक"
      ],
      [
        "असुर",
        "क्षित"
      ],
      [
        "मुख",
        "्य"
      ],
      [
        "ट्",
        "विटर"
      ],
      [
        "वस्त",
        "ु"
      ],
      [
        "टिप्पण",
        "ियाँ"
      ],
      [
        "परिभाष",
        "ित"
      ],
      [
        "जुनू",
        "नी"
      ],
      [
        "रोमा",
        "ंच"
      ],
      [
        "कुत्",
        "ते"
      ],
      [
        "शोधकर्ता",
        "ओं"
      ],
      [
        "प्रदर्",
        "शन"
      ],
      [
        "दिल",
        "चस्प"
      ],
      [
        "निरा",
        "शा"
      ],
      [
        "उत्साह",
        "ित"
      ],
      [
        "धोखेबा",
        "ज"
      ],
      [
        "सरा",
        "हना"
      ],
      [
        "कार्",
        "पेट"
      ],
      [
        "प्रशं",
        "सक"
      ],
      [
        "गहरा",
        "ई"
      ],
      [
        "ऊँ",
        "गा"
      ],
      [
        "जवा",
        "ब"
      ],
      [
        "नकारात्म",
        "कता"
      ],
      [
        "मछ",
        "ली"
      ],
      [
        "संस्",
        "करण"
      ],
      [
        "न्यूरोलॉ",
        "जिक"
      ],
      [
        "अल्प",
        "कालिक"
      ],
      [
        "ध्व",
        "नि"
      ],
      [
        "मर्",
        "सिडी"
      ],
      [
        "सार्",
        "वजनिक"
      ],
      [
        "सचे",
        "त"
      ],
      [
        "सफे",
        "द"
      ],
      [
        "हालां",
        "कि"
      ],
      [
        "मिल्",
        "कशेक"
      ],
      [
        "मार्शमै",
        "लो"
      ],
      [
        "न्यूरोलॉजिक",
        "ल"
      ],
      [
        "मर्सिडी",
        "ज"
      ],
      [
        "1",
        "6"
      ],
      [
        "2",
        "5"
      ],
      [
        "6",
        "0"
      ],
      [
        "ं",
        "ट"
      ],
      [
        "अ",
        "र"
      ],
      [
        "अ",
        "स्त"
      ],
      [
        "अ",
        "चा"
      ],
      [
        "अ",
        "सफल"
      ],
      [
        "अ",
        "ंध"
      ],
      [
        "अ",
        "संभव"
      ],
      [
        "अ",
        "मान्य"
      ],
      [
        "आ",
        "र"
      ],
      [
        "आ",
        "ना"
      ],
      [
        "इ",
        "रा"
      ],
      [
        "उ",
        "ठ"
      ],
      [
        "उ",
        "द्ध"
      ],
      [
        "उ",
        "ंज"
      ],
      [
        "ए",
        "जें"
      ],
      [
        "क",
        "ल्"
      ],
      [
        "क",
        "पड़े"
      ],
      [
        "ख",
        "बर"
      ],
      [
        "च",
        "ैन"
      ],
      [
        "च",
        "रम"
      ],
      [
        "छ",
        "प्"
      ],
      [
        "ज",
        "टि"
      ],
      [
        "ट",
        "ुक"
      ],
      [
        "त",
        "र्क"
      ],
      [
        "द",
        "ों"
      ],
      [
        "द",
        "शक"
      ],
      [
        "न",
        "वी"
      ],
      [
        "न",
        "ंबर"
      ],
      [
        "प",
        "ं"
      ],
      [
        "प",
        "ट"
      ],
      [
        "प",
        "ना"
      ],
      [
        "प",
        "ड़ी"
      ],
      [
        "प",
        "ॉप"
      ],
      [
        "फ",
        "न"
      ],
      [
        "भ",
        "री"
      ],
      [
        "म",
        "्यू"
      ],
      [
        "य",
        "ॉर्"
      ],
      [
        "श",
        "ै"
      ],
      [
        "स",
        "द"
      ],
      [
        "स",
        "क्रिय"
      ],
      [
        "स",
        "ख्"
      ],
      [
        "ि",
        "य"
      ],
      [
        "कि",
        "तनी"
      ],
      [
        "कर",
        "ूं"
      ],
      [
        "या",
        "ण"
      ],
      [
        "ना",
        "इट"
      ],
      [
        "क्",
        "सी"
      ],
      [
        "क्",
        "रा"
      ],
      [
        "क्",
        "रो"
      ],
      [
        "क्",
        "लब"
      ],
      [
        "स्",
        "कैन"
      ],
      [
        "का",
        "ट"
      ],
      [
        "रह",
        "ती"
      ],
      [
        "जा",
        "ओ"
      ],
      [
        "हो",
        "नी"
      ],
      [
        "वा",
        "ता"
      ],
      [
        "र्",
        "म"
      ],
      [
        "र्",
        "स"
      ],
      [
        "र्",
        "पित"
      ],
      [
        "प्र",
        "ी"
      ],
      [
        "प्र",
        "का"
      ],
      [
        "प्र",
        "दान"
      ],
      [
        "लग",
        "ी"
      ],
      [
        "दि",
        "ए"
      ],
      [
        "मा",
        "ने"
      ],
      [
        "मा",
        "इन"
      ],
      [
        "मा",
        "लिक"
      ],
      [
        "मा",
        "ंस"
      ],
      [
        "ड़",
        "ित"
      ],
      [
        "ड़",
        "पति"
      ],
      [
        "वि",
        "ज्ञा"
      ],
      [
        "ला",
        "ना"
      ],
      [
        "ला",
        "उंज"
      ],
      [
        "सं",
        "ग"
      ],
      [
        "सं",
        "पर्"
      ],
      [
        "ति",
        "यों"
      ],
      [
        "जान",
        "ना"
      ],
      [
        "पा",
        "माइन"
      ],
      [
        "सम",
        "र्पित"
      ],
      [
        "त्",
        "साह"
      ],
      [
        "ती",
        "व"
      ],
      [
        "पू",
        "र्"
      ],
      [
        "जीवन",
        "शै"
      ],
      [
        "अन",
        "फॉलो"
      ],
      [
        "बि",
        "जने"
      ],
      [
        "्या",
        "य"
      ],
      [
        "थे",
        "रे"
      ],
      [
        "सु",
        "धार"
      ],
      [
        "प्",
        "ला"
      ],
      [
        "देख",
        "ेंगे"
      ],
      [
        "आद",
        "ी"
      ],
      [
        "दो",
        "बार"
      ],
      [
        "कै",
        "म"
      ],
      [
        "कै",
        "लो"
      ],
      [
        "अनु",
        "बंध"
      ],
      [
        "जिन",
        "से"
      ],
      [
        "रि",
        "टर्न"
      ],
      [
        "पी",
        "ना"
      ],
      [
        "पी",
        "ड़ित"
      ],
      [
        "स्व",
        "तंत्र"
      ],
      [
        "परि",
        "दृश्य"
      ],
      [
        "दु",
        "ख"
      ],
      [
        "पु",
        "तली"
      ],
      [
        "उप",
        "चार"
      ],
      [
        "हों",
        "गी"
      ],
      [
        "प्रा",
        "यो"
      ],
      [
        "प्रा",
        "कृ"
      ],
      [
        "थो",
        "ड़े"
      ],
      [
        "टा",
        "इ"
      ],
      [
        "चे",
        "स्टर"
      ],
      [
        "चल",
        "ने"
      ],
      [
        "चल",
        "ते"
      ],
      [
        "पूछ",
        "ते"
      ],
      [
        "चु",
        "की"
      ],
      [
        "बढ़",
        "ने"
      ],
      [
        "कठ",
        "पुतली"
      ],
      [
        "रिक",
        "ॉर्"
      ],
      [
        "बैठ",
        "े"
      ],
      [
        "बैठ",
        "ता"
      ],
      [
        "बो",
        "नस"
      ],
      [
        "उपयोग",
        "ी"
      ],
      [
        "ट्र",
        "िक"
      ],
      [
        "वाल",
        "ों"
      ],
      [
        "खि",
        "ला"
      ],
      [
        "त्य",
        "ु"
      ],
      [
        "लॉ",
        "ग"
      ],
      [
        "नाम",
        "क"
      ],
      [
        "साम",
        "ग्री"
      ],
      [
        "शक्ति",
        "शाली"
      ],
      [
        "शक्ति",
        "हीन"
      ],
      [
        "निर्",
        "भर"
      ],
      [
        "लिख",
        "ी"
      ],
      [
        "वैज्ञानिक",
        "ों"
      ],
      [
        "विश्व",
        "विद्यालय"
      ],
      [
        "माध्य",
        "मिक"
      ],
      [
        "ग्रा",
        "हक"
      ],
      [
        "दिखा",
        "ई"
      ],
      [
        "संबंध",
        "ी"
      ],
      [
        "समस्या",
        "एं"
      ],
      [
        "पिता",
        "जी"
      ],
      [
        "खेल",
        "ते"
      ],
      [
        "परिणाम",
        "ों"
      ],
      [
        "फा",
        "य"
      ],
      [
        "माम",
        "लों"
      ],
      [
        "संतु",
        "ष्ट"
      ],
      [
        "संतु",
        "लन"
      ],
      [
        "दबा",
        "एं"
      ],
      [
        "सह",
        "ज"
      ],
      [
        "रिश्",
        "तों"
      ],
      [
        "मॉड",
        "लिंग"
      ],
      [
        "स्टी",
        "फन"
      ],
      [
        "टन",
        "र"
      ],
      [
        "अभ",
        "्यास"
      ],
      [
        "निक",
        "ल"
      ],
      [
        "न्यू",
        "यॉर्"
      ],
      [
        "मू",
        "ली"
      ],
      [
        "धो",
        "खा"
      ],
      [
        "रोक",
        "ने"
      ],
      [
        "खरीद",
        "ने"
      ],
      [
        "आशा",
        "वाद"
      ],
      [
        "डो",
        "पामाइन"
      ],
      [
        "धी",
        "रे"
      ],
      [
        "पार्",
        "क"
      ],
      [
        "पार्",
        "टनर"
      ],
      [
        "ब्र",
        "ि"
      ],
      [
        "ब्र",
        "े"
      ],
      [
        "विफल",
        "ता"
      ],
      [
        "सिखा",
        "या"
      ],
      [
        "करो",
        "ड़पति"
      ],
      [
        "श्रे",
        "ष्ठ"
      ],
      [
        "मनुष्य",
        "ों"
      ],
      [
        "बरा",
        "बर"
      ],
      [
        "आवा",
        "ज"
      ],
      [
        "मैन",
        "चेस्टर"
      ],
      [
        "सर्व",
        "श्रेष्ठ"
      ],
      [
        "कुकी",
        "ज़"
      ],
      [
        "खास",
        "कर"
      ],
      [
        "महत्वाकां",
        "क्षा"
      ],
      [
        "गर्मि",
        "यों"
      ],
      [
        "विरोधाभा",
        "स"
      ],
      [
        "प्रती",
        "त"
      ],
      [
        "लाइ",
        "व"
      ],
      [
        "मूर्ख",
        "तापूर्ण"
      ],
      [
        "मृ",
        "त्यु"
      ],
      [
        "दुर्",
        "भाग्य"
      ],
      [
        "रोमांच",
        "क"
      ],
      [
        "अचा",
        "नक"
      ],
      [
        "कल्",
        "याण"
      ],
      [
        "छप्",
        "पर"
      ],
      [
        "जटि",
        "ल"
      ],
      [
        "म्यू",
        "ट"
      ],
      [
        "सख्",
        "ती"
      ],
      [
        "संपर्",
        "क"
      ],
      [
        "जीवनशै",
        "ली"
      ],
      [
        "बिजने",
        "स"
      ],
      [
        "दोबार",
        "ा"
      ],
      [
        "कैलो",
        "री"
      ],
      [
        "प्राकृ",
        "तिक"
      ],
      [
        "न्यूयॉर्",
        "क"
      ],
      [
        "1",
        "5"
      ],
      [
        "ँ",
        "च"
      ],
      [
        "ं",
        "श"
      ],
      [
        "ं",
        "भी"
      ],
      [
        "ं",
        "टर"
      ],
      [
        "अ",
        "मेर"
      ],
      [
        "अ",
        "ल्"
      ],
      [
        "अ",
        "परि"
      ],
      [
        "अ",
        "राज"
      ],
      [
        "अ",
        "ंदा"
      ],
      [
        "अ",
        "निवार"
      ],
      [
        "आ",
        "ठ"
      ],
      [
        "आ",
        "ंख"
      ],
      [
        "आ",
        "काश"
      ],
      [
        "इ",
        "ले"
      ],
      [
        "उ",
        "ल"
      ],
      [
        "उ",
        "तनी"
      ],
      [
        "उ",
        "तने"
      ],
      [
        "ए",
        "क्"
      ],
      [
        "ऑ",
        "फ"
      ],
      [
        "ऑ",
        "र्"
      ],
      [
        "ऑ",
        "टो"
      ],
      [
        "क",
        "ॉ"
      ],
      [
        "क",
        "क्ष"
      ],
      [
        "क",
        "ूल"
      ],
      [
        "क",
        "ंड"
      ],
      [
        "ख",
        "़"
      ],
      [
        "ख",
        "ड़ा"
      ],
      [
        "ग",
        "ंभी"
      ],
      [
        "घ",
        "ु"
      ],
      [
        "छ",
        "ि"
      ],
      [
        "ज",
        "री"
      ],
      [
        "ज",
        "ंग"
      ],
      [
        "ज",
        "ंक"
      ],
      [
        "झ",
        "े"
      ],
      [
        "ट",
        "करा"
      ],
      [
        "ड",
        "ोम"
      ],
      [
        "ड",
        "ॉल"
      ],
      [
        "त",
        "म"
      ],
      [
        "त",
        "य"
      ],
      [
        "त",
        "ह"
      ],
      [
        "त",
        "भी"
      ],
      [
        "द",
        "ू"
      ],
      [
        "द",
        "वा"
      ],
      [
        "द",
        "ौर"
      ],
      [
        "ध",
        "ु"
      ],
      [
        "न",
        "्य"
      ],
      [
        "न",
        "शे"
      ],
      [
        "न",
        "जर"
      ],
      [
        "प",
        "ृ"
      ],
      [
        "प",
        "ें"
      ],
      [
        "फ",
        "ो"
      ],
      [
        "ब",
        "ज"
      ],
      [
        "ब",
        "ैं"
      ],
      [
        "ब",
        "ड़"
      ],
      [
        "ब",
        "ेंज"
      ],
      [
        "ब",
        "ार्ट"
      ],
      [
        "भ",
        "्य"
      ],
      [
        "भ",
        "टक"
      ],
      [
        "म",
        "ना"
      ],
      [
        "म",
        "जे"
      ],
      [
        "म",
        "ध्य"
      ],
      [
        "य",
        "ल"
      ],
      [
        "य",
        "ी"
      ],
      [
        "र",
        "ै"
      ],
      [
        "र",
        "ित"
      ],
      [
        "र",
        "सायन"
      ],
      [
        "ल",
        "ंद"
      ],
      [
        "व",
        "र्ण"
      ],
      [
        "व",
        "जूद"
      ],
      [
        "व",
        "कू"
      ],
      [
        "श",
        "तर"
      ],
      [
        "श",
        "कों"
      ],
      [
        "स",
        "का"
      ],
      [
        "स",
        "मु"
      ],
      [
        "स",
        "िर"
      ],
      [
        "स",
        "भ्य"
      ],
      [
        "ह",
[...]
