{
  "version": "1.0",
  "truncation": null,
  "padding": null,
  "added_tokens": [
    {
      "id": 0,
      "content": "[UNK]",
      "single_word": false,
      "lstrip": false,
      "rstrip": false,
      "normalized": false,
      "special": true
    },
    {
      "id": 1,
      "content": "[PAD]",
      "single_word": false,
      "lstrip": false,
      "rstrip": false,
      "normalized": false,
      "special": true
    },
    {
      "id": 2,
      "content": "[SOS]",
      "single_word": false,
      "lstrip": false,
      "rstrip": false,
      "normalized": false,
      "special": true
    },
    {
      "id": 3,
      "content": "[EOS]",
      "single_word": false,
      "lstrip": false,
      "rstrip": false,
      "normalized": false,
      "special": true
    }
  ],
  "normalizer": {
    "type": "Sequence",
    "normalizers": [
      {
        "type": "NFKC"
      },
      {
        "type": "Lowercase"
      }
    ]
  },
  "pre_tokenizer": {
    "type": "Whitespace"
  },
  "post_processor": null,
  "decoder": null,
  "model": {
    "type": "BPE",
    "dropout": null,
    "unk_token": "[UNK]",
    "continuing_subword_prefix": null,
    "end_of_word_suffix": null,
    "fuse_unk": false,
    "byte_fallback": false,
    "ignore_merges": false,
    "vocab": {
      "[UNK]": 0,
      "[PAD]": 1,
      "[SOS]": 2,
      "[EOS]": 3,
      "'": 4,
      "-": 5,
      ".": 6,
      "0": 7,
      "1": 8,
      "2": 9,
      "3": 10,
      "4": 11,
      "5": 12,
      "6": 13,
      "7": 14,
      "8": 15,
      "9": 16,
      "[": 17,
      "]": 18,
      "_": 19,
      "a": 20,
      "b": 21,
      "c": 22,
      "d": 23,
      "e": 24,
      "f": 25,
      "g": 26,
      "h": 27,
      "i": 28,
      "j": 29,
      "k": 30,
      "l": 31,
      "m": 32,
      "n": 33,
      "o": 34,
      "p": 35,
      "q": 36,
      "r": 37,
      "s": 38,
      "t": 39,
      "u": 40,
      "v": 41,
      "w": 42,
      "x": 43,
      "y": 44,
      "z": 45,
      "th": 46,
      "in": 47,
      "an": 48,
      "ou": 49,
      "the": 50,
      "at": 51,
      "re": 52,
      "on": 53,
      "and": 54,
      "ing": 55,
      "you": 56,
      "to": 57,
      "it": 58,
      "ve": 59,
      "st": 60,
      "me": 61,
      "al": 62,
      "se": 63,
      "that": 64,
      "or": 65,
      "is": 66,
      "of": 67,
      "be": 68,
      "wh": 69,
      "le": 70,
      "en": 71,
      "as": 72,
      "li": 73,
      "ow": 74,
      "er": 75,
      "ar": 76,
      "ly": 77,
      "ke": 78,
      "so": 79,
      "ha": 80,
      "ch": 81,
      "we": 82,
      "ed": 83,
      "ay": 84,
      "es": 85,
      "go": 86,
      "ti": 87,
      "my": 88,
      "now": 89,
      "ver": 90,
      "like": 91,
      "this": 92,
      "ca": 93,
      "was": 94,
      "thing": 95,
      "id": 96,
      "fe": 97,
      "ac": 98,
      "ll": 99,
      "for": 100,
      "ro": 101,
      "do": 102,
      "ut": 103,
      "know": 104,
      "out": 105,
      "pe": 106,
      "ab": 107,
      "ally": 108,
      "wi": 109,
      "ge": 110,
      "ion": 111,
      "gh": 112,
      "ri": 113,
      "one": 114,
      "co": 115,
      "ld": 116,
      "lo": 117,
      "no": 118,
      "mo": 119,
      "ple": 120,
      "your": 121,
      "use": 122,
      "ic": 123,
      "if": 124,
      "what": 125,
      "thin": 126,
      "ne": 127,
      "have": 128,
      "they": 129,
      "think": 130,
      "he": 131,
      "all": 132,
      "ust": 133,
      "de": 134,
      "some": 135,
      "but": 136,
      "un": 137,
      "po": 138,
      "beca": 139,
      "su": 140,
      "with": 141,
      "ght": 142,
      "just": 143,
      "because": 144,
      "ir": 145,
      "nt": 146,
      "ma": 147,
      "ant": 148,
      "sel": 149,
      "ye": 150,
      "um": 151,
      "are": 152,
      "ople": 153,
      "people": 154,
      "wor": 155,
      "self": 156,
      "ad": 157,
      "about": 158,
      "con": 159,
      "very": 160,
      "not": 161,
      "there": 162,
      "when": 163,
      "ra": 164,
      "ould": 165,
      "ort": 166,
      "ce": 167,
      "time": 168,
      "per": 169,
      "can": 170,
      "ex": 171,
      "way": 172,
      "sa": 173,
      "ind": 174,
      "im": 175,
      "ci": 176,
      "us": 177,
      "art": 178,
      "el": 179,
      "king": 180,
      "ul": 181,
      "ation": 182,
      "how": 183,
      "qu": 184,
      "whe": 185,
      "our": 186,
      "com": 187,
      "od": 188,
      "ess": 189,
      "want": 190,
      "ter": 191,
      "bit": 192,
      "te": 193,
      "don": 194,
      "tr": 195,
      "get": 196,
      "life": 197,
      "pp": 198,
      "ive": 199,
      "really": 200,
      "ther": 201,
      "going": 202,
      "things": 203,
      "had": 204,
      "say": 205,
      "ate": 206,
      "act": 207,
      "where": 208,
      "whi": 209,
      "then": 210,
      "ment": 211,
      "did": 212,
      "ah": 213,
      "pro": 214,
      "ss": 215,
      "up": 216,
      "di": 217,
      "yeah": 218,
      "am": 219,
      "ack": 220,
      "which": 221,
      "ur": 222,
      "more": 223,
      "fo": 224,
      "sort": 225,
      "nd": 226,
      "sh": 227,
      "any": 228,
      "every": 229,
      "who": 230,
      "ok": 231,
      "end": 232,
      "them": 233,
      "got": 234,
      "eve": 235,
      "rom": 236,
      "tion": 237,
      "feel": 238,
      "come": 239,
      "from": 240,
      "ta": 241,
      "would": 242,
      "make": 243,
      "ent": 244,
      "day": 245,
      "pl": 246,
      "their": 247,
      "start": 248,
      "own": 249,
      "ine": 250,
      "est": 251,
      "pre": 252,
      "stu": 253,
      "year": 254,
      "back": 255,
      "why": 256,
      "int": 257,
      "ct": 258,
      "der": 259,
      "ving": 260,
      "chan": 261,
      "right": 262,
      "something": 263,
      "ig": 264,
      "habit": 265,
      "ga": 266,
      "ound": 267,
      "ually": 268,
      "myself": 269,
      "ight": 270,
      "il": 271,
      "over": 272,
      "other": 273,
      "ard": 274,
      "happ": 275,
      "ose": 276,
      "ough": 277,
      "being": 278,
      "lot": 279,
      "ep": 280,
      "ful": 281,
      "ite": 282,
      "kind": 283,
      "bo": 284,
      "ous": 285,
      "were": 286,
      "ways": 287,
      "cho": 288,
      "will": 289,
      "ast": 290,
      "doing": 291,
      "work": 292,
      "son": 293,
      "those": 294,
      "see": 295,
      "itt": 296,
      "able": 297,
      "most": 298,
      "new": 299,
      "try": 300,
      "didn": 301,
      "into": 302,
      "mu": 303,
      "ever": 304,
      "mean": 305,
      "good": 306,
      "yourself": 307,
      "cre": 308,
      "ff": 309,
      "ill": 310,
      "ide": 311,
      "same": 312,
      "gu": 313,
      "actually": 314,
      "ho": 315,
      "much": 316,
      "ked": 317,
      "person": 318,
      "vi": 319,
      "always": 320,
      "quest": 321,
      "red": 322,
      "ity": 323,
      "ber": 324,
      "well": 325,
      "imp": 326,
      "cast": 327,
      "question": 328,
      "ach": 329,
      "et": 330,
      "been": 331,
      "give": 332,
      "ong": 333,
      "ves": 334,
      "point": 335,
      "said": 336,
      "lu": 337,
      "rain": 338,
      "cont": 339,
      "fri": 340,
      "ence": 341,
      "sto": 342,
      "tal": 343,
      "by": 344,
      "dcast": 345,
      "gre": 346,
      "iz": 347,
      "real": 348,
      "podcast": 349,
      "sp": 350,
      "stuff": 351,
      "dif": 352,
      "ure": 353,
      "prob": 354,
      "gr": 355,
      "ob": 356,
      "ting": 357,
      "need": 358,
      "fore": 359,
      "years": 360,
      "someone": 361,
      "friend": 362,
      "cess": 363,
      "ps": 364,
      "under": 365,
      "big": 366,
      "has": 367,
      "ru": 368,
      "thr": 369,
      "also": 370,
      "soci": 371,
      "change": 372,
      "na": 373,
      "ck": 374,
      "spe": 375,
      "off": 376,
      "ated": 377,
      "ice": 378,
      "down": 379,
      "fir": 380,
      "lear": 381,
      "even": 382,
      "put": 383,
      "stand": 384,
      "ably": 385,
      "ry": 386,
      "val": 387,
      "wr": 388,
      "does": 389,
      "could": 390,
      "fa": 391,
      "world": 392,
      "than": 393,
      "iness": 394,
      "these": 395,
      "rent": 396,
      "alth": 397,
      "sed": 398,
      "never": 399,
      "bus": 400,
      "wo": 401,
      "op": 402,
      "ought": 403,
      "diffe": 404,
      "through": 405,
      "first": 406,
      "brain": 407,
      "started": 408,
      "part": 409,
      "less": 410,
      "list": 411,
      "tell": 412,
      "last": 413,
      "litt": 414,
      "thought": 415,
      "ary": 416,
      "little": 417,
      "gy": 418,
      "hone": 419,
      "ue": 420,
      "ans": 421,
      "times": 422,
      "happen": 423,
      "different": 424,
      "ol": 425,
      "ten": 426,
      "love": 427,
      "probably": 428,
      "understand": 429,
      "ek": 430,
      "ating": 431,
      "led": 432,
      "ason": 433,
      "form": 434,
      "dec": 435,
      "saying": 436,
      "gain": 437,
      "social": 438,
      "ak": 439,
      "br": 440,
      "gen": 441,
      "mar": 442,
      "ins": 443,
      "read": 444,
      "ish": 445,
      "week": 446,
      "age": 447,
      "ies": 448,
      "before": 449,
      "health": 450,
      "take": 451,
      "listen": 452,
      "again": 453,
      "mind": 454,
      "many": 455,
      "ask": 456,
      "peri": 457,
      "sit": 458,
      "reason": 459,
      "still": 460,
      "everything": 461,
      "ist": 462,
      "pa": 463,
      "trying": 464,
      "tic": 465,
      "ace": 466,
      "thinking": 467,
      "should": 468,
      "fin": 469,
      "ms": 470,
      "might": 471,
      "ass": 472,
      "ers": 473,
      "goal": 474,
      "made": 475,
      "book": 476,
      "long": 477,
      "may": 478,
      "sci": 479,
      "ty": 480,
      "let": 481,
      "hel": 482,
      "suc": 483,
      "habits": 484,
      "em": 485,
      "his": 486,
      "old": 487,
      "two": 488,
      "import": 489,
      "business": 490,
      "car": 491,
      "ward": 492,
      "wasn": 493,
      "fort": 494,
      "honest": 495,
      "success": 496,
      "rel": 497,
      "become": 498,
      "vers": 499,
      "ically": 500,
      "bu": 501,
      "gg": 502,
      "jo": 503,
      "uh": 504,
      "reme": 505,
      "look": 506,
      "working": 507,
      "maybe": 508,
      "important": 509,
      "bod": 510,
      "ning": 511,
      "sha": 512,
      "around": 513,
      "comple": 514,
      "cal": 515,
      "gon": 516,
      "mon": 517,
      "par": 518,
      "pri": 519,
      "sim": 520,
      "show": 521,
      "bet": 522,
      "tiv": 523,
      "moment": 524,
      "nex": 525,
      "here": 526,
      "mone": 527,
      "experi": 528,
      "quite": 529,
      "wanted": 530,
      "feeling": 531,
      "friends": 532,
      "gonna": 533,
      "20": 534,
      "ble": 535,
      "dis": 536,
      "mber": 537,
      "wat": 538,
      "went": 539,
      "ser": 540,
      "used": 541,
      "help": 542,
      "money": 543,
      "mis": 544,
      "loo": 545,
      "ical": 546,
      "else": 547,
      "complete": 548,
      "av": 549,
      "pr": 550,
      "she": 551,
      "inst": 552,
      "ision": 553,
      "live": 554,
      "learn": 555,
      "body": 556,
      "af": 557,
      "getting": 558,
      "next": 559,
      "find": 560,
      "min": 561,
      "sm": 562,
      "having": 563,
      "whatever": 564,
      "shi": 565,
      "realiz": 566,
      "decision": 567,
      "10": 568,
      "ph": 569,
      "ance": 570,
      "sen": 571,
      "ses": 572,
      "best": 573,
      "motiv": 574,
      "ick": 575,
      "exact": 576,
      "man": 577,
      "ness": 578,
      "pow": 579,
      "sc": 580,
      "add": 581,
      "comp": 582,
      "ously": 583,
      "ety": 584,
      "eas": 585,
      "found": 586,
      "hum": 587,
      "ie": 588,
      "yes": 589,
      "too": 590,
      "mer": 591,
      "beli": 592,
      "tive": 593,
      "urn": 594,
      "cou": 595,
      "cha": 596,
      "kid": 597,
      "inter": 598,
      "vel": 599,
      "set": 600,
      "isn": 601,
      "enti": 602,
      "sure": 603,
      "without": 604,
      "whole": 605,
      "bre": 606,
      "cl": 607,
      "cour": 608,
      "lt": 609,
      "rat": 610,
      "si": 611,
      "side": 612,
      "tri": 613,
      "stre": 614,
      "til": 615,
      "care": 616,
      "log": 617,
      "del": 618,
      "until": 619,
      "post": 620,
      "pose": 621,
      "maz": 622,
      "happy": 623,
      "brand": 624,
      "remember": 625,
      "mat": 626,
      "ner": 627,
      "oh": 628,
      "pt": 629,
      "won": 630,
      "beha": 631,
      "lives": 632,
      "tions": 633,
      "makes": 634,
      "place": 635,
      "meaning": 636,
      "vior": 637,
      "behavior": 638,
      "bad": 639,
      "clo": 640,
      "him": 641,
      "hard": 642,
      "ily": 643,
      "ycho": 644,
      "incre": 645,
      "ative": 646,
      "ition": 647,
      "med": 648,
      "fect": 649,
      "cond": 650,
      "food": 651,
      "tain": 652,
      "contro": 653,
      "psycho": 654,
      "simple": 655,
      "des": 656,
      "ger": 657,
      "hi": 658,
      "om": 659,
      "sk": 660,
      "scho": 661,
      "anx": 662,
      "stru": 663,
      "often": 664,
      "making": 665,
      "whether": 666,
      "term": 667,
      "trins": 668,
      "ately": 669,
      "everyone": 670,
      "days": 671,
      "pret": 672,
      "guy": 673,
      "talk": 674,
      "great": 675,
      "doesn": 676,
      "miss": 677,
      "power": 678,
      "school": 679,
      "cer": 680,
      "tu": 681,
      "youtu": 682,
      "arch": 683,
      "ute": 684,
      "sometimes": 685,
      "sub": 686,
      "conf": 687,
      "ular": 688,
      "diary": 689,
      "okay": 690,
      "speak": 691,
      "completely": 692,
      "after": 693,
      "course": 694,
      "anxi": 695,
      "ag": 696,
      "done": 697,
      "tra": 698,
      "turn": 699,
      "wa": 700,
      "reward": 701,
      "search": 702,
      "came": 703,
      "such": 704,
      "selves": 705,
      "exam": 706,
      "mental": 707,
      "talking": 708,
      "gym": 709,
      "joy": 710,
      "watch": 711,
      "believe": 712,
      "ces": 713,
      "ctive": 714,
      "pu": 715,
      "pur": 716,
      "run": 717,
      "sy": 718,
      "sle": 719,
      "men": 720,
      "seen": 721,
      "erally": 722,
      "cially": 723,
      "ign": 724,
      "guess": 725,
      "value": 726,
      "control": 727,
      "strugg": 728,
      "cor": 729,
      "dy": 730,
      "fam": 731,
      "job": 732,
      "sat": 733,
      "top": 734,
      "toge": 735,
      "ved": 736,
      "level": 737,
      "enough": 738,
      "ult": 739,
      "pport": 740,
      "thank": 741,
      "better": 742,
      "sense": 743,
      "together": 744,
      "aking": 745,
      "cra": 746,
      "cus": 747,
      "ild": 748,
      "low": 749,
      "line": 750,
      "vice": 751,
      "research": 752,
      "mes": 753,
      "les": 754,
      "solu": 755,
      "espe": 756,
      "coming": 757,
      "comfort": 758,
      "play": 759,
      "press": 760,
      "spon": 761,
      "month": 762,
      "motivation": 763,
      "high": 764,
      "especially": 765,
      "app": 766,
      "ef": 767,
      "fre": 768,
      "ire": 769,
      "jour": 770,
      "mit": 771,
      "mil": 772,
      "wal": 773,
      "wer": 774,
      "another": 775,
      "only": 776,
      "step": 777,
      "medi": 778,
      "lect": 779,
      "col": 780,
      "und": 781,
      "convers": 782,
      "pped": 783,
      "pretty": 784,
      "anxiety": 785,
      "conversation": 786,
      "au": 787,
      "ged": 788,
      "her": 789,
      "hour": 790,
      "lit": 791,
      "oid": 792,
      "inform": 793,
      "resolu": 794,
      "tor": 795,
      "stri": 796,
      "almost": 797,
      "second": 798,
      "nothing": 799,
      "head": 800,
      "allow": 801,
      "worth": 802,
      "ationshi": 803,
      "goals": 804,
      "successful": 805,
      "relationshi": 806,
      "youtube": 807,
      "information": 808,
      "cy": 809,
      "call": 810,
      "cur": 811,
      "dou": 812,
      "ear": 813,
      "fit": 814,
      "num": 815,
      "sol": 816,
      "weight": 817,
      "llow": 818,
      "follow": 819,
      "anything": 820,
      "comes": 821,
      "valu": 822,
      "science": 823,
      "exactly": 824,
      "trinsic": 825,
      "confid": 826,
      "example": 827,
      "sleep": 828,
      "bly": 829,
      "ced": 830,
      "cent": 831,
      "clear": 832,
      "each": 833,
      "fr": 834,
      "fut": 835,
      "fact": 836,
      "ieve": 837,
      "mus": 838,
      "smo": 839,
      "uine": 840,
      "respon": 841,
      "ities": 842,
      "alle": 843,
      "lea": 844,
      "lion": 845,
      "light": 846,
      "pet": 847,
      "ney": 848,
      "sur": 849,
      "advice": 850,
      "ext": 851,
      "quick": 852,
      "ments": 853,
      "study": 854,
      "personal": 855,
      "achieve": 856,
      "stop": 857,
      "genuine": 858,
      "ticular": 859,
      "particular": 860,
      "looking": 861,
      "psycholog": 862,
      "journey": 863,
      "number": 864,
      "future": 865,
      "ain": 866,
      "cu": 867,
      "ction": 868,
      "eat": 869,
      "eating": 870,
      "ft": 871,
      "fic": 872,
      "ier": 873,
      "mi": 874,
      "told": 875,
      "asked": 876,
      "living": 877,
      "keep": 878,
      "model": 879,
      "defin": 880,
      "team": 881,
      "epis": 882,
      "hold": 883,
      "wrong": 884,
      "happened": 885,
      "avoid": 886,
      "addic": 887,
      "easy": 888,
      "six": 889,
      "incredi": 890,
      "genuinely": 891,
      "cen": 892,
      "five": 893,
      "hu": 894,
      "hou": 895,
      "ng": 896,
      "ran": 897,
      "sing": 898,
      "vir": 899,
      "today": 900,
      "iting": 901,
      "action": 902,
      "saw": 903,
      "focus": 904,
      "obvi": 905,
      "listening": 906,
      "experience": 907,
      "certain": 908,
      "literally": 909,
      "ap": 910,
      "amaz": 911,
      "ban": 912,
      "dri": 913,
      "fas": 914,
      "hand": 915,
      "night": 916,
      "ot": 917,
      "ater": 918,
      "ven": 919,
      "order": 920,
      "left": 921,
      "wear": 922,
      "felt": 923,
      "poss": 924,
      "sum": 925,
      "ird": 926,
      "mag": 927,
      "exc": 928,
      "impost": 929,
      "hope": 930,
      "impact": 931,
      "story": 932,
      "healthy": 933,
      "buy": 934,
      "couple": 935,
      "skill": 936,
      "months": 937,
      "media": 938,
      "house": 939,
      "possi": 940,
      "imposter": 941,
      "ago": 942,
      "bl": 943,
      "bas": 944,
      "du": 945,
      "dra": 946,
      "gi": 947,
      "nat": 948,
      "usu": 949,
      "uation": 950,
      "thre": 951,
      "ref": 952,
      "its": 953,
      "sent": 954,
      "che": 955,
      "few": 956,
      "gest": 957,
      "rap": 958,
      "ulti": 959,
      "ations": 960,
      "diet": 961,
      "wouldn": 962,
      "itten": 963,
      "gree": 964,
      "proble": 965,
      "obser": 966,
      "written": 967,
      "oppo": 968,
      "answer": 969,
      "situation": 970,
      "called": 971,
      "looked": 972,
      "career": 973,
      "matter": 974,
      "purpose": 975,
      "amazing": 976,
      "ase": 977,
      "bt": 978,
      "fy": 979,
      "har": 980,
      "rout": 981,
      "sal": 982,
      "spo": 983,
      "vide": 984,
      "ines": 985,
      "enjoy": 986,
      "case": 987,
      "room": 988,
      "ific": 989,
      "posit": 990,
      "true": 991,
      "while": 992,
      "studi": 993,
      "home": 994,
      "marri": 995,
      "fortun": 996,
      "moments": 997,
      "small": 998,
      "realize": 999,
      "scri": 1000,
      "human": 1001,
      "stress": 1002,
      "family": 1003,
      "music": 1004,
      "usually": 1005,
      "three": 1006,
      "video": 1007,
      "00": 1008,
      "bro": 1009,
      "fu": 1010,
      "fine": 1011,
      "ial": 1012,
      "ken": 1013,
      "ling": 1014,
      "opport": 1015,
      "ton": 1016,
      "ted": 1017,
      "table": 1018,
      "vor": 1019,
      "ates": 1020,
      "rest": 1021,
      "once": 1022,
      "took": 1023,
      "bed": 1024,
      "lic": 1025,
      "rome": 1026,
      "within": 1027,
      "move": 1028,
      "neg": 1029,
      "perfect": 1030,
      "using": 1031,
      "dire": 1032,
      "ndrome": 1033,
      "themselves": 1034,
      "plan": 1035,
      "chocol": 1036,
      "vie": 1037,
      "luck": 1038,
      "favor": 1039,
      "telling": 1040,
      "ready": 1041,
      "calm": 1042,
      "learned": 1043,
      "kids": 1044,
      "syndrome": 1045,
      "huge": 1046,
      "opportun": 1047,
      "chocolate": 1048,
      "aw": 1049,
      "air": 1050,
      "away": 1051,
      "cle": 1052,
      "ev": 1053,
      "fi": 1054,
      "hate": 1055,
      "imag": 1056,
      "lack": 1057,
      "later": 1058,
      "nge": 1059,
      "ode": 1060,
      "sound": 1061,
      "sign": 1062,
      "ts": 1063,
      "ys": 1064,
      "therap": 1065,
      "online": 1066,
      "ween": 1067,
      "lling": 1068,
      "sug": 1069,
      "sup": 1070,
      "gets": 1071,
      "produ": 1072,
      "short": 1073,
      "ility": 1074,
      "fully": 1075,
      "idea": 1076,
      "ize": 1077,
      "needed": 1078,
      "weeks": 1079,
      "shouldn": 1080,
      "assion": 1081,
      "honestly": 1082,
      "between": 1083,
      "chain": 1084,
      "million": 1085,
      "doubt": 1086,
      "psychological": 1087,
      "episode": 1088,
      "studies": 1089,
      "18": 1090,
      "ased": 1091,
      "fall": 1092,
      "gone": 1093,
      "hit": 1094,
      "mor": 1095,
      "pand": 1096,
      "pare": 1097,
      "resu": 1098,
      "ont": 1099,
      "velo": 1100,
      "steve": 1101,
      "ars": 1102,
      "ching": 1103,
      "challe": 1104,
      "pect": 1105,
      "absol": 1106,
      "haven": 1107,
      "develo": 1108,
      "super": 1109,
      "consci": 1110,
      "cial": 1111,
      "tru": 1112,
      "says": 1113,
      "event": 1114,
      "taking": 1115,
      "changed": 1116,
      "game": 1117,
      "willpower": 1118,
      "lue": 1119,
      "spend": 1120,
      "grou": 1121,
      "bigger": 1122,
      "speaking": 1123,
      "valid": 1124,
      "write": 1125,
      "fail": 1126,
      "marke": 1127,
      "humans": 1128,
      "break": 1129,
      "maze": 1130,
      "mission": 1131,
      "running": 1132,
      "craz": 1133,
      "smoking": 1134,
      "range": 1135,
      "ultim": 1136,
      "problem": 1137,
      "routine": 1138,
      "full": 1139,
      "absolute": 1140,
      "develop": 1141,
      "ath": 1142,
      "cr": 1143,
      "ges": 1144,
      "hind": 1145,
      "hund": 1146,
      "je": 1147,
      "knew": 1148,
      "simp": 1149,
      "vo": 1150,
      "vin": 1151,
      "wit": 1152,
      "inse": 1153,
      "intrinsic": 1154,
      "ount": 1155,
      "meant": 1156,
      "meet": 1157,
      "issu": 1158,
      "lead": 1159,
      "child": 1160,
      "weird": 1161,
      "acro": 1162,
      "rich": 1163,
      "lock": 1164,
      "loop": 1165,
      "near": 1166,
      "depress": 1167,
      "sume": 1168,
      "irl": 1169,
      "therefore": 1170,
      "rast": 1171,
      "ceo": 1172,
      "cept": 1173,
      "comm": 1174,
      "terms": 1175,
      "process": 1176,
      "chance": 1177,
      "means": 1178,
      "create": 1179,
      "gives": 1180,
      "contin": 1181,
      "contrast": 1182,
      "talked": 1183,
      "grow": 1184,
      "partner": 1185,
      "thoughts": 1186,
      "gener": 1187,
      "ished": 1188,
      "emic": 1189,
      "prior": 1190,
      "rats": 1191,
      "walk": 1192,
      "resolution": 1193,
      "relationships": 1194,
      "addiction": 1195,
      "incredibly": 1196,
      "obviously": 1197,
      "skills": 1198,
      "basically": 1199,
      "natur": 1200,
      "negative": 1201,
      "suppose": 1202,
      "pandemic": 1203,
      "ultimately": 1204,
      "hundred": 1205,
      "19": 1206,
      "bal": 1207,
      "blue": 1208,
      "fun": 1209,
      "ging": 1210,
      "girl": 1211,
      "mp": 1212,
      "mal": 1213,
      "ny": 1214,
      "nut": 1215,
      "nine": 1216,
      "nice": 1217,
      "pay": 1218,
      "sid": 1219,
      "site": 1220,
      "tre": 1221,
      "ught": 1222,
      "inci": 1223,
      "oud": 1224,
      "young": 1225,
      "str": 1226,
      "stay": 1227,
      "already": 1228,
      "behind": 1229,
      "least": 1230,
      "erci": 1231,
      "ari": 1232,
      "outside": 1233,
      "core": 1234,
      "deep": 1235,
      "uni": 1236,
      "unch": 1237,
      "became": 1238,
      "antly": 1239,
      "word": 1240,
      "ram": 1241,
      "exerci": 1242,
      "ourselves": 1243,
      "atest": 1244,
      "gave": 1245,
      "happiness": 1246,
      "both": 1247,
      "seems": 1248,
      "itting": 1249,
      "creative": 1250,
      "context": 1251,
      "diffic": 1252,
      "couldn": 1253,
      "fair": 1254,
      "happens": 1255,
      "reasons": 1256,
      "scienti": 1257,
      "water": 1258,
      "princi": 1259,
      "smart": 1260,
      "company": 1261,
      "meaningful": 1262,
      "subscri": 1263,
      "cord": 1264,
      "topic": 1265,
      "values": 1266,
      "front": 1267,
      "single": 1268,
      "positive": 1269,
      "marriage": 1270,
      "imagine": 1271,
      "result": 1272,
      "crazy": 1273,
      "absolutely": 1274,
      "across": 1275,
      "exercise": 1276,
      "difficult": 1277,
      "principle": 1278,
      "12": 1279,
      "30": 1280,
      "bunch": 1281,
      "cin": 1282,
      "cure": 1283,
      "fl": 1284,
      "far": 1285,
      "fil": 1286,
      "lar": 1287,
      "must": 1288,
      "nal": 1289,
      "past": 1290,
      "ring": 1291,
      "ris": 1292,
      "rid": 1293,
      "vol": 1294,
      "inion": 1295,
      "anal": 1296,
      "ster": 1297,
      "alone": 1298,
      "secre": 1299,
      "enga": 1300,
      "envir": 1301,
      "asking": 1302,
      "ched": 1303,
      "fear": 1304,
      "role": 1305,
      "ries": 1306,
      "lose": 1307,
      "moving": 1308,
      "heard": 1309,
      "worry": 1310,
      "consid": 1311,
      "percent": 1312,
      "expl": 1313,
      "uring": 1314,
      "inten": 1315,
      "itely": 1316,
      "guest": 1317,
      "greatest": 1318,
      "grat": 1319,
      "office": 1320,
      "opinion": 1321,
      "lesson": 1322,
      "understanding": 1323,
      "bring": 1324,
      "period": 1325,
      "books": 1326,
      "wards": 1327,
      "build": 1328,
      "shake": 1329,
      "shape": 1330,
      "instag": 1331,
      "realized": 1332,
      "decisions": 1333,
      "count": 1334,
      "wonder": 1335,
      "guys": 1336,
      "watching": 1337,
      "tors": 1338,
      "confident": 1339,
      "models": 1340,
      "definitely": 1341,
      "center": 1342,
      "summer": 1343,
      "reflect": 1344,
      "view": 1345,
      "favorite": 1346,
      "therapist": 1347,
      "lockdown": 1348,
      "secret": 1349,
      "environ": 1350,
      "consider": 1351,
      "50": 1352,
      "__": 1353,
      "clu": 1354,
      "dr": 1355,
      "ele": 1356,
      "emo": 1357,
      "ema": 1358,
      "ead": 1359,
      "four": 1360,
      "gle": 1361,
      "hal": 1362,
      "nor": 1363,
      "os": 1364,
      "rition": 1365,
      "ssed": 1366,
      "score": 1367,
      "zz": 1368,
      "ones": 1369,
      "met": 1370,
      "als": 1371,
      "orn": 1372,
      "ising": 1373,
      "ener": 1374,
      "god": 1375,
      "fective": 1376,
      "dog": 1377,
      "utes": 1378,
      "knowing": 1379,
      "ried": 1380,
      "logy": 1381,
      "nobody": 1382,
      "deli": 1383,
      "somewhere": 1384,
      "support": 1385,
      "yet": 1386,
      "conne": 1387,
      "compl": 1388,
      "teach": 1389,
      "prove": 1390,
      "sho": 1391,
      "overcome": 1392,
      "bers": 1393,
      "questions": 1394,
      "spent": 1395,
      "rule": 1396,
      "writing": 1397,
      "throughout": 1398,
      "reading": 1399,
      "finan": 1400,
      "experiment": 1401,
      "feelings": 1402,
      "discomfort": 1403,
      "helped": 1404,
      "easier": 1405,
      "breaking": 1406,
      "tried": 1407,
      "delay": 1408,
      "wait": 1409,
      "struggling": 1410,
      "effective": 1411,
      "resolutions": 1412,
      "relationship": 1413,
      "confidence": 1414,
      "quickly": 1415,
      "fascin": 1416,
      "possible": 1417,
      "opposite": 1418,
      "sales": 1419,
      "ification": 1420,
      "challenge": 1421,
      "eventually": 1422,
      "group": 1423,
      "issues": 1424,
      "depression": 1425,
      "nutrition": 1426,
      "principles": 1427,
      "instagram": 1428,
      "half": 1429,
      "ame": 1430,
      "aire": 1431,
      "agree": 1432,
      "bi": 1433,
      "bing": 1434,
      "blic": 1435,
      "based": 1436,
      "cri": 1437,
      "dic": 1438,
      "during": 1439,
      "fur": 1440,
      "fast": 1441,
      "pat": 1442,
      "pic": 1443,
      "phone": 1444,
      "row": 1445,
      "sor": 1446,
      "tend": 1447,
      "uro": 1448,
      "wro": 1449,
      "thous": 1450,
      "reg": 1451,
      "ren": 1452,
      "reach": 1453,
      "sty": 1454,
      "stin": 1455,
      "stra": 1456,
      "stage": 1457,
      "rog": 1458,
      "ric": 1459,
      "cook": 1460,
      "moved": 1461,
      "please": 1462,
      "main": 1463,
      "ump": 1464,
      "aren": 1465,
      "worst": 1466,
      "adult": 1467,
      "extrinsic": 1468,
      "expect": 1469,
      "cig": 1470,
      "quit": 1471,
      "commit": 1472,
      "tech": 1473,
      "track": 1474,
      "prote": 1475,
      "promi": 1476,
      "amount": 1477,
      "plac": 1478,
      "starting": 1479,
      "predic": 1480,
      "ilar": 1481,
      "achie": 1482,
      "biggest": 1483,
      "society": 1484,
      "ols": 1485,
      "loved": 1486,
      "path": 1487,
      "finally": 1488,
      "cars": 1489,
      "versity": 1490,
      "similar": 1491,
      "experien": 1492,
      "instead": 1493,
      "lived": 1494,
      "minutes": 1495,
      "phys": 1496,
      "motivated": 1497,
      "compassion": 1498,
      "entire": 1499,
      "clus": 1500,
      "class": 1501,
      "clock": 1502,
      "public": 1503,
      "pursu": 1504,
      "appro": 1505,
      "steph": 1506,
      "hours": 1507,
      "clearly": 1508,
      "leave": 1509,
      "cues": 1510,
      "giving": 1511,
      "lucky": 1512,
      "opportunity": 1513,
      "sugar": 1514,
      "parent": 1515,
      "conscious": 1516,
      "male": 1517,
      "treat": 1518,
      "risk": 1519,
      "environment": 1520,
      "email": 1521,
      "energy": 1522,
      "further": 1523,
      "wrote": 1524,
      "thousand": 1525,
      "achieving": 1526,
      "bon": 1527,
      "bar": 1528,
      "cat": 1529,
      "ctions": 1530,
      "dro": 1531,
      "dad": 1532,
      "fund": 1533,
      "gra": 1534,
      "hion": 1535,
      "hun": 1536,
      "jun": 1537,
      "mid": 1538,
      "ote": 1539,
      "pon": 1540,
      "pie": 1541,
      "sn": 1542,
      "swe": 1543,
      "sist": 1544,
      "tally": 1545,
      "train": 1546,
      "vation": 1547,
      "inte": 1548,
      "invol": 1549,
      "ress": 1550,
      "recent": 1551,
      "totally": 1552,
      "itive": 1553,
      "sts": 1554,
      "star": 1555,
      "stair": 1556,
      "sess": 1557,
      "seven": 1558,
      "white": 1559,
      "lying": 1560,
      "weak": 1561,
      "cap": 1562,
      "accept": 1563,
      "accompl": 1564,
      "known": 1565,
      "coll": 1566,
      "lost": 1567,
      "load": 1568,
      "ices": 1569,
      "net": 1570,
      "neuro": 1571,
      "hear": 1572,
      "worked": 1573,
      "convin": 1574,
      "perspe": 1575,
      "quote": 1576,
      "comments": 1577,
      "feels": 1578,
      "cts": 1579,
      "board": 1580,
      "itted": 1581,
      "stood": 1582,
      "ized": 1583,
      "space": 1584,
      "name": 1585,
      "busines": 1586,
      "women": 1587,
      "gency": 1588,
      "march": 1589,
      "weekend": 1590,
      "takes": 1591,
      "minute": 1592,
      "scen": 1593,
      "brands": 1594,
      "psychology": 1595,
      "descri": 1596,
      "turns": 1597,
      "rewards": 1598,
      "corner": 1599,
      "researchers": 1600,
      "messa": 1601,
      "comfortable": 1602,
      "effect": 1603,
      "valuable": 1604,
      "response": 1605,
      "fashion": 1606,
      "draw": 1607,
      "fortunate": 1608,
      "fortunately": 1609,
      "broken": 1610,
      "aware": 1611,
      "truth": 1612,
      "market": 1613,
      "crit": 1614,
      "continually": 1615,
      "university": 1616,
      "fairly": 1617,
      "flav": 1618,
      "gratification": 1619,
      "drin": 1620,
      "parents": 1621,
      "recently": 1622,
      "stairs": 1623,
      "businesses": 1624,
      "bur": 1625,
      "bound": 1626,
      "born": 1627,
      "da": 1628,
      "dar": 1629,
      "ded": 1630,
      "eyes": 1631,
      "fac": 1632,
      "gl": 1633,
      "gn": 1634,
      "hed": 1635,
      "ilo": 1636,
      "ks": 1637,
      "lon": 1638,
      "lli": 1639,
      "ogy": 1640,
      "pen": 1641,
      "sof": 1642,
      "ssure": 1643,
      "vit": 1644,
      "though": 1645,
      "anti": 1646,
      "ature": 1647,
      "reli": 1648,
      "repe": 1649,
      "respe": 1650,
      "andy": 1651,
      "ste": 1652,
      "sted": 1653,
      "asing": 1654,
      "key": 1655,
      "char": 1656,
      "goes": 1657,
      "fered": 1658,
      "outcome": 1659,
      "abor": 1660,
      "ability": 1661,
      "cogn": 1662,
      "notic": 1663,
      "dep": 1664,
      "degree": 1665,
      "button": 1666,
      "consume": 1667,
      "whenever": 1668,
      "ceive": 1669,
      "safe": 1670,
      "indust": 1671,
      "que": 1672,
      "trust": 1673,
      "pping": 1674,
      "hadn": 1675,
      "taught": 1676,
      "ently": 1677,
      "pressure": 1678,
      "cted": 1679,
      "choose": 1680,
      "choice": 1681,
      "works": 1682,
      "seem": 1683,
      "seeing": 1684,
      "news": 1685,
      "hood": 1686,
      "given": 1687,
      "contri": 1688,
      "stopped": 1689,
      "gress": 1690,
      "friendshi": 1691,
      "offer": 1692,
      "putting": 1693,
      "differently": 1694,
      "decide": 1695,
      "generally": 1696,
      "inside": 1697,
      "emp": 1698,
      "becomes": 1699,
      "bution": 1700,
      "share": 1701,
      "shows": 1702,
      "serve": 1703,
      "avid": 1704,
      "prac": 1705,
      "interrog": 1706,
      "trigg": 1707,
      "close": 1708,
      "medit": 1709,
      "trinsically": 1710,
      "struggle": 1711,
      "levels": 1712,
      "freel": 1713,
      "cycle": 1714,
      "achieved": 1715,
      "particularly": 1716,
      "definition": 1717,
      "avoiding": 1718,
      "incredible": 1719,
      "driving": 1720,
      "hopefully": 1721,
      "possibly": 1722,
      "opposed": 1723,
      "000": 1724,
      "failure": 1725,
      "insecur": 1726,
      "generation": 1727,
      "naturally": 1728,
      "funny": 1729,
      "cording": 1730,
      "analogy": 1731,
      "engage": 1732,
      "explain": 1733,
      "element": 1734,
      "financial": 1735,
      "binge": 1736,
      "straight": 1737,
      "protein": 1738,
      "funda": 1739,
      "collabor": 1740,
      "flavor": 1741,
      "dark": 1742,
      "noticed": 1743,
      "16": 1744,
      "bul": 1745,
      "cut": 1746,
      "cked": 1747,
      "den": 1748,
      "david": 1749,
      "ered": 1750,
      "fra": 1751,
      "flu": 1752,
      "fish": 1753,
      "face": 1754,
      "fire": 1755,
      "hor": 1756,
      "hated": 1757,
      "iv": 1758,
      "ju": 1759,
      "kshake": 1760,
      "lin": 1761,
      "mic": 1762,
      "mine": 1763,
      "mallow": 1764,
      "nally": 1765,
      "oc": 1766,
      "ogle": 1767,
      "pup": 1768,
      "pack": 1769,
      "pass": 1770,
      "sin": 1771,
      "sust": 1772,
      "slight": 1773,
      "swit": 1774,
      "tt": 1775,
      "tv": 1776,
      "tou": 1777,
      "treme": 1778,
      "win": 1779,
      "wish": 1780,
      "inve": 1781,
      "ana": 1782,
      "anies": 1783,
      "ances": 1784,
      "reci": 1785,
      "remind": 1786,
      "ited": 1787,
      "itself": 1788,
      "along": 1789,
      "ben": 1790,
      "becoming": 1791,
      "lify": 1792,
      "chem": 1793,
      "google": 1794,
      "cause": 1795,
      "ided": 1796,
      "female": 1797,
      "acity": 1798,
      "access": 1799,
      "activ": 1800,
      "lls": 1801,
      "rise": 1802,
      "dered": 1803,
      "death": 1804,
      "worried": 1805,
      "const": 1806,
      "conclus": 1807,
      "exper": 1808,
      "exter": 1809,
      "save": 1810,
      "impress": 1811,
      "ateful": 1812,
      "mentally": 1813,
      "procra": 1814,
      "progress": 1815,
      "upon": 1816,
      "dience": 1817,
      "ambit": 1818,
      "shif": 1819,
      "shmallow": 1820,
      "anyone": 1821,
      "anymore": 1822,
      "everybody": 1823,
      "plans": 1824,
      "present": 1825,
      "ctly": 1826,
      "changing": 1827,
      "games": 1828,
      "illion": 1829,
      "kindness": 1830,
      "box": 1831,
      "choices": 1832,
      "casting": 1833,
      "stock": 1834,
      "izing": 1835,
      "ground": 1836,
      "understood": 1837,
      "ruin": 1838,
      "throw": 1839,
      "father": 1840,
      "busy": 1841,
      "open": 1842,
      "happening": 1843,
      "decided": 1844,
      "marshmallow": 1845,
      "against": 1846,
      "istic": 1847,
      "paid": 1848,
      "typ": 1849,
      "helps": 1850,
      "version": 1851,
      "joe": 1852,
      "shame": 1853,
      "priv": 1854,
      "prof": 1855,
      "finding": 1856,
      "manage": 1857,
      "companies": 1858,
      "merced": 1859,
      "internet": 1860,
      "cloud": 1861,
      "stressed": 1862,
      "ages": 1863,
      "wave": 1864,
      "publ": 1865,
      "appreci": 1866,
      "free": 1867,
      "milkshake": 1868,
      "walking": 1869,
      "audience": 1870,
      "strictly": 1871,
      "secondary": 1872,
      "double": 1873,
      "solve": 1874,
      "responsi": 1875,
      "surpri": 1876,
      "curi": 1877,
      "obvious": 1878,
      "appe": 1879,
      "wearing": 1880,
      "excuse": 1881,
      "sentence": 1882,
      "check": 1883,
      "diets": 1884,
      "observe": 1885,
      "observation": 1886,
      "harder": 1887,
      "direct": 1888,
      "opportunities": 1889,
      "morning": 1890,
      "developed": 1891,
      "simplify": 1892,
      "nearly": 1893,
      "hundreds": 1894,
      "girlfriend": 1895,
      "scientists": 1896,
      "subscribers": 1897,
      "results": 1898,
      "filled": 1899,
      "large": 1900,
      "wonderful": 1901,
      "style": 1902,
      "commitment": 1903,
      "physical": 1904,
      "approach": 1905,
      "stephen": 1906,
      "junk": 1907,
      "accomplish": 1908,
      "scenari": 1909,
      "industry": 1910,
      "contribution": 1911,
      "sustain": 1912,
      "tremend": 1913,
      "procrastin": 1914,
      "mercedes": 1915,
      "ado": 1916,
      "burn": 1917,
      "bility": 1918,
      "billion": 1919,
      "cli": 1920,
      "city": 1921,
      "cue": 1922,
      "dle": 1923,
      "dum": 1924,
      "dru": 1925,
      "fer": 1926,
      "fight": 1927,
      "fill": 1928,
      "flight": 1929,
      "fitting": 1930,
      "gs": 1931,
      "hy": 1932,
      "ise": 1933,
      "ient": 1934,
      "jump": 1935,
      "lou": 1936,
      "ming": 1937,
      "mpa": 1938,
      "ni": 1939,
      "pul": 1940,
      "passion": 1941,
      "sca": 1942,
      "scan": 1943,
      "twi": 1944,
      "tour": 1945,
      "ture": 1946,
      "twit": 1947,
      "uk": 1948,
      "wall": 1949,
      "wers": 1950,
      "zo": 1951,
      "third": 1952,
      "invalid": 1953,
      "ane": 1954,
      "ang": 1955,
      "oun": 1956,
      "ator": 1957,
      "remove": 1958,
      "rebound": 1959,
      "toms": 1960,
      "towards": 1961,
      "ital": 1962,
      "strange": 1963,
      "send": 1964,
      "separ": 1965,
      "selling": 1966,
      "thatching": 1967,
      "ord": 1968,
      "bear": 1969,
      "behave": 1970,
      "ash": 1971,
      "asha": 1972,
      "associ": 1973,
      "lier": 1974,
      "lied": 1975,
      "limit": 1976,
      "erial": 1977,
      "arri": 1978,
      "arily": 1979,
      "kes": 1980,
      "soph": 1981,
      "chest": 1982,
      "essen": 1983,
      "tice": 1984,
      "timis": 1985,
      "vert": 1986,
      "cade": 1987,
      "causing": 1988,
      "idence": 1989,
      "idols": 1990,
      "feed": 1991,
      "actions": 1992,
      "according": 1993,
      "forward": 1994,
      "formed": 1995,
      "roof": 1996,
      "rolls": 1997,
      "dom": 1998,
      "door": 1999,
      "knows": 2000,
      "knowled": 2001,
      "cost": 2002,
      "loss": 2003,
      "iff": 2004,
      "neur": 2005,
      "heart": 2006,
      "deal": 2007,
      "depri": 2008,
      "deserve": 2009,
      "somewhat": 2010,
      "poor": 2011,
      "area": 2012,
      "admit": 2013,
      "contr": 2014,
      "exist": 2015,
      "qui": 2016,
      "odes": 2017,
      "tered": 2018,
      "upset": 2019,
      "die": 2020,
      "anyway": 2021,
      "taint": 2022,
      "ents": 2023,
      "previ": 2024,
      "igning": 2025,
      "weren": 2026,
      "seeking": 2027,
      "created": 2028,
      "grateful": 2029,
      "obsess": 2030,
      "fai": 2031,
      "woman": 2032,
      "optimis": 2033,
      "answers": 2034,
      "tens": 2035,
      "asks": 2036,
      "carry": 2037,
      "carpet": 2038,
      "calor": 2039,
      "shown": 2040,
      "disagree": 2041,
      "helpful": 2042,
      "philo": 2043,
      "internal": 2044,
      "trick": 2045,
      "material": 2046,
      "behaviors": 2047,
      "simpler": 2048,
      "powerless": 2049,
      "certaint": 2050,
      "subst": 2051,
      "subje": 2052,
      "puzz": 2053,
      "symp": 2054,
      "struggled": 2055,
      "famous": 2056,
      "playing": 2057,
      "played": 2058,
      "allowed": 2059,
      "early": 2060,
      "earlier": 2061,
      "frid": 2062,
      "psychologist": 2063,
      "episodes": 2064,
      "holding": 2065,
      "virus": 2066,
      "exciting": 2067,
      "enjoying": 2068,
      "direc": 2069,
      "evidence": 2070,
      "fied": 2071,
      "suggest": 2072,
      "millionaire": 2073,
      "truly": 2074,
      "voice": 2075,
      "insecure": 2076,
      "commun": 2077,
      "priorit": 2078,
      "natural": 2079,
      "negatives": 2080,
      "strong": 2081,
      "subscribe": 2082,
      "ringing": 2083,
      "lessons": 2084,
      "club": 2085,
      "emotion": 2086,
      "fascinating": 2087,
      "picture": 2088,
      "sorry": 2089,
      "cookies": 2090,
      "promise": 2091,
      "predictable": 2092,
      "middle": 2093,
      "sniff": 2094,
      "interest": 2095,
      "capacity": 2096,
      "neurolog": 2097,
      "convince": 2098,
      "perspective": 2099,
      "weekends": 2100,
      "burnt": 2101,
      "soft": 2102,
      "religi": 2103,
      "practic": 2104,
      "insecurities": 2105,
      "jud": 2106,
      "puppet": 2107,
      "since": 2108,
      "chemical": 2109,
      "activity": 2110,
      "private": 2111,
      "profess": 2112,
      "twitter": 2113,
      "ashamed": 2114,
      "optimism": 2115,
      "philosoph": 2116,
      "certainty": 2117,
      "puzzle": 2118,
      "symptoms": 2119,
      "15": 2120,
      "25": 2121,
      "60": 2122,
      "aim": 2123,
      "aff": 2124,
      "ains": 2125,
      "bin": 2126,
      "bri": 2127,
      "bart": 2128,
      "cing": 2129,
      "cas": 2130,
      "cro": 2131,
      "cir": 2132,
      "date": 2133,
      "eem": 2134,
      "elect": 2135,
      "fan": 2136,
      "fig": 2137,
      "fting": 2138,
      "fitted": 2139,
      "glo": 2140,
      "hart": 2141,
      "iest": 2142,
      "jan": 2143,
      "land": 2144,
      "lce": 2145,
      "lish": 2146,
      "mou": 2147,
      "mir": 2148,
      "mist": 2149,
      "mass": 2150,
      "non": 2151,
      "pan": 2152,
      "pus": 2153,
      "pter": 2154,
      "pam": 2155,
      "ption": 2156,
      "ron": 2157,
      "rad": 2158,
      "rup": 2159,
      "sad": 2160,
      "sity": 2161,
      "size": 2162,
      "tin": 2163,
      "tough": 2164,
      "ual": 2165,
      "uary": 2166,
      "unex": 2167,
      "wan": 2168,
      "wind": 2169,
      "xy": 2170,
      "yor": 2171,
      "inclu": 2172,
      "ann": 2173,
      "anim": 2174,
      "att": 2175,
      "atta": 2176,
      "atform": 2177,
      "attain": 2178,
      "reve": 2179,
      "recom": 2180,
      "repre": 2181,
      "reson": 2182,
      "restri": 2183,
      "relea": 2184,
      "reaction": 2185,
      "removed": 2186,
      "remain": 2187,
      "onistic": 2188,
      "tober": 2189,
      "tomor": 2190,
      "itu": 2191,
      "stup": 2192,
      "stick": 2193,
      "mend": 2194,
      "alco": 2195,
      "sell": 2196,
      "sequ": 2197,
      "beau": 2198,
      "assum": 2199,
      "assume": 2200,
      "artic": 2201,
      "kevin": 2202,
      "chess": 2203,
      "chur": 2204,
      "wealth": 2205,
      "till": 2206,
      "tially": 2207,
      "tiful": 2208,
      "tired": 2209,
      "tify": 2210,
      "cave": 2211,
      "cases": 2212,
      "identi": 2213,
      "ford": 2214,
      "forget": 2215,
      "forced": 2216,
      "road": 2217,
      "dolce": 2218,
      "dopam": 2219,
      "pelling": 2220,
      "ions": 2221,
      "rible": 2222,
      "loy": 2223,
      "lolli": 2224,
      "nose": 2225,
      "pleas": 2226,
      "icate": 2227,
      "nel": 2228,
      "necess": 2229,
      "hea": 2230,
      "ustr": 2231,
      "deta": 2232,
      "define": 2233,
      "unfollow": 2234,
      "unhealthy": 2235,
      "uncertainty": 2236,
      "pop": 2237,
      "mage": 2238,
      "ants": 2239,
      "adm": 2240,
      "concept": 2241,
      "raising": 2242,
      "extra": 2243,
      "impossible": 2244,
      "cious": 2245,
      "comment": 2246,
      "compet": 2247,
      "compelling": 2248,
      "wanting": 2249,
      "trans": 2250,
      "lifestyle": 2251,
      "diag": 2252,
      "amins": 2253,
      "ending": 2254,
      "gotta": 2255,
      "entrepre": 2256,
      "platform": 2257,
      "esteem": 2258,
      "prepare": 2259,
      "inting": 2260,
      "intro": 2261,
      "intel": 2262,
      "channel": 2263,
      "ilt": 2264,
      "arden": 2265,
      "happier": 2266,
      "lots": 2267,
      "fulfill": 2268,
      "boo": 2269,
      "ideas": 2270,
      "hol": 2271,
      "personally": 2272,
      "vile": 2273,
      "ets": 2274,
      "pointless": 2275,
      "friction": 2276,
      "stories": 2277,
      "spir": 2278,
      "gry": 2279,
      "grand": 2280,
      "grad": 2281,
      "firm": 2282,
      "learning": 2283,
      "although": 2284,
      "brains": 2285,
      "pain": 2286,
      "paper": 2287,
      "longer": 2288,
      "type": 2289,
      "lett": 2290,
      "embar": 2291,
      "relates": 2292,
      "shared": 2293,
      "mono": 2294,
      "privile": 2295,
      "disorder": 2296,
      "prising": 2297,
      "affect": 2298,
      "realizing": 2299,
      "100": 2300,
      "phra": 2301,
      "sens": 2302,
      "sessed": 2303,
      "manchest": 2304,
      "ield": 2305,
      "chaos": 2306,
      "chapter": 2307,
      "ential": 2308,
      "closer": 2309,
      "increase": 2310,
      "desper": 2311,
      "design": 2312,
      "sky": 2313,
      "skin": 2314,
      "greater": 2315,
      "powerful": 2316,
      "anxious": 2317,
      "travel": 2318,
      "mention": 2319,
      "jobs": 2320,
      "satis": 2321,
      "higher": 2322,
      "effort": 2323,
      "frequ": 2324,
      "collea": 2325,
      "striving": 2326,
      "allowing": 2327,
      "followed": 2328,
      "respond": 2329,
      "surprising": 2330,
      "extreme": 2331,
      "studying": 2332,
      "addictive": 2333,
      "centr": 2334,
      "banana": 2335,
      "hands": 2336,
      "excited": 2337,
      "buying": 2338,
      "blame": 2339,
      "nature": 2340,
      "spot": 2341,
      "spotify": 2342,
      "licity": 2343,
      "products": 2344,
      "pected": 2345,
      "consciously": 2346,
      "spending": 2347,
      "validation": 2348,
      "jeans": 2349,
      "simplicity": 2350,
      "continue": 2351,
      "priorities": 2352,
      "balance": 2353,
      "worrying": 2354,
      "intention": 2355,
      "building": 2356,
      "emotions": 2357,
      "north": 2358,
      "deliver": 2359,
      "fascinated": 2360,
      "cigare": 2361,
      "experiences": 2362,
      "pursuit": 2363,
      "bonus": 2364,
      "dropped": 2365,
      "ponder": 2366,
      "piece": 2367,
      "sister": 2368,
      "acceptance": 2369,
      "loads": 2370,
      "described": 2371,
      "awareness": 2372,
      "critic": 2373,
      "drink": 2374,
      "hedonistic": 2375,
      "vitamins": 2376,
      "respect": 2377,
      "cognitive": 2378,
      "friendships": 2379,
      "interrogate": 2380,
      "triggers": 2381,
      "freelance": 2382,
      "collaboration": 2383,
      "linked": 2384,
      "october": 2385,
      "switch": 2386,
      "invest": 2387,
      "benz": 2388,
      "constantly": 2389,
      "conclusion": 2390,
      "clouds": 2391,
      "responsibility": 2392,
      "dumb": 2393,
      "lounge": 2394,
      "twice": 2395,
      "zoom": 2396,
      "ounce": 2397,
      "associated": 2398,
      "arrive": 2399,
      "knowledge": 2400,
      "contract": 2401,
      "obsessive": 2402,
      "director": 2403,
      "neurological": 2404,
      "religiously": 2405,
      "bartlett": 2406,
      "electric": 2407,
      "january": 2408,
      "mouth": 2409,
      "massive": 2410,
      "radish": 2411,
      "unexpected": 2412,
      "york": 2413,
      "reveal": 2414,
      "recommend": 2415,
      "restrictions": 2416,
      "tomorrow": 2417,
      "stupid": 2418,
      "alcohol": 2419,
      "beautiful": 2420,
      "church": 2421,
      "dopamine": 2422,
      "necessarily": 2423,
      "entrepreneur": 2424,
      "embarr": 2425,
      "manchester": 2426,
      "colleagu": 2427,
      "11": 2428,
      "14": 2429,
      "21": 2430,
      "40": 2431,
      "ba": 2432,
      "bn": 2433,
      "blo": 2434,
      "cid": 2435,
      "cru": 2436,
      "dat": 2437,
      "dden": 2438,
      "ei": 2439,
      "ego": 2440,
      "eight": 2441,
      "emer": 2442,
      "fat": 2443,
      "flying": 2444,
      "ffered": 2445,
      "field": 2446,
      "gin": 2447,
      "gor": 2448,
      "gli": 2449,
      "gab": 2450,
      "gne": 2451,
      "gandy": 2452,
      "garden": 2453,
      "kno": 2454,
      "lay": 2455,
      "lines": 2456,
      "law": 2457,
      "mut": 2458,
      "mum": 2459,
      "multi": 2460,
      "mount": 2461,
      "ns": 2462,
      "ners": 2463,
      "pound": 2464,
      "pity": 2465,
      "ror": 2466,
      "sli": 2467,
      "sive": 2468,
      "scre": 2469,
      "sna": 2470,
      "sick": 2471,
      "slow": 2472,
      "sitting": 2473,
      "tes": 2474,
      "tur": 2475,
      "vul": 2476,
      "vari": 2477,
      "wow": 2478,
      "winst": 2479,
      "xit": 2480,
      "zing": 2481,
      "thod": 2482,
      "init": 2483,
      "inves": 2484,
      "intrinsically": 2485,
      "rep": 2486,
      "rely": 2487,
      "regre": 2488,
      "return": 2489,
      "record": 2490,
      "replac": 2491,
      "tom": 2492,
      "tory": 2493,
      "tools": 2494,
      "veget": 2495,
      "stat": 2496,
      "stam": 2497,
      "stically": 2498,
      "mechan": 2499,
      "method": 2500,
      "season": 2501,
      "secure": 2502,
      "series": 2503,
      "bene": 2504,
      "ler": 2505,
      "liber": 2506,
      "ering": 2507,
      "arm": 2508,
      "argu": 2509,
      "aries": 2510,
      "soon": 2511,
      "chat": 2512,
      "ays": 2513,
      "gold": 2514,
      "tial": 2515,
      "verr": 2516,
      "versu": 2517,
      "fection": 2518,
      "accid": 2519,
      "llars": 2520,
      "roy": 2521,
      "rover": 2522,
      "domin": 2523,
      "dollars": 2524,
      "wild": 2525,
      "yours": 2526,
      "useful": 2527,
      "dest": 2528,
      "deple": 2529,
      "deter": 2530,
      "demon": 2531,
      "decade": 2532,
      "somebody": 2533,
      "unfortunately": 2534,
      "pos": 2535,
      "pops": 2536,
      "posed": 2537,
      "polar": 2538,
      "suits": 2539,
      "sudden": 2540,
      "suffered": 2541,
      "irts": 2542,
      "master": 2543,
      "ared": 2544,
      "areas": 2545,
      "consu": 2546,
      "conform": 2547,
      "consequ": 2548,
      "perform": 2549,
      "perceive": 2550,
      "expen": 2551,
      "extrinsically": 2552,
      "sake": 2553,
      "indiv": 2554,
      "immedi": 2555,
      "cip": 2556,
      "however": 2557,
      "quire": 2558,
      "comput": 2559,
      "commer": 2560,
      "acting": 2561,
      "proper": 2562,
      "update": 2563,
      "foc": 2564,
      "foot": 2565,
      "sorts": 2566,
      "shot": 2567,
      "shirts": 2568,
      "gotten": 2569,
      "taken": 2570,
      "starts": 2571,
      "stuck": 2572,
      "background": 2573,
      "cting": 2574,
      "gaz": 2575,
      "overthinking": 2576,
      "overweight": 2577,
      "others": 2578,
      "fulfilled": 2579,
      "kinds": 2580,
      "bott": 2581,
      "seemed": 2582,
      "hot": 2583,
      "points": 2584,
      "lution": 2585,
      "grew": 2586,
      "izz": 2587,
      "sport": 2588,
      "needs": 2589,
      "rules": 2590,
      "naive": 2591,
      "differen": 2592,
      "forming": 2593,
      "mark": 2594,
      "healthier": 2595,
      "mindset": 2596,
      "pair": 2597,
      "finance": 2598,
      "letter": 2599,
      "older": 2600,
      "rela": 2601,
      "relate": 2602,
      "related": 2603,
      "showing": 2604,
      "20s": 2605,
      "serable": 2606,
      "smalle": 2607,
      "ship": 2608,
      "scul": 2609,
      "address": 2610,
      "champa": 2611,
      "interview": 2612,
      "setting": 2613,
      "brea": 2614,
      "street": 2615,
      "nerable": 2616,
      "pted": 2617,
      "wondered": 2618,
      "behavioral": 2619,
      "clothing": 2620,
      "increasing": 2621,
      "itional": 2622,
      "condu": 2623,
      "gery": 2624,
      "pretend": 2625,
      "youtubers": 2626,
      "turned": 2627,
      "wake": 2628,
      "waiting": 2629,
      "watched": 2630,
      "believed": 2631,
      "pull": 2632,
      "slept": 2633,
      "struggles": 2634,
      "topi": 2635,
      "lower": 2636,
      "researcher": 2637,
      "sponsor": 2638,
      "highly": 2639,
      "auto": 2640,
      "worthy": 2641,
      "current": 2642,
      "curtain": 2643,
      "ears": 2644,
      "earning": 2645,
      "fits": 2646,
      "fitness": 2647,
      "sleeping": 2648,
      "frustr": 2649,
      "musc": 2650,
      "smoked": 2651,
      "surgery": 2652,
      "eaters": 2653,
      "ficial": 2654,
      "miserable": 2655,
      "modeling": 2656,
      "teams": 2657,
      "ngth": 2658,
      "focusing": 2659,
      "bana": 2660,
      "banks": 2661,
      "drive": 2662,
      "driven": 2663,
      "nightclub": 2664,
      "drawer": 2665,
      "drastically": 2666,
      "chew": 2667,
      "cheer": 2668,
      "problems": 2669,
      "harry": 2670,
      "spoke": 2671,
      "spoken": 2672,
      "position": 2673,
      "marriages": 2674,
      "videos": 2675,
      "plane": 2676,
      "airbn": 2677,
      "fix": 2678,
      "fiverr": 2679,
      "sounds": 2680,
      "signed": 2681,
      "therapy": 2682,
      "product": 2683,
      "challeng": 2684,
      "groups": 2685,
      "marketing": 2686,
      "meeting": 2687,
      "childhood": 2688,
      "growing": 2689,
      "general": 2690,
      "strate": 2691,
      "words": 2692,
      "scientific": 2693,
      "topics": 2694,
      "ridic": 2695,
      "fearful": 2696,
      "explains": 2697,
      "intensity": 2698,
      "guests": 2699,
      "opinions": 2700,
      "bringing": 2701,
      "periods": 2702,
      "lockdowns": 2703,
      "delicious": 2704,
      "delayed": 2705,
      "nutritionally": 2706,
      "patron": 2707,
      "regular": 2708,
      "expects": 2709,
      "cigars": 2710,
      "places": 2711,
      "experienced": 2712,
      "treatment": 2713,
      "emails": 2714,
      "graph": 2715,
      "pieces": 2716,
      "involved": 2717,
      "weakness": 2718,
      "describe": 2719,
      "message": 2720,
      "critical": 2721,
      "drinking": 2722,
      "london": 2723,
      "atures": 2724,
      "depend": 2725,
      "fundamental": 2726,
      "fundamentally": 2727,
      "facebook": 2728,
      "slightly": 2729,
      "touched": 2730,
      "ancestors": 2731,
      "expert": 2732,
      "externally": 2733,
      "shift": 2734,
      "typically": 2735,
      "published": 2736,
      "appreciate": 2737,
      "milkshakes": 2738,
      "largely": 2739,
      "accomplishment": 2740,
      "scenario": 2741,
      "sustainable": 2742,
      "tremendously": 2743,
      "burnout": 2744,
      "billionaire": 2745,
      "drugs": 2746,
      "scared": 2747,
      "scans": 2748,
      "limited": 2749,
      "depriving": 2750,
      "existential": 2751,
      "previous": 2752,
      "failed": 2753,
      "calories": 2754,
      "subjective": 2755,
      "fridge": 2756,
      "pictures": 2757,
      "interesting": 2758,
      "global": 2759,
      "mirror": 2760,
      "push": 2761,
      "announce": 2762,
      "resonate": 2763,
      "itude": 2764,
      "identify": 2765,
      "lollipops": 2766,
      "heavi": 2767,
      "fulfillment": 2768,
      "phrase": 2769,
      "frequently": 2770,
      "churchill": 2771,
      "embarrass": 2772,
      "blood": 2773,
      "data": 2774,
      "either": 2775,
      "emergency": 2776,
      "gabbana": 2777,
      "mountain": 2778,
      "pounds": 2779,
      "vulnerable": 2780,
      "winston": 2781,
      "regret": 2782,
      "versus": 2783,
      "accident": 2784,
      "determin": 2785,
      "suddenly": 2786,
      "individ": 2787,
      "immediately": 2788,
      "computer": 2789,
      "commercial": 2790,
      "smaller": 2791,
      "champagne": 2792,
      "airbnb": 2793,
      "23": 2794,
      "90": 2795,
      "91": 2796,
      "95": 2797,
      "ai": 2798,
      "ade": 2799,
      "agen": 2800,
      "apt": 2801,
      "awards": 2802,
      "band": 2803,
      "bli": 2804,
      "bac": 2805,
      "ball": 2806,
      "biz": 2807,
      "bru": 2808,
      "bble": 2809,
      "bborn": 2810,
      "cow": 2811,
      "cti": 2812,
      "cry": 2813,
      "dan": 2814,
      "dre": 2815,
      "fli": 2816,
      "fly": 2817,
      "ffe": 2818,
      "fru": 2819,
      "fice": 2820,
      "faction": 2821,
      "gly": 2822,
      "gent": 2823,
      "glu": 2824,
      "gers": 2825,
      "gital": 2826,
      "hur": 2827,
      "hang": 2828,
      "ith": 2829,
      "ili": 2830,
      "ious": 2831,
      "iature": 2832,
      "image": 2833,
      "jack": 2834,
      "kers": 2835,
      "lan": 2836,
      "lly": 2837,
      "lab": 2838,
      "lad": 2839,
      "late": 2840,
      "lled": 2841,
      "lau": 2842,
      "lap": 2843,
      "loud": 2844,
      "lord": 2845,
      "mb": 2846,
      "mas": 2847,
      "mate": 2848,
      "mary": 2849,
      "mute": 2850,
      "ned": 2851,
      "none": 2852,
      "nically": 2853,
      "nger": 2854,
      "oo": 2855,
      "oin": 2856,
      "ore": 2857,
      "obe": 2858,
      "oms": 2859,
      "pi": 2860,
      "pas": 2861,
      "ply": 2862,
      "ppe": 2863,
      "pun": 2864,
      "pper": 2865,
      "pte": 2866,
      "pure": 2867,
      "pting": 2868,
      "pizz": 2869,
      "ration": 2870,
      "round": 2871,
      "rinting": 2872,
      "sand": 2873,
      "sac": 2874,
      "scal": 2875,
      "tun": 2876,
      "tter": 2877,
      "tary": 2878,
      "task": 2879,
      "ttom": 2880,
      "ule": 2881,
      "van": 2882,
      "vis": 2883,
      "vid": 2884,
      "vic": 2885,
      "vant": 2886,
      "vous": 2887,
      "wn": 2888,
      "wra": 2889,
      "xes": 2890,
      "xic": 2891,
      "ying": 2892,
      "ze": 2893,
      "zer": 2894,
      "inn": 2895,
      "ined": 2896,
      "inary": 2897,
      "inning": 2898,
      "inbox": 2899,
      "anch": 2900,
      "ange": 2901,
      "anno": 2902,
      "antic": 2903,
      "thes": 2904,
      "theater": 2905,
      "ats": 2906,
      "atten": 2907,
      "rein": 2908,
      "reno": 2909,
      "request": 2910,
      "revel": 2911,
      "replace": 2912,
      "repet": 2913,
      "removing": 2914,
      "review": 2915,
      "returns": 2916,
      "require": 2917,
      "remark": 2918,
      "ander": 2919,
      "younger": 2920,
      "toe": 2921,
      "tool": 2922,
      "toric": 2923,
      "toxic": 2924,
      "iter": 2925,
      "vent": 2926,
      "stal": 2927,
      "stim": 2928,
      "stem": 2929,
      "stance": 2930,
      "stars": 2931,
      "ality": 2932,
      "align": 2933,
      "aligning": 2934,
      "algor": 2935,
      "sexy": 2936,
      "septe": 2937,
      "ors": 2938,
      "orig": 2939,
      "orient": 2940,
      "ism": 2941,
      "iss": 2942,
      "offered": 2943,
      "bes": 2944,
      "beat": 2945,
      "beach": 2946,
      "belong": 2947,
      "below": 2948,
      "begin": 2949,
      "leg": 2950,
      "lent": 2951,
      "leep": 2952,
      "ens": 2953,
      "encount": 2954,
      "asleep": 2955,
      "lie": 2956,
      "liday": 2957,
      "lihood": 2958,
      "erals": 2959,
      "arre": 2960,
      "sold": 2961,
      "hair": 2962,
      "chment": 2963,
      "west": 2964,
      "aying": 2965,
      "tise": 2966,
      "ties": 2967,
      "nowad": 2968,
      "likes": 2969,
      "likely": 2970,
      "camp": 2971,
      "fell": 2972,
      "active": 2973,
      "force": 2974,
      "forces": 2975,
      "rob": 2976,
      "rod": 2977,
      "roles": 2978,
      "rooms": 2979,
      "dotes": 2980,
      "uts": 2981,
      "outcomes": 2982,
      "peer": 2983,
      "peppe": 2984,
      "ablish": 2985,
      "wise": 2986,
      "wich": 2987,
      "wired": 2988,
      "ional": 2989,
      "rifice": 2990,
      "cot": 2991,
      "cold": 2992,
      "cool": 2993,
      "lore": 2994,
      "loving": 2995,
      "losing": 2996,
      "nowhere": 2997,
      "notice": 2998,
      "motion": 2999,
      "icle": 3000,
      "icking": 3001,
      "heel": 3002,
      "deb": 3003,
      "dev": 3004,
      "device": 3005,
      "unless": 3006,
      "unbeli": 3007,
      "unsuccessful": 3008,
      "unavoid": 3009,
      "ungrateful": 3010,
      "unpredictable": 3011,
      "unsustainable": 3012,
      "poten": 3013,
      "polit": 3014,
      "potter": 3015,
      "supp": 3016,
      "suff": 3017,
      "irm": 3018,
      "yep": 3019,
      "yester": 3020,
      "advert": 3021,
      "adapt": 3022,
      "conside": 3023,
      "thered": 3024,
      "raid": 3025,
      "raint": 3026,
      "ceed": 3027,
      "cemic": 3028,
      "permission": 3029,
      "exp": 3030,
      "exclus": 3031,
      "saved": 3032,
      "indic": 3033,
      "improve": 3034,
      "cies": 3035,
      "cipl": 3036,
      "elon": 3037,
      "elle": 3038,
      "ulate": 3039,
      "quid": 3040,
      "common": 3041,
      "compromise": 3042,
      "tern": 3043,
      "terri": 3044,
      "tele": 3045,
      "trou": 3046,
      "trad": 3047,
      "proces": 3048,
      "ups": 3049,
      "upload": 3050,
      "upstairs": 3051,
      "diver": 3052,
      "diane": 3053,
      "digital": 3054,
      "distance": 3055,
      "ury": 3056,
      "urgency": 3057,
      "shy": 3058,
      "shop": 3059,
      "anywhere": 3060,
      "anybody": 3061,
      "ended": 3062,
      "romantic": 3063,
      "taste": 3064,
      "plus": 3065,
      "establish": 3066,
      "pressed": 3067,
      "prefer": 3068,
      "stubborn": 3069,
      "igated": 3070,
      "gap": 3071,
      "gamy": 3072,
      "ils": 3073,
      "overall": 3074,
      "otherwise": 3075,
      "ardless": 3076,
      "happiest": 3077,
      "beings": 3078,
      "boom": 3079,
      "bottom": 3080,
      "bothered": 3081,
      "willing": 3082,
      "seek": 3083,
      "ables": 3084,
      "cred": 3085,
      "creating": 3086,
      "creator": 3087,
      "guage": 3088,
      "guilt": 3089,
      "hop": 3090,
      "hole": 3091,
      "holiday": 3092,
      "lux": 3093,
      "rained": 3094,
      "content": 3095,
      "stor": 3096,
      "stopping": 3097,
      "talents": 3098,
      "podcasts": 3099,
      "grown": 3100,
      "grity": 3101,
      "obsessed": 3102,
      "forest": 3103,
      "hasn": 3104,
      "naught": 3105,
      "cks": 3106,
      "speed": 3107,
      "downstairs": 3108,
      "puts": 3109,
      "standing": 3110,
      "standard": 3111,
      "fame": 3112,
      "fault": 3113,
      "partners": 3114,
      "tells": 3115,
      "brit": 3116,
      "listened": 3117,
      "finished": 3118,
      "historic": 3119,
      "importance": 3120,
      "carried": 3121,
      "relap": 3122,
      "versial": 3123,
      "gging": 3124,
      "ggle": 3125,
      "gged": 3126,
      "joh": 3127,
      "join": 3128,
      "looks": 3129,
      "importantly": 3130,
      "bodily": 3131,
      "complex": 3132,
      "monday": 3133,
      "park": 3134,
      "primary": 3135,
      "simon": 3136,
      "experiments": 3137,
      "2020": 3138,
      "blew": 3139,
      "disprove": 3140,
      "disappe": 3141,
      "discipl": 3142,
      "praying": 3143,
      "instant": 3144,
      "instantly": 3145,
      "instigated": 3146,
      "afraid": 3147,
      "miniature": 3148,
      "minerals": 3149,
      "realization": 3150,
      "manag": 3151,
      "powder": 3152,
      "powered": 3153,
      "compared": 3154,
      "coura": 3155,
      "chair": 3156,
      "internally": 3157,
      "surely": 3158,
      "brexit": 3159,
      "clar": 3160,
      "strength": 3161,
      "logically": 3162,
      "posts": 3163,
      "posting": 3164,
      "nervous": 3165,
      "closing": 3166,
      "itions": 3167,
      "foods": 3168,
      "controversial": 3169,
      "struct": 3170,
      "talks": 3171,
      "subconsciously": 3172,
      "confli": 3173,
      "camera": 3174,
      "ctively": 3175,
      "system": 3176,
      "famili": 3177,
      "thankfully": 3178,
      "craving": 3179,
      "freed": 3180,
      "journal": 3181,
      "walter": 3182,
      "autopi": 3183,
      "heroin": 3184,
      "allows": 3185,
      "worthwhile": 3186,
      "calling": 3187,
      "following": 3188,
      "followers": 3189,
      "smoke": 3190,
      "leaving": 3191,
      "surround": 3192,
      "extent": 3193,
      "eaten": 3194,
      "mix": 3195,
      "centered": 3196,
      "huel": 3197,
      "bang": 3198,
      "basic": 3199,
      "duce": 3200,
      "gile": 3201,
      "refer": 3202,
      "dieting": 3203,
      "observed": 3204,
      "matters": 3205,
      "hardest": 3206,
      "salted": 3207,
      "enjoyed": 3208,
      "broke": 3209,
      "restrain": 3210,
      "restraint": 3211,
      "signific": 3212,
      "productive": 3213,
      "developing": 3214,
      "crash": 3215,
      "vote": 3216,
      "issue": 3217,
      "leading": 3218,
      "children": 3219,
      "weirdly": 3220,
      "command": 3221,
      "committed": 3222,
      "growth": 3223,
      "priority": 3224,
      "girls": 3225,
      "staying": 3226,
      "deeply": 3227,
      "unique": 3228,
      "30s": 3229,
      "volun": 3230,
      "engaging": 3231,
      "intense": 3232,
      "gratitude": 3233,
      "brings": 3234,
      "centers": 3235,
      "therapists": 3236,
      "secretly": 3237,
      "elements": 3238,
      "normal": 3239,
      "supported": 3240,
      "connection": 3241,
      "connected": 3242,
      "connecting": 3243,
      "shoes": 3244,
      "ameri": 3245,
      "regardless": 3246,
      "reached": 3247,
      "cookie": 3248,
      "expectations": 3249,
      "techni": 3250,
      "technically": 3251,
      "promises": 3252,
      "predict": 3253,
      "pathway": 3254,
      "physically": 3255,
      "publicly": 3256,
      "pursue": 3257,
      "catal": 3258,
      "catch": 3259,
      "drop": 3260,
      "grams": 3261,
      "hunger": 3262,
      "hungry": 3263,
      "sweets": 3264,
      "training": 3265,
      "integrity": 3266,
      "capable": 3267,
      "convinced": 3268,
      "perspecti": 3269,
      "messages": 3270,
      "daily": 3271,
      "factor": 3272,
      "repeated": 3273,
      "safety": 3274,
      "queue": 3275,
      "friendship": 3276,
      "trigger": 3277,
      "meditation": 3278,
      "freelan": 3279,
      "bullying": 3280,
      "frame": 3281,
      "fragile": 3282,
      "fishing": 3283,
      "horrible": 3284,
      "ttes": 3285,
      "touch": 3286,
      "expertise": 3287,
      "external": 3288,
      "impressive": 3289,
      "ambitious": 3290,
      "presenting": 3291,
      "ruined": 3292,
      "management": 3293,
      "publish": 3294,
      "appreciation": 3295,
      "surprise": 3296,
      "surprised": 3297,
      "curious": 3298,
      "curiously": 3299,
      "simplifying": 3300,
      "accomplishments": 3301,
      "scenarios": 3302,
      "tremendous": 3303,
      "procrastination": 3304,
      "procrastinate": 3305,
      "flights": 3306,
      "jumping": 3307,
      "pulled": 3308,
      "walls": 3309,
      "invalidated": 3310,
      "separate": 3311,
      "ordinary": 3312,
      "essentially": 3313,
      "feedback": 3314,
      "quiet": 3315,
      "substances": 3316,
      "psychologists": 3317,
      "suggests": 3318,
      "communicate": 3319,
      "prioritize": 3320,
      "emotional": 3321,
      "sniffing": 3322,
      "practicing": 3323,
      "professor": 3324,
      "professional": 3325,
      "philosophy": 3326,
      "affirm": 3327,
      "casper": 3328,
      "circle": 3329,
      "figure": 3330,
      "landlord": 3331,
      "mista": 3332,
      "nonsense": 3333,
      "panicking": 3334,
      "wanna": 3335,
      "attached": 3336,
      "loyed": 3337,
      "pleasure": 3338,
      "extraordinary": 3339,
      "diagno": 3340,
      "prepared": 3341,
      "introduce": 3342,
      "firmness": 3343,
      "monogamy": 3344,
      "privilege": 3345,
      "affected": 3346,
      "sensations": 3347,
      "desperate": 3348,
      "designed": 3349,
      "skinny": 3350,
      "mentioned": 3351,
      "satisfaction": 3352,
      "central": 3353,
      "cigarettes": 3354,
      "loungewear": 3355,
      "radishes": 3356,
      "revealed": 3357,
      "colleague": 3358,
      "layer": 3359,
      "multiple": 3360,
      "snap": 3361,
      "turning": 3362,
      "replied": 3363,
      "replaced": 3364,
      "vegetables": 3365,
      "status": 3366,
      "sooner": 3367,
      "wildly": 3368,
      "depleted": 3369,
      "demonstr": 3370,
      "consequence": 3371,
      "expense": 3372,
      "focused": 3373,
      "bottle": 3374,
      "difference": 3375,
      "relax": 3376,
      "sculpting": 3377,
      "breathe": 3378,
      "conducted": 3379,
      "automat": 3380,
      "muscular": 3381,
      "challenges": 3382,
      "patronized": 3383,
      "regularly": 3384,
      "embarrassing": 3385,
      "accidentally": 3386,
      "individual": 3387,
      "agencies": 3388,
      "blip": 3389,
      "bizarre": 3390,
      "dream": 3391,
      "fruits": 3392,
      "glycemic": 3393,
      "ithm": 3394,
      "language": 3395,
      "laptop": 3396,
      "plymouth": 3397,
      "purely": 3398,
      "rational": 3399,
      "sacrifice": 3400,
      "tuned": 3401,
      "wrapped": 3402,
      "attention": 3403,
      "stimul": 3404,
      "algorithm": 3405,
      "september": 3406,
      "origin": 3407,
      "belonging": 3408,
      "nowadays": 3409,
      "peppered": 3410,
      "unbeliev": 3411,
      "yesterday": 3412,
      "considered": 3413,
      "exclusive": 3414,
      "processed": 3415,
      "naughty": 3416,
      "relapse": 3417,
      "familiar": 3418,
      "autopilot": 3419,
      "perspectives": 3420,
      "17": 3421,
      "22": 3422,
      "24": 3423,
      "26": 3424,
      "2k": 3425,
      "2am": 3426,
      "3am": 3427,
      "5g": 3428,
      "66": 3429,
      "80": 3430,
      "99": 3431,
      "awe": 3432,
      "aver": 3433,
      "aur": 3434,
      "apart": 3435,
      "award": 3436,
      "ames": 3437,
      "ahead": 3438,
      "azz": 3439,
      "agency": 3440,
      "acade": 3441,
      "azing": 3442,
      "bb": 3443,
      "bs": 3444,
      "bat": 3445,
      "bow": 3446,
      "bab": 3447,
      "bra": 3448,
      "bill": 3449,
      "blow": 3450,
      "batt": 3451,
      "cul": 3452,
      "cate": 3453,
      "cles": 3454,
      "clue": 3455,
      "candy": 3456,
      "cdotes": 3457,
      "dj": 3458,
      "din": 3459,
      "ding": 3460,
      "dut": 3461,
      "dated": 3462,
      "dread": 3463,
      "dms": 3464,
      "dance": 3465,
      "dick": 3466,
      "ec": 3467,
      "eq": 3468,
      "ech": 3469,
      "emy": 3470,
      "ell": 3471,
      "eye": 3472,
      "econ": 3473,
      "equ": 3474,
      "eup": 3475,
      "eving": 3476,
      "fle": 3477,
      "flo": 3478,
      "fans": 3479,
      "flow": 3480,
      "falle": 3481,
      "fford": 3482,
      "gq": 3483,
      "gan": 3484,
      "gion": 3485,
      "gam": 3486,
      "grain": 3487,
      "gates": 3488,
      "gang": 3489,
      "hon": 3490,
      "hort": 3491,
      "hil": 3492,
      "hill": 3493,
      "hits": 3494,
      "hicle": 3495,
      "ia": 3496,
      "ito": 3497,
      "ile": 3498,
      "ially": 3499,
      "ipo": 3500,
      "iel": 3501,
      "ience": 3502,
      "ioid": 3503,
      "iot": 3504,
      "jen": 3505,
      "jam": 3506,
      "james": 3507,
      "ky": 3508,
      "kit": 3509,
      "kill": 3510,
      "kilo": 3511,
      "la": 3512,
      "lst": 3513,
      "lac": 3514,
      "lone": 3515,
      "lting": 3516,
      "liness": 3517,
      "mill": 3518,
      "mans": 3519,
      "mpowered": 3520,
      "nu": 3521,
      "nit": 3522,
      "nar": 3523,
      "nes": 3524,
      "nic": 3525,
      "nast": 3526,
      "oce": 3527,
      "oper": 3528,
      "omen": 3529,
      "olution": 3530,
      "pit": 3531,
      "pal": 3532,
      "pli": 3533,
      "pha": 3534,
      "pac": 3535,
      "pab": 3536,
      "port": 3537,
      "pson": 3538,
      "pill": 3539,
      "pho": 3540,
      "page": 3541,
      "pick": 3542,
      "padd": 3543,
      "ptions": 3544,
      "pier": 3545,
      "porn": 3546,
      "rum": 3547,
      "rough": 3548,
      "ront": 3549,
      "sun": 3550,
      "sour": 3551,
      "shad": 3552,
      "sight": 3553,
      "scare": 3554,
      "swer": 3555,
      "sched": 3556,
      "sstal": 3557,
      "twe": 3558,
      "tab": 3559,
      "tall": 3560,
      "tte": 3561,
      "tread": 3562,
      "tty": 3563,
      "tandy": 3564,
      "trolls": 3565,
      "ug": 3566,
      "une": 3567,
      "uma": 3568,
      "ured": 3569,
      "uals": 3570,
      "vlo": 3571,
      "vpro": 3572,
      "vating": 3573,
      "vlog": 3574,
      "wling": 3575,
      "wished": 3576,
      "wallowing": 3577,
      "warm": 3578,
      "xim": 3579,
      "ym": 3580,
      "yo": 3581,
      "zed": 3582,
      "zone": 3583,
      "thor": 3584,
      "thick": 3585,
      "thie": 3586,
      "thom": 3587,
      "inhe": 3588,
      "inqu": 3589,
      "incomplete": 3590,
      "infect": 3591,
      "influ": 3592,
      "informed": 3593,
      "inspir": 3594,
      "inctively": 3595,
      "ank": 3596,
      "anity": 3597,
      "ancy": 3598,
      "anching": 3599,
      "angle": 3600,
      "anford": 3601,
      "angry": 3602,
      "themes": 3603,
      "atshirts": 3604,
      "rele": 3605,
      "rema": 3606,
      "reser": 3607,
      "remin": 3608,
      "remit": 3609,
      "reap": 3610,
      "revo": 3611,
      "resist": 3612,
      "recogn": 3613,
      "recording": 3614,
      "repul": 3615,
      "revert": 3616,
      "requi": 3617,
      "oned": 3618,
      "onav": 3619,
      "onhole": 3620,
      "ingrained": 3621,
      "towe": 3622,
      "tobac": 3623,
      "town": 3624,
      "toggle": 3625,
      "itant": 3626,
      "vey": 3627,
      "vere": 3628,
      "vember": 3629,
      "vehicle": 3630,
      "strain": 3631,
      "staff": 3632,
      "stmas": 3633,
      "stanford": 3634,
      "meas": 3635,
      "meter": 3636,
      "member": 3637,
      "alar": 3638,
      "allo": 3639,
      "seat": 3640,
      "seep": 3641,
      "secur": 3642,
      "section": 3643,
      "sempowered": 3644,
      "severe": 3645,
      "thatch": 3646,
      "ory": 3647,
      "isms": 3648,
      "bees": 3649,
      "bend": 3650,
      "beating": 3651,
      "belly": 3652,
      "lection": 3653,
      "legs": 3654,
      "enem": 3655,
      "ency": 3656,
      "encoura": 3657,
      "enemy": 3658,
      "enomen": 3659,
      "asset": 3660,
      "ashed": 3661,
      "lies": 3662,
      "ermost": 3663,
      "aring": 3664,
      "arti": 3665,
      "arant": 3666,
      "armed": 3667,
      "kept": 3668,
      "kets": 3669,
      "keys": 3670,
      "soli": 3671,
      "solo": 3672,
      "chri": 3673,
      "chun": 3674,
      "chine": 3675,
      "chasing": 3676,
      "chelle": 3677,
      "wed": 3678,
      "weir": 3679,
      "goti": 3680,
      "tip": 3681,
      "tied": 3682,
      "tight": 3683,
      "ticip": 3684,
      "liked": 3685,
      "likelihood": 3686,
      "cam": 3687,
      "cage": 3688,
      "caused": 3689,
      "cades": 3690,
      "campa": 3691,
      "caffe": 3692,
      "idiot": 3693,
      "feren": 3694,
      "features": 3695,
      "febru": 3696,
      "acy": 3697,
      "acter": 3698,
      "acked": 3699,
      "account": 3700,
      "actors": 3701,
      "forgotten": 3702,
      "rolling": 3703,
      "outermost": 3704,
      "pelot": 3705,
      "peers": 3706,
      "pester": 3707,
      "abuse": 3708,
      "wiring": 3709,
      "geonhole": 3710,
      "ghs": 3711,
      "cose": 3712,
      "cover": 3713,
      "copped": 3714,
      "cohort": 3715,
      "los": 3716,
      "loye": 3717,
      "loves": 3718,
      "locked": 3719,
      "nore": 3720,
      "nology": 3721,
      "november": 3722,
      "mom": 3723,
      "mode": 3724,
      "mood": 3725,
      "moves": 3726,
      "movie": 3727,
      "mobi": 3728,
      "uses": 3729,
      "useless": 3730,
      "ication": 3731,
      "ify": 3732,
      "whatsa": 3733,
      "neath": 3734,
      "negoti": 3735,
      "thinks": 3736,
      "hey": 3737,
      "heal": 3738,
      "hell": 3739,
      "held": 3740,
      "usted": 3741,
      "def": 3742,
      "dear": 3743,
      "demo": 3744,
      "dece": 3745,
      "decre": 3746,
      "debt": 3747,
      "depressed": 3748,
      "default": 3749,
      "devote": 3750,
      "decades": 3751,
      "unreal": 3752,
      "uncertain": 3753,
      "unhappiness": 3754,
      "unconscious": 3755,
      "unknown": 3756,
      "unquote": 3757,
      "uncomfortable": 3758,
      "unhelpful": 3759,
      "unsurprising": 3760,
      "pocus": 3761,
      "suit": 3762,
      "suade": 3763,
      "iring": 3764,
      "irus": 3765,
      "irates": 3766,
      "ntly": 3767,
      "magaz": 3768,
      "maxim": 3769,
      "machine": 3770,
      "arely": 3771,
      "arently": 3772,
      "worse": 3773,
      "selfish": 3774,
      "admin": 3775,
      "cony": 3776,
      "concer": 3777,
      "conceive": 3778,
      "confirm": 3779,
      "concentr": 3780,
      "rame": 3781,
      "raff": 3782,
      "raise": 3783,
      "cement": 3784,
      "ception": 3785,
      "timelines": 3786,
      "perfection": 3787,
      "perception": 3788,
      "cance": 3789,
      "excess": 3790,
      "exchange": 3791,
      "exhi": 3792,
      "saving": 3793,
      "imate": 3794,
      "immu": 3795,
      "impose": 3796,
      "ques": 3797,
      "quot": 3798,
      "quality": 3799,
      "wheel": 3800,
      "combin": 3801,
      "wants": 3802,
      "terrible": 3803,
      "biting": 3804,
      "tea": 3805,
      "tem": 3806,
      "test": 3807,
      "tested": 3808,
      "teasing": 3809,
      "donate": 3810,
      "acted": 3811,
      "whereas": 3812,
      "whilst": 3813,
      "proved": 3814,
      "proven": 3815,
      "provid": 3816,
      "diaries": 3817,
      "disempowered": 3818,
      "amb": 3819,
      "ampli": 3820,
      "urges": 3821,
      "urgent": 3822,
      "sorted": 3823,
      "shut": 3824,
      "shall": 3825,
      "anytime": 3826,
      "everywhere": 3827,
      "whom": 3828,
      "whose": 3829,
      "ends": 3830,
      "tasted": 3831,
      "plant": 3832,
      "plate": 3833,
      "plast": 3834,
      "plates": 3835,
      "plug": 3836,
      "startup": 3837,
      "inevit": 3838,
      "preem": 3839,
      "prepar": 3840,
      "prescri": 3841,
      "predomin": 3842,
      "prevent": 3843,
      "preconceive": 3844,
      "stud": 3845,
      "intact": 3846,
      "ctu": 3847,
      "changer": 3848,
      "chances": 3849,
      "changes": 3850,
      "ignore": 3851,
      "gastri": 3852,
      "ilty": 3853,
      "overcoming": 3854,
      "fulness": 3855,
      "item": 3856,
      "boss": 3857,
      "bored": 3858,
      "chopper": 3859,
      "sonance": 3860,
      "abled": 3861,
      "cream": 3862,
      "creatures": 3863,
      "ffy": 3864,
      "ffic": 3865,
      "guide": 3866,
      "guarant": 3867,
      "guilty": 3868,
      "hocus": 3869,
      "hobb": 3870,
      "vious": 3871,
      "redu": 3872,
      "redund": 3873,
      "wellness": 3874,
      "impul": 3875,
      "implore": 3876,
      "stored": 3877,
      "izon": 3878,
      "spi": 3879,
      "sprinting": 3880,
      "spinning": 3881,
      "differ": 3882,
      "grass": 3883,
      "forever": 3884,
      "underneath": 3885,
      "rude": 3886,
      "spec": 3887,
      "speech": 3888,
      "offices": 3889,
      "learnt": 3890,
      "writer": 3891,
      "fake": 3892,
      "rently": 3893,
      "opt": 3894,
      "opioid": 3895,
      "parts": 3896,
      "lessness": 3897,
      "formative": 3898,
      "decent": 3899,
      "socializing": 3900,
      "brid": 3901,
      "branching": 3902,
      "marked": 3903,
      "insight": 3904,
      "insanity": 3905,
      "ishment": 3906,
      "beforehand": 3907,
      "ister": 3908,
      "istant": 3909,
      "pause": 3910,
      "papar": 3911,
      "pages": 3912,
      "painting": 3913,
      "tickets": 3914,
      "finish": 3915,
      "assistant": 3916,
      "succeed": 3917,
      "emirates": 3918,
      "carve": 3919,
      "carame": 3920,
      "honesty": 3921,
      "buzz": 3922,
      "built": 3923,
      "bubble": 3924,
      "joke": 3925,
      "bodies": 3926,
      "parked": 3927,
      "parado": 3928,
      "particip": 3929,
      "priate": 3930,
      "showed": 3931,
      "20k": 3932,
      "2019": 3933,
      "2023": 3934,
      "blend": 3935,
      "disrup": 3936,
      "dissonance": 3937,
      "helping": 3938,
      "missed": 3939,
      "proud": 3940,
      "instru": 3941,
      "instinctively": 3942,
      "affection": 3943,
      "finds": 3944,
      "minated": 3945,
      "smile": 3946,
      "smashed": 3947,
      "realizes": 3948,
      "phenomen": 3949,
      "motivating": 3950,
      "mani": 3951,
      "scary": 3952,
      "scrat": 3953,
      "scrolling": 3954,
      "adding": 3955,
      "added": 3956,
      "complic": 3957,
      "easily": 3958,
      "easiest": 3959,
      "foundations": 3960,
      "humility": 3961,
      "believer": 3962,
      "believing": 3963,
      "interrup": 3964,
      "breath": 3965,
      "courses": 3966,
      "rates": 3967,
      "rative": 3968,
      "trip": 3969,
      "tribes": 3970,
      "streak": 3971,
      "posted": 3972,
      "match": 3973,
      "mature": 3974,
      "clothes": 3975,
      "increased": 3976,
      "medal": 3977,
      "conditional": 3978,
      "conditions": 3979,
      "simplest": 3980,
      "desp": 3981,
      "desire": 3982,
      "despair": 3983,
      "ski": 3984,
      "missing": 3985,
      "youtuber": 3986,
      "confront": 3987,
      "speaks": 3988,
      "traum": 3989,
      "trapped": 3990,
      "traged": 3991,
      "trafford": 3992,
      "trauma": 3993,
      "trawling": 3994,
      "traffic": 3995,
      "waves": 3996,
      "menti": 3997,
      "mentor": 3998,
      "coronav": 3999,
      "dying": 4000,
      "ulture": 4001,
      "messed": 4002,
      "solution": 4003,
      "highest": 4004,
      "apply": 4005,
      "applies": 4006,
      "apparently": 4007,
      "fresh": 4008,
      "walked": 4009,
      "steps": 4010,
      "lecting": 4011,
      "lected": 4012,
      "lecture": 4013,
      "conversations": 4014,
      "stripped": 4015,
      "strikes": 4016,
      "seconds": 4017,
      "successfully": 4018,
      "curse": 4019,
      "examples": 4020,
      "extremit": 4021,
      "personalities": 4022,
      "numbers": 4023,
      "michelle": 4024,
      "keeping": 4025,
      "addicted": 4026,
      "sixth": 4027,
      "viral": 4028,
      "certainly": 4029,
      "bane": 4030,
      "bank": 4031,
      "drifting": 4032,
      "handy": 4033,
      "ots": 4034,
      "venge": 4035,
      "magic": 4036,
      "black": 4037,
      "bliss": 4038,
      "blank": 4039,
      "reframe": 4040,
      "rapid": 4041,
      "purposelessness": 4042,
      "route": 4043,
      "sale": 4044,
      "ifications": 4045,
      "studied": 4046,
      "homework": 4047,
      "script": 4048,
      "broad": 4049,
      "brother": 4050,
      "tons": 4051,
      "restaur": 4052,
      "bedroom": 4053,
      "movement": 4054,
      "perfectly": 4055,
      "direction": 4056,
      "viewed": 4057,
      "awful": 4058,
      "airport": 4059,
      "cleare": 4060,
      "evolution": 4061,
      "fiber": 4062,
      "imagined": 4063,
      "ysis": 4064,
      "supposed": 4065,
      "produce": 4066,
      "shorter": 4067,
      "doubts": 4068,
      "falling": 4069,
      "resulting": 4070,
      "supermodels": 4071,
      "events": 4072,
      "failing": 4073,
      "markets": 4074,
      "craziness": 4075,
      "development": 4076,
      "cris": 4077,
      "simply": 4078,
      "leads": 4079,
      "depressive": 4080,
      "ceos": 4081,
      "contrasting": 4082,
      "balcony": 4083,
      "function": 4084,
      "girlfriends": 4085,
      "mployed": 4086,
      "paypal": 4087,
      "treating": 4088,
      "scientist": 4089,
      "smarter": 4090,
      "smartest": 4091,
      "126": 4092,
      "film": 4093,
      "analy": 4094,
      "analysis": 4095,
      "country": 4096,
      "wondering": 4097,
      "environmental": 4098,
      "considering": 4099,
      "scores": 4100,
      "delivery": 4101,
      "shoot": 4102,
      "shopping": 4103,
      "financially": 4104,
      "waitress": 4105,
      "effectively": 4106,
      "nutritional": 4107,
      "bio": 4108,
      "biased": 4109,
      "bipolar": 4110,
      "patient": 4111,
      "pattern": 4112,
      "picking": 4113,
      "tends": 4114,
      "regulate": 4115,
      "straw": 4116,
      "rogan": 4117,
      "mainly": 4118,
      "adults": 4119,
      "technology": 4120,
      "amounts": 4121,
      "similarly": 4122,
      "classroom": 4123,
      "pursuing": 4124,
      "appropriate": 4125,
      "thousands": 4126,
      "catching": 4127,
      "grafting": 4128,
      "pondered": 4129,
      "snide": 4130,
      "sweatshirts": 4131,
      "involve": 4132,
      "involves": 4133,
      "sessions": 4134,
      "accomplished": 4135,
      "neuroscience": 4136,
      "scenes": 4137,
      "effects": 4138,
      "dedicate": 4139,
      "facet": 4140,
      "factors": 4141,
      "glad": 4142,
      "glass": 4143,
      "glazing": 4144,
      "sofa": 4145,
      "anticip": 4146,
      "religion": 4147,
      "repeat": 4148,
      "repeating": 4149,
      "respects": 4150,
      "charge": 4151,
      "character": 4152,
      "depth": 4153,
      "pressures": 4154,
      "offering": 4155,
      "emption": 4156,
      "empty": 4157,
      "employe": 4158,
      "practice": 4159,
      "interrogated": 4160,
      "meditate": 4161,
      "insecurity": 4162,
      "engagement": 4163,
      "collaborating": 4164,
      "bullied": 4165,
      "fluctu": 4166,
      "fluffy": 4167,
      "horic": 4168,
      "ivity": 4169,
      "micro": 4170,
      "package": 4171,
      "switching": 4172,
      "tvs": 4173,
      "winning": 4174,
      "invested": 4175,
      "reminds": 4176,
      "causes": 4177,
      "constant": 4178,
      "conclusive": 4179,
      "progression": 4180,
      "ambition": 4181,
      "ambitions": 4182,
      "responsible": 4183,
      "appear": 4184,
      "excuses": 4185,
      "sustainability": 4186,
      "climb": 4187,
      "drug": 4188,
      "hype": 4189,
      "hybrid": 4190,
      "nicot": 4191,
      "passions": 4192,
      "tours": 4193,
      "invalidates": 4194,
      "anecdotes": 4195,
      "rebounded": 4196,
      "separation": 4197,
      "limitations": 4198,
      "essential": 4199,
      "upsetting": 4200,
      "previously": 4201,
      "faith": 4202,
      "carrying": 4203,
      "calorie": 4204,
      "internalize": 4205,
      "internalized": 4206,
      "tricky": 4207,
      "powerlessness": 4208,
      "substit": 4209,
      "communication": 4210,
      "prioritizing": 4211,
      "strongly": 4212,
      "interests": 4213,
      "practical": 4214,
      "judg": 4215,
      "judge": 4216,
      "judged": 4217,
      "philosophers": 4218,
      "brilli": 4219,
      "crosstal": 4220,
      "sadness": 4221,
      "tiny": 4222,
      "tinnit": 4223,
      "window": 4224,
      "included": 4225,
      "including": 4226,
      "attachment": 4227,
      "release": 4228,
      "released": 4229,
      "remaining": 4230,
      "assumption": 4231,
      "assumptions": 4232,
      "articles": 4233,
      "chessboard": 4234,
      "wealthy": 4235,
      "caveat": 4236,
      "details": 4237,
      "admitting": 4238,
      "competent": 4239,
      "competitive": 4240,
      "transformative": 4241,
      "diagnose": 4242,
      "introspe": 4243,
      "intellect": 4244,
      "boost": 4245,
      "booze": 4246,
      "spirit": 4247,
      "grades": 4248,
      "monogam": 4249,
      "sensation": 4250,
      "traveling": 4251,
      "deliveroo": 4252,
      "cigarette": 4253,
      "pondering": 4254,
      "criticize": 4255,
      "investing": 4256,
      "contracts": 4257,
      "obsessively": 4258,
      "colleagues": 4259,
      "baked": 4260,
      "crucial": 4261,
      "cruise": 4262,
      "glide": 4263,
      "knock": 4264,
      "knocked": 4265,
      "muted": 4266,
      "slim": 4267,
      "scream": 4268,
      "slowly": 4269,
      "initial": 4270,
      "initially": 4271,
      "investor": 4272,
      "investors": 4273,
      "recorded": 4274,
      "stammer": 4275,
      "mechanisms": 4276,
      "methods": 4277,
      "beneficial": 4278,
      "liberating": 4279,
      "royce": 4280,
      "domino": 4281,
      "possessed": 4282,
      "possessions": 4283,
      "polarized": 4284,
      "consumed": 4285,
      "performance": 4286,
      "perceived": 4287,
      "naivety": 4288,
      "frustrated": 4289,
      "driveway": 4290,
      "nightclubs": 4291,
      "cheerful": 4292,
      "strategy": 4293,
      "ridicul": 4294,
      "dependency": 4295,
      "billionaires": 4296,
      "heavily": 4297,
      "heaviest": 4298,
      "determined": 4299,
      "cowell": 4300,
      "flipped": 4301,
      "glucose": 4302,
      "ladies": 4303,
      "pigeonhole": 4304,
      "passed": 4305,
      "punishment": 4306,
      "pizzas": 4307,
      "sandwich": 4308,
      "scales": 4309,
      "victory": 4310,
      "zero": 4311,
      "innate": 4312,
      "anchor": 4313,
      "angeles": 4314,
      "annoying": 4315,
      "renovating": 4316,
      "requested": 4317,
      "revelation": 4318,
      "repetition": 4319,
      "remarkably": 4320,
      "orientated": 4321,
      "encounter": 4322,
      "robbed": 4323,
      "debating": 4324,
      "unavoidable": 4325,
      "potential": 4326,
      "political": 4327,
      "suppress": 4328,
      "suffering": 4329,
      "adaptation": 4330,
      "indicator": 4331,
      "terrified": 4332,
      "uploading": 4333,
      "credit": 4334,
      "hoping": 4335,
      "luxury": 4336,
      "british": 4337,
      "historically": 4338,
      "john": 4339,
      "joining": 4340,
      "managing": 4341,
      "structure": 4342,
      "conflict": 4343,
      "freedom": 4344,
      "significantly": 4345,
      "commando": 4346,
      "american": 4347,
      "techniques": 4348,
      "catalo": 4349,
      "freelancer": 4350,
      "publisher": 4351,
      "affirmations": 4352,
      "mistake": 4353,
      "diagnosed": 4354,
      "snapshot": 4355,
      "demonstrated": 4356,
      "automatic": 4357,
      "dreaming": 4358,
      "rationale": 4359,
      "stimulation": 4360,
      "original": 4361,
      "unbelievably": 4362,
      "awesome": 4363,
      "average": 4364,
      "apartment": 4365,
      "azzi": 4366,
      "academic": 4367,
      "baby": 4368,
      "battle": 4369,
      "culminated": 4370,
      "duty": 4371,
      "euphoric": 4372,
      "fallen": 4373,
      "grains": 4374,
      "hilari": 4375,
      "jamie": 4376,
      "killing": 4377,
      "kilos": 4378,
      "lacking": 4379,
      "loneliness": 4380,
      "narrative": 4381,
      "nicer": 4382,
      "nasty": 4383,
      "ocean": 4384,
      "operation": 4385,
      "phase": 4386,
      "pablo": 4387,
      "pillow": 4388,
      "paddling": 4389,
      "sunday": 4390,
      "source": 4391,
      "schedule": 4392,
      "tabs": 4393,
      "treadmill": 4394,
      "unemployed": 4395,
      "vlogged": 4396,
      "thief": 4397,
      "thompson": 4398,
      "inherently": 4399,
      "infected": 4400,
      "influence": 4401,
      "inspiring": 4402,
      "relevant": 4403,
      "remains": 4404,
      "reminis": 4405,
      "revolution": 4406,
      "resistant": 4407,
      "required": 4408,
      "towel": 4409,
      "tobacco": 4410,
      "members": 4411,
      "alarming": 4412,
      "thatcher": 4413,
      "bending": 4414,
      "enemies": 4415,
      "christmas": 4416,
      "chunks": 4417,
      "weirdo": 4418,
      "campaign": 4419,
      "caffeine": 4420,
      "ferencing": 4421,
      "february": 4422,
      "peloton": 4423,
      "pestering": 4424,
      "mobile": 4425,
      "whatsapp": 4426,
      "december": 4427,
      "unrealistic": 4428,
      "maximize": 4429,
      "concentrate": 4430,
      "raffler": 4431,
      "excessive": 4432,
      "exhibit": 4433,
      "immune": 4434,
      "quotes": 4435,
      "combination": 4436,
      "amplified": 4437,
      "inevitable": 4438,
      "predominantly": 4439,
      "preconceived": 4440,
      "gastric": 4441,
      "guarante": 4442,
      "hobbies": 4443,
      "redundant": 4444,
      "paparazzi": 4445,
      "caramel": 4446,
      "participants": 4447,
      "complicated": 4448,
      "tragedy": 4449,
      "coronavirus": 4450,
      "extremities": 4451,
      "nicotine": 4452,
      "crosstalk": 4453,
      "tinnitus": 4454,
      "monogamous": 4455
    },
    "merges": [
      [
        "t",
        "h"
      ],
      [
        "i",
        "n"
      ],
      [
        "a",
        "n"
      ],
      [
        "o",
        "u"
      ],
      [
        "th",
        "e"
      ],
      [
        "a",
        "t"
      ],
      [
        "r",
        "e"
      ],
      [
        "o",
        "n"
      ],
      [
        "an",
        "d"
      ],
      [
        "in",
        "g"
      ],
      [
        "y",
        "ou"
      ],
      [
        "t",
        "o"
      ],
      [
        "i",
        "t"
      ],
      [
        "v",
        "e"
      ],
      [
        "s",
        "t"
      ],
      [
        "m",
        "e"
      ],
      [
        "a",
        "l"
      ],
      [
        "s",
        "e"
      ],
      [
        "th",
        "at"
      ],
      [
        "o",
        "r"
      ],
      [
        "i",
        "s"
      ],
      [
        "o",
        "f"
      ],
      [
        "b",
        "e"
      ],
      [
        "w",
        "h"
      ],
      [
        "l",
        "e"
      ],
      [
        "e",
        "n"
      ],
      [
        "a",
        "s"
      ],
      [
        "l",
        "i"
      ],
      [
        "o",
        "w"
      ],
      [
        "e",
        "r"
      ],
      [
        "a",
        "r"
      ],
      [
        "l",
        "y"
      ],
      [
        "k",
        "e"
      ],
      [
        "s",
        "o"
      ],
      [
        "h",
        "a"
      ],
      [
        "c",
        "h"
      ],
      [
        "w",
        "e"
      ],
      [
        "e",
        "d"
      ],
      [
        "a",
        "y"
      ],
      [
        "e",
        "s"
      ],
      [
        "g",
        "o"
      ],
      [
        "t",
        "i"
      ],
      [
        "m",
        "y"
      ],
      [
        "n",
        "ow"
      ],
      [
        "ve",
        "r"
      ],
      [
        "li",
        "ke"
      ],
      [
        "th",
        "is"
      ],
      [
        "c",
        "a"
      ],
      [
        "w",
        "as"
      ],
      [
        "th",
        "ing"
      ],
      [
        "i",
        "d"
      ],
      [
        "f",
        "e"
      ],
      [
        "a",
        "c"
      ],
      [
        "l",
        "l"
      ],
      [
        "f",
        "or"
      ],
      [
        "r",
        "o"
      ],
      [
        "d",
        "o"
      ],
      [
        "u",
        "t"
      ],
      [
        "k",
        "now"
      ],
      [
        "ou",
        "t"
      ],
      [
        "p",
        "e"
      ],
      [
        "a",
        "b"
      ],
      [
        "al",
        "ly"
      ],
      [
        "w",
        "i"
      ],
      [
        "g",
        "e"
      ],
      [
        "i",
        "on"
      ],
      [
        "g",
        "h"
      ],
      [
        "r",
        "i"
      ],
      [
        "on",
        "e"
      ],
      [
        "c",
        "o"
      ],
      [
        "l",
        "d"
      ],
      [
        "l",
        "o"
      ],
      [
        "n",
        "o"
      ],
      [
        "m",
        "o"
      ],
      [
        "p",
        "le"
      ],
      [
        "you",
        "r"
      ],
      [
        "u",
        "se"
      ],
      [
        "i",
        "c"
      ],
      [
        "i",
        "f"
      ],
      [
        "wh",
        "at"
      ],
      [
        "th",
        "in"
      ],
      [
        "n",
        "e"
      ],
      [
        "ha",
        "ve"
      ],
      [
        "the",
        "y"
      ],
      [
        "thin",
        "k"
      ],
      [
        "h",
        "e"
      ],
      [
        "al",
        "l"
      ],
      [
        "u",
        "st"
      ],
      [
        "d",
        "e"
      ],
      [
        "so",
        "me"
      ],
      [
        "b",
        "ut"
      ],
      [
        "u",
        "n"
      ],
      [
        "p",
        "o"
      ],
      [
        "be",
        "ca"
      ],
      [
        "s",
        "u"
      ],
      [
        "wi",
        "th"
      ],
      [
        "gh",
        "t"
      ],
      [
        "j",
        "ust"
      ],
      [
        "beca",
        "use"
      ],
      [
        "i",
        "r"
      ],
      [
        "n",
        "t"
      ],
      [
        "m",
        "a"
      ],
      [
        "an",
        "t"
      ],
      [
        "se",
        "l"
      ],
      [
        "y",
        "e"
      ],
      [
        "u",
        "m"
      ],
      [
        "a",
        "re"
      ],
      [
        "o",
        "ple"
      ],
      [
        "pe",
        "ople"
      ],
      [
        "w",
        "or"
      ],
      [
        "sel",
        "f"
      ],
      [
        "a",
        "d"
      ],
      [
        "ab",
        "out"
      ],
      [
        "c",
        "on"
      ],
      [
        "ver",
        "y"
      ],
      [
        "no",
        "t"
      ],
      [
        "the",
        "re"
      ],
      [
        "wh",
        "en"
      ],
      [
        "r",
        "a"
      ],
      [
        "ou",
        "ld"
      ],
      [
        "or",
        "t"
      ],
      [
        "c",
        "e"
      ],
      [
        "ti",
        "me"
      ],
      [
        "p",
        "er"
      ],
      [
        "c",
        "an"
      ],
      [
        "e",
        "x"
      ],
      [
        "w",
        "ay"
      ],
      [
        "s",
        "a"
      ],
      [
        "in",
        "d"
      ],
      [
        "i",
        "m"
      ],
      [
        "c",
        "i"
      ],
      [
        "u",
        "s"
      ],
      [
        "ar",
        "t"
      ],
      [
        "e",
        "l"
      ],
      [
        "k",
        "ing"
      ],
      [
        "u",
        "l"
      ],
      [
        "at",
        "ion"
      ],
      [
        "h",
        "ow"
      ],
      [
        "q",
        "u"
      ],
      [
        "wh",
        "e"
      ],
      [
        "ou",
        "r"
      ],
      [
        "co",
        "m"
      ],
      [
        "o",
        "d"
      ],
      [
        "es",
        "s"
      ],
      [
        "w",
        "ant"
      ],
      [
        "t",
        "er"
      ],
      [
        "b",
        "it"
      ],
      [
        "t",
        "e"
      ],
      [
        "d",
        "on"
      ],
      [
        "t",
        "r"
      ],
      [
        "ge",
        "t"
      ],
      [
        "li",
        "fe"
      ],
      [
        "p",
        "p"
      ],
      [
        "i",
        "ve"
      ],
      [
        "re",
        "ally"
      ],
      [
        "the",
        "r"
      ],
      [
        "go",
        "ing"
      ],
      [
        "thing",
        "s"
      ],
      [
        "ha",
        "d"
      ],
      [
        "s",
        "ay"
      ],
      [
        "at",
        "e"
      ],
      [
        "ac",
        "t"
      ],
      [
        "whe",
        "re"
      ],
      [
        "wh",
        "i"
      ],
      [
        "the",
        "n"
      ],
      [
        "me",
        "nt"
      ],
      [
        "d",
        "id"
      ],
      [
        "a",
        "h"
      ],
      [
        "p",
        "ro"
      ],
      [
        "s",
        "s"
      ],
      [
        "u",
        "p"
      ],
      [
        "d",
        "i"
      ],
      [
        "ye",
        "ah"
      ],
      [
        "a",
        "m"
      ],
      [
        "ac",
        "k"
      ],
      [
        "whi",
        "ch"
      ],
      [
        "u",
        "r"
      ],
      [
        "mo",
        "re"
      ],
      [
        "f",
        "o"
      ],
      [
        "s",
        "ort"
      ],
      [
        "n",
        "d"
      ],
      [
        "s",
        "h"
      ],
      [
        "an",
        "y"
      ],
      [
        "e",
        "very"
      ],
      [
        "wh",
        "o"
      ],
      [
        "o",
        "k"
      ],
      [
        "en",
        "d"
      ],
      [
        "the",
        "m"
      ],
      [
        "go",
        "t"
      ],
      [
        "e",
        "ve"
      ],
      [
        "ro",
        "m"
      ],
      [
        "ti",
        "on"
      ],
      [
        "fe",
        "el"
      ],
      [
        "co",
        "me"
      ],
      [
        "f",
        "rom"
      ],
      [
        "t",
        "a"
      ],
      [
        "w",
        "ould"
      ],
      [
        "ma",
        "ke"
      ],
      [
        "en",
        "t"
      ],
      [
        "d",
        "ay"
      ],
      [
        "p",
        "l"
      ],
      [
        "the",
        "ir"
      ],
      [
        "st",
        "art"
      ],
      [
        "ow",
        "n"
      ],
      [
        "in",
        "e"
      ],
      [
        "e",
        "st"
      ],
      [
        "p",
        "re"
      ],
      [
        "st",
        "u"
      ],
      [
        "ye",
        "ar"
      ],
      [
        "b",
        "ack"
      ],
      [
        "wh",
        "y"
      ],
      [
        "in",
        "t"
      ],
      [
        "c",
        "t"
      ],
      [
        "d",
        "er"
      ],
      [
        "v",
        "ing"
      ],
      [
        "ch",
        "an"
      ],
      [
        "ri",
        "ght"
      ],
      [
        "some",
        "thing"
      ],
      [
        "i",
        "g"
      ],
      [
        "ha",
        "bit"
      ],
      [
        "g",
        "a"
      ],
      [
        "ou",
        "nd"
      ],
      [
        "u",
        "ally"
      ],
      [
        "my",
        "self"
      ],
      [
        "i",
        "ght"
      ],
      [
        "i",
        "l"
      ],
      [
        "o",
        "ver"
      ],
      [
        "o",
        "ther"
      ],
      [
        "ar",
        "d"
      ],
      [
        "ha",
        "pp"
      ],
      [
        "o",
        "se"
      ],
      [
        "ou",
        "gh"
      ],
      [
        "be",
        "ing"
      ],
      [
        "lo",
        "t"
      ],
      [
        "e",
        "p"
      ],
      [
        "f",
        "ul"
      ],
      [
        "it",
        "e"
      ],
      [
        "k",
        "ind"
      ],
      [
        "b",
        "o"
      ],
      [
        "ou",
        "s"
      ],
      [
        "we",
        "re"
      ],
      [
        "way",
        "s"
      ],
      [
        "ch",
        "o"
      ],
      [
        "wi",
        "ll"
      ],
      [
        "a",
        "st"
      ],
      [
        "do",
        "ing"
      ],
      [
        "wor",
        "k"
      ],
      [
        "s",
        "on"
      ],
      [
        "th",
        "ose"
      ],
      [
        "se",
        "e"
      ],
      [
        "it",
        "t"
      ],
      [
        "ab",
        "le"
      ],
      [
        "mo",
        "st"
      ],
      [
        "ne",
        "w"
      ],
      [
        "tr",
        "y"
      ],
      [
        "did",
        "n"
      ],
      [
        "in",
        "to"
      ],
      [
        "m",
        "u"
      ],
      [
        "e",
        "ver"
      ],
      [
        "me",
        "an"
      ],
      [
        "go",
        "od"
      ],
      [
        "your",
        "self"
      ],
      [
        "c",
        "re"
      ],
      [
        "f",
        "f"
      ],
      [
        "i",
        "ll"
      ],
      [
        "id",
        "e"
      ],
      [
        "sa",
        "me"
      ],
      [
        "g",
        "u"
      ],
      [
        "act",
        "ually"
      ],
      [
        "h",
        "o"
      ],
      [
        "mu",
        "ch"
      ],
      [
        "ke",
        "d"
      ],
      [
        "per",
        "son"
      ],
      [
        "v",
        "i"
      ],
      [
        "al",
        "ways"
      ],
      [
        "qu",
        "est"
      ],
      [
        "re",
        "d"
      ],
      [
        "it",
        "y"
      ],
      [
        "be",
        "r"
      ],
      [
        "we",
        "ll"
      ],
      [
        "im",
        "p"
      ],
      [
        "ca",
        "st"
      ],
      [
        "quest",
        "ion"
      ],
      [
        "a",
        "ch"
      ],
      [
        "e",
        "t"
      ],
      [
        "be",
        "en"
      ],
      [
        "g",
        "ive"
      ],
      [
        "on",
        "g"
      ],
      [
        "ve",
        "s"
      ],
      [
        "po",
        "int"
      ],
      [
        "sa",
        "id"
      ],
      [
        "l",
        "u"
      ],
      [
        "ra",
        "in"
      ],
      [
        "con",
        "t"
      ],
      [
        "f",
        "ri"
      ],
      [
        "en",
        "ce"
      ],
      [
        "s",
        "to"
      ],
      [
        "t",
        "al"
      ],
      [
        "b",
        "y"
      ],
      [
        "d",
        "cast"
      ],
      [
        "g",
        "re"
      ],
      [
        "i",
        "z"
      ],
      [
        "re",
        "al"
      ],
      [
        "po",
        "dcast"
      ],
      [
        "s",
        "p"
      ],
      [
        "stu",
        "ff"
      ],
      [
        "d",
        "if"
      ],
      [
        "u",
        "re"
      ],
      [
        "pro",
        "b"
      ],
      [
        "g",
        "r"
      ],
      [
        "o",
        "b"
      ],
      [
        "t",
        "ing"
      ],
      [
        "ne",
        "ed"
      ],
      [
        "fo",
        "re"
      ],
      [
        "year",
        "s"
      ],
      [
        "some",
        "one"
      ],
      [
        "fri",
        "end"
      ],
      [
        "c",
        "ess"
      ],
      [
        "p",
        "s"
      ],
      [
        "un",
        "der"
      ],
      [
        "b",
        "ig"
      ],
      [
        "h",
        "as"
      ],
      [
        "r",
        "u"
      ],
      [
        "th",
        "r"
      ],
      [
        "al",
        "so"
      ],
      [
        "so",
        "ci"
      ],
      [
        "chan",
        "ge"
      ],
      [
        "n",
        "a"
      ],
      [
        "c",
        "k"
      ],
      [
        "s",
        "pe"
      ],
      [
        "of",
        "f"
      ],
      [
        "at",
        "ed"
      ],
      [
        "ic",
        "e"
      ],
      [
        "d",
        "own"
      ],
      [
        "f",
        "ir"
      ],
      [
        "le",
        "ar"
      ],
      [
        "eve",
        "n"
      ],
      [
        "p",
        "ut"
      ],
      [
        "st",
        "and"
      ],
      [
        "ab",
        "ly"
      ],
      [
        "r",
        "y"
      ],
      [
        "v",
        "al"
      ],
      [
        "w",
        "r"
      ],
      [
        "do",
        "es"
      ],
      [
        "c",
        "ould"
      ],
      [
        "f",
        "a"
      ],
      [
        "wor",
        "ld"
      ],
      [
        "th",
        "an"
      ],
      [
        "in",
        "ess"
      ],
      [
        "the",
        "se"
      ],
      [
        "re",
        "nt"
      ],
      [
        "al",
        "th"
      ],
      [
        "se",
        "d"
      ],
      [
        "ne",
        "ver"
      ],
      [
        "b",
        "us"
      ],
      [
        "w",
        "o"
      ],
      [
        "o",
        "p"
      ],
      [
        "ou",
        "ght"
      ],
      [
        "dif",
        "fe"
      ],
      [
        "thr",
        "ough"
      ],
      [
        "fir",
        "st"
      ],
      [
        "b",
        "rain"
      ],
      [
        "start",
        "ed"
      ],
      [
        "p",
        "art"
      ],
      [
        "le",
        "ss"
      ],
      [
        "li",
        "st"
      ],
      [
        "te",
        "ll"
      ],
      [
        "l",
        "ast"
      ],
      [
        "l",
        "itt"
      ],
      [
        "th",
        "ought"
      ],
      [
        "ar",
        "y"
      ],
      [
        "litt",
        "le"
      ],
      [
        "g",
        "y"
      ],
      [
        "h",
        "one"
      ],
      [
        "u",
        "e"
      ],
      [
        "an",
        "s"
      ],
      [
        "time",
        "s"
      ],
      [
        "happ",
        "en"
      ],
      [
        "diffe",
        "rent"
      ],
      [
        "o",
        "l"
      ],
      [
        "t",
        "en"
      ],
      [
        "lo",
        "ve"
      ],
      [
        "prob",
        "ably"
      ],
      [
        "under",
        "stand"
      ],
      [
        "e",
        "k"
      ],
      [
        "at",
        "ing"
      ],
      [
        "le",
        "d"
      ],
      [
        "as",
        "on"
      ],
      [
        "for",
        "m"
      ],
      [
        "de",
        "c"
      ],
      [
        "say",
        "ing"
      ],
      [
        "ga",
        "in"
      ],
      [
        "soci",
        "al"
      ],
      [
        "a",
        "k"
      ],
      [
        "b",
        "r"
      ],
      [
        "g",
        "en"
      ],
      [
        "m",
        "ar"
      ],
      [
        "in",
        "s"
      ],
      [
        "re",
        "ad"
      ],
      [
        "is",
        "h"
      ],
      [
        "we",
        "ek"
      ],
      [
        "a",
        "ge"
      ],
      [
        "i",
        "es"
      ],
      [
        "be",
        "fore"
      ],
      [
        "he",
        "alth"
      ],
      [
        "ta",
        "ke"
      ],
      [
        "list",
        "en"
      ],
      [
        "a",
        "gain"
      ],
      [
        "m",
        "ind"
      ],
      [
        "m",
        "any"
      ],
      [
        "as",
        "k"
      ],
      [
        "per",
        "i"
      ],
      [
        "s",
        "it"
      ],
      [
        "re",
        "ason"
      ],
      [
        "st",
        "ill"
      ],
      [
        "every",
        "thing"
      ],
      [
        "i",
        "st"
      ],
      [
        "p",
        "a"
      ],
      [
        "try",
        "ing"
      ],
      [
        "ti",
        "c"
      ],
      [
        "ac",
        "e"
      ],
      [
        "think",
        "ing"
      ],
      [
        "sh",
        "ould"
      ],
      [
        "f",
        "in"
      ],
      [
        "m",
        "s"
      ],
      [
        "m",
        "ight"
      ],
      [
        "as",
        "s"
      ],
      [
        "er",
        "s"
      ],
      [
        "go",
        "al"
      ],
      [
        "ma",
        "de"
      ],
      [
        "bo",
        "ok"
      ],
      [
        "l",
        "ong"
      ],
      [
        "m",
        "ay"
      ],
      [
        "s",
        "ci"
      ],
      [
        "t",
        "y"
      ],
      [
        "le",
        "t"
      ],
      [
        "he",
        "l"
      ],
      [
        "su",
        "c"
      ],
      [
        "habit",
        "s"
      ],
      [
        "e",
        "m"
      ],
      [
        "h",
        "is"
      ],
      [
        "o",
        "ld"
      ],
      [
        "t",
        "wo"
      ],
      [
        "imp",
        "ort"
      ],
      [
        "bus",
        "iness"
      ],
      [
        "c",
        "ar"
      ],
      [
        "w",
        "ard"
      ],
      [
        "was",
        "n"
      ],
      [
        "for",
        "t"
      ],
      [
        "hone",
        "st"
      ],
      [
        "suc",
        "cess"
      ],
      [
        "re",
        "l"
      ],
      [
        "be",
        "come"
      ],
      [
        "ver",
        "s"
      ],
      [
        "ic",
        "ally"
      ],
      [
        "b",
        "u"
      ],
      [
        "g",
        "g"
      ],
      [
        "j",
        "o"
      ],
      [
        "u",
        "h"
      ],
      [
        "re",
        "me"
      ],
      [
        "lo",
        "ok"
      ],
      [
        "wor",
        "king"
      ],
      [
        "may",
        "be"
      ],
      [
        "import",
        "ant"
      ],
      [
        "b",
        "od"
      ],
      [
        "n",
        "ing"
      ],
      [
        "s",
        "ha"
      ],
      [
        "ar",
        "ound"
      ],
      [
        "com",
        "ple"
      ],
      [
        "c",
        "al"
      ],
      [
        "g",
        "on"
      ],
      [
        "m",
        "on"
      ],
      [
        "p",
        "ar"
      ],
      [
        "p",
        "ri"
      ],
      [
        "s",
        "im"
      ],
      [
        "s",
        "how"
      ],
      [
        "be",
        "t"
      ],
      [
        "ti",
        "v"
      ],
      [
        "mo",
        "ment"
      ],
      [
        "ne",
        "x"
      ],
      [
        "he",
        "re"
      ],
      [
        "m",
        "one"
      ],
      [
        "ex",
        "peri"
      ],
      [
        "qu",
        "ite"
      ],
      [
        "want",
        "ed"
      ],
      [
        "feel",
        "ing"
      ],
      [
        "friend",
        "s"
      ],
      [
        "gon",
        "na"
      ],
      [
        "2",
        "0"
      ],
      [
        "b",
        "le"
      ],
      [
        "d",
        "is"
      ],
      [
        "m",
        "ber"
      ],
      [
        "w",
        "at"
      ],
      [
        "w",
        "ent"
      ],
      [
        "se",
        "r"
      ],
      [
        "use",
        "d"
      ],
      [
        "hel",
        "p"
      ],
      [
        "mone",
        "y"
      ],
      [
        "m",
        "is"
      ],
      [
        "lo",
        "o"
      ],
      [
        "ic",
        "al"
      ],
      [
        "el",
        "se"
      ],
      [
        "comple",
        "te"
      ],
      [
        "a",
        "v"
      ],
      [
        "p",
        "r"
      ],
      [
        "s",
        "he"
      ],
      [
        "in",
        "st"
      ],
      [
        "is",
        "ion"
      ],
      [
        "li",
        "ve"
      ],
      [
        "lear",
        "n"
      ],
      [
        "bod",
        "y"
      ],
      [
        "a",
        "f"
      ],
      [
        "get",
        "ting"
      ],
      [
        "nex",
        "t"
      ],
      [
        "f",
        "ind"
      ],
      [
        "m",
        "in"
      ],
      [
        "s",
        "m"
      ],
      [
        "ha",
        "ving"
      ],
      [
        "what",
        "ever"
      ],
      [
        "sh",
        "i"
      ],
      [
        "real",
        "iz"
      ],
      [
        "dec",
        "ision"
      ],
      [
        "1",
        "0"
      ],
      [
        "p",
        "h"
      ],
      [
        "an",
        "ce"
      ],
      [
        "se",
        "n"
      ],
      [
        "se",
        "s"
      ],
      [
        "be",
        "st"
      ],
      [
        "mo",
        "tiv"
      ],
      [
        "ic",
        "k"
      ],
      [
        "ex",
        "act"
      ],
      [
        "m",
        "an"
      ],
      [
        "n",
        "ess"
      ],
      [
        "p",
        "ow"
      ],
      [
        "s",
        "c"
      ],
      [
        "ad",
        "d"
      ],
      [
        "com",
        "p"
      ],
      [
        "ous",
        "ly"
      ],
      [
        "et",
        "y"
      ],
      [
        "e",
        "as"
      ],
      [
        "f",
        "ound"
      ],
      [
        "h",
        "um"
      ],
      [
        "i",
        "e"
      ],
      [
        "y",
        "es"
      ],
      [
        "to",
        "o"
      ],
      [
        "me",
        "r"
      ],
      [
        "be",
        "li"
      ],
      [
        "ti",
        "ve"
      ],
      [
        "ur",
        "n"
      ],
      [
        "c",
        "ou"
      ],
      [
        "c",
        "ha"
      ],
      [
        "k",
        "id"
      ],
      [
        "in",
        "ter"
      ],
      [
        "ve",
        "l"
      ],
      [
        "se",
        "t"
      ],
      [
        "is",
        "n"
      ],
      [
        "en",
        "ti"
      ],
      [
        "su",
        "re"
      ],
      [
        "with",
        "out"
      ],
      [
        "who",
        "le"
      ],
      [
        "b",
        "re"
      ],
      [
        "c",
        "l"
      ],
      [
        "c",
        "our"
      ],
      [
        "l",
        "t"
      ],
      [
        "r",
        "at"
      ],
      [
        "s",
        "i"
      ],
      [
        "s",
        "ide"
      ],
      [
        "t",
        "ri"
      ],
      [
        "st",
        "re"
      ],
      [
        "ti",
        "l"
      ],
      [
        "ca",
        "re"
      ],
      [
        "lo",
        "g"
      ],
      [
        "de",
        "l"
      ],
      [
        "un",
        "til"
      ],
      [
        "po",
        "st"
      ],
      [
        "po",
        "se"
      ],
      [
        "ma",
        "z"
      ],
      [
        "happ",
        "y"
      ],
      [
        "br",
        "and"
      ],
      [
        "reme",
        "mber"
      ],
      [
        "m",
        "at"
      ],
      [
        "n",
        "er"
      ],
      [
        "o",
        "h"
      ],
      [
        "p",
        "t"
      ],
      [
        "w",
        "on"
      ],
      [
        "be",
        "ha"
      ],
      [
        "li",
        "ves"
      ],
      [
        "tion",
        "s"
      ],
      [
        "make",
        "s"
      ],
      [
        "pl",
        "ace"
      ],
      [
        "mean",
        "ing"
      ],
      [
        "vi",
        "or"
      ],
      [
        "beha",
        "vior"
      ],
      [
        "b",
        "ad"
      ],
      [
        "c",
        "lo"
      ],
      [
        "h",
        "im"
      ],
      [
        "h",
        "ard"
      ],
      [
        "i",
        "ly"
      ],
      [
        "y",
        "cho"
      ],
      [
        "in",
        "cre"
      ],
      [
        "at",
        "ive"
      ],
      [
        "it",
        "ion"
      ],
      [
        "me",
        "d"
      ],
      [
        "fe",
        "ct"
      ],
      [
        "con",
        "d"
      ],
      [
        "fo",
        "od"
      ],
      [
        "ta",
        "in"
      ],
      [
        "cont",
        "ro"
      ],
      [
        "ps",
        "ycho"
      ],
      [
        "sim",
        "ple"
      ],
      [
        "d",
        "es"
      ],
      [
        "g",
        "er"
      ],
      [
        "h",
        "i"
      ],
      [
        "o",
        "m"
      ],
      [
        "s",
        "k"
      ],
      [
        "s",
        "cho"
      ],
      [
        "an",
        "x"
      ],
      [
        "st",
        "ru"
      ],
      [
        "of",
        "ten"
      ],
      [
        "ma",
        "king"
      ],
      [
        "whe",
        "ther"
      ],
      [
        "ter",
        "m"
      ],
      [
        "tr",
        "ins"
      ],
      [
        "ate",
        "ly"
      ],
      [
        "every",
        "one"
      ],
      [
        "day",
        "s"
      ],
      [
        "pre",
        "t"
      ],
      [
        "gu",
        "y"
      ],
      [
        "tal",
        "k"
      ],
      [
        "gre",
        "at"
      ],
      [
        "does",
        "n"
      ],
      [
        "mis",
        "s"
      ],
      [
        "pow",
        "er"
      ],
      [
        "scho",
        "ol"
      ],
      [
        "c",
        "er"
      ],
      [
        "t",
        "u"
      ],
      [
        "you",
        "tu"
      ],
      [
        "ar",
        "ch"
      ],
      [
        "ut",
        "e"
      ],
      [
        "some",
        "times"
      ],
      [
        "su",
        "b"
      ],
      [
        "con",
        "f"
      ],
      [
        "ul",
        "ar"
      ],
      [
        "di",
        "ary"
      ],
      [
        "ok",
        "ay"
      ],
      [
        "spe",
        "ak"
      ],
      [
        "complete",
        "ly"
      ],
      [
        "af",
        "ter"
      ],
      [
        "cour",
        "se"
      ],
      [
        "anx",
        "i"
      ],
      [
        "a",
        "g"
      ],
      [
        "d",
        "one"
      ],
      [
        "t",
        "ra"
      ],
      [
        "t",
        "urn"
      ],
      [
        "w",
        "a"
      ],
      [
        "re",
        "ward"
      ],
      [
        "se",
        "arch"
      ],
      [
        "ca",
        "me"
      ],
      [
        "su",
        "ch"
      ],
      [
        "sel",
        "ves"
      ],
      [
        "ex",
        "am"
      ],
      [
        "ment",
        "al"
      ],
      [
        "tal",
        "king"
      ],
      [
        "gy",
        "m"
      ],
      [
        "jo",
        "y"
      ],
      [
        "wat",
        "ch"
      ],
      [
        "beli",
        "eve"
      ],
      [
        "c",
        "es"
      ],
      [
        "c",
        "tive"
      ],
      [
        "p",
        "u"
      ],
      [
        "p",
        "ur"
      ],
      [
        "r",
        "un"
      ],
      [
        "s",
        "y"
      ],
      [
        "s",
        "le"
      ],
      [
        "me",
        "n"
      ],
      [
        "se",
        "en"
      ],
      [
        "er",
        "ally"
      ],
      [
        "ci",
        "ally"
      ],
      [
        "ig",
        "n"
      ],
      [
        "gu",
        "ess"
      ],
      [
        "val",
        "ue"
      ],
      [
        "contro",
        "l"
      ],
      [
        "stru",
        "gg"
      ],
      [
        "c",
        "or"
      ],
      [
        "d",
        "y"
      ],
      [
        "f",
        "am"
      ],
      [
        "j",
        "ob"
      ],
      [
        "s",
        "at"
      ],
      [
        "to",
        "p"
      ],
      [
        "to",
        "ge"
      ],
      [
        "ve",
        "d"
      ],
      [
        "le",
        "vel"
      ],
      [
        "en",
        "ough"
      ],
      [
        "ul",
        "t"
      ],
      [
        "pp",
        "ort"
      ],
      [
        "than",
        "k"
      ],
      [
        "bet",
        "ter"
      ],
      [
        "sen",
        "se"
      ],
      [
        "toge",
        "ther"
      ],
      [
        "a",
        "king"
      ],
      [
        "c",
        "ra"
      ],
      [
        "c",
        "us"
      ],
      [
        "i",
        "ld"
      ],
      [
        "l",
        "ow"
      ],
      [
        "l",
        "ine"
      ],
      [
        "v",
        "ice"
      ],
      [
        "re",
        "search"
      ],
      [
        "me",
        "s"
      ],
      [
        "le",
        "s"
      ],
      [
        "so",
        "lu"
      ],
      [
        "es",
        "pe"
      ],
      [
        "com",
        "ing"
      ],
      [
        "com",
        "fort"
      ],
      [
        "pl",
        "ay"
      ],
      [
        "pre",
        "ss"
      ],
      [
        "sp",
        "on"
      ],
      [
        "mon",
        "th"
      ],
      [
        "motiv",
        "ation"
      ],
      [
        "hi",
        "gh"
      ],
      [
        "espe",
        "cially"
      ],
      [
        "a",
        "pp"
      ],
      [
        "e",
        "f"
      ],
      [
        "f",
        "re"
      ],
      [
        "i",
        "re"
      ],
      [
        "j",
        "our"
      ],
      [
        "m",
        "it"
      ],
      [
        "m",
        "il"
      ],
      [
        "w",
        "al"
      ],
      [
        "w",
        "er"
      ],
      [
        "an",
        "other"
      ],
      [
        "on",
        "ly"
      ],
      [
        "st",
        "ep"
      ],
      [
        "me",
        "di"
      ],
      [
        "le",
        "ct"
      ],
      [
        "co",
        "l"
      ],
      [
        "un",
        "d"
      ],
      [
        "con",
        "vers"
      ],
      [
        "pp",
        "ed"
      ],
      [
        "pret",
        "ty"
      ],
      [
        "anxi",
        "ety"
      ],
      [
        "convers",
        "ation"
      ],
      [
        "a",
        "u"
      ],
      [
        "g",
        "ed"
      ],
      [
        "h",
        "er"
      ],
      [
        "h",
        "our"
      ],
      [
        "l",
        "it"
      ],
      [
        "o",
        "id"
      ],
      [
        "in",
        "form"
      ],
      [
        "re",
        "solu"
      ],
      [
        "to",
        "r"
      ],
      [
        "st",
        "ri"
      ],
      [
        "al",
        "most"
      ],
      [
        "se",
        "cond"
      ],
      [
        "no",
        "thing"
      ],
      [
        "he",
        "ad"
      ],
      [
        "all",
        "ow"
      ],
      [
        "wor",
        "th"
      ],
      [
        "ation",
        "shi"
      ],
      [
        "goal",
        "s"
      ],
      [
        "success",
        "ful"
      ],
      [
        "rel",
        "ationshi"
      ],
      [
        "youtu",
        "be"
      ],
      [
        "inform",
        "ation"
      ],
      [
        "c",
        "y"
      ],
      [
        "c",
        "all"
      ],
      [
        "c",
        "ur"
      ],
      [
        "d",
        "ou"
      ],
      [
        "e",
        "ar"
      ],
      [
        "f",
        "it"
      ],
      [
        "n",
        "um"
      ],
      [
        "so",
        "l"
      ],
      [
        "we",
        "ight"
      ],
      [
        "ll",
        "ow"
      ],
      [
        "fo",
        "llow"
      ],
      [
        "any",
        "thing"
      ],
      [
        "come",
        "s"
      ],
      [
        "val",
        "u"
      ],
      [
        "sci",
        "ence"
      ],
      [
        "exact",
        "ly"
      ],
      [
        "trins",
        "ic"
      ],
      [
        "conf",
        "id"
      ],
      [
        "exam",
        "ple"
      ],
      [
        "sle",
        "ep"
      ],
      [
        "b",
        "ly"
      ],
      [
        "c",
        "ed"
      ],
      [
        "c",
        "ent"
      ],
      [
        "c",
        "lear"
      ],
      [
        "e",
        "ach"
      ],
      [
        "f",
        "r"
      ],
      [
        "f",
        "ut"
      ],
      [
        "f",
        "act"
      ],
      [
        "i",
        "eve"
      ],
      [
        "m",
        "us"
      ],
      [
        "s",
        "mo"
      ],
      [
        "u",
        "ine"
      ],
      [
        "re",
        "spon"
      ],
      [
        "it",
        "ies"
      ],
      [
        "al",
        "le"
      ],
      [
        "le",
        "a"
      ],
      [
        "li",
        "on"
      ],
      [
        "li",
        "ght"
      ],
      [
        "pe",
        "t"
      ],
      [
        "ne",
        "y"
      ],
      [
        "su",
        "r"
      ],
      [
        "ad",
        "vice"
      ],
      [
        "ex",
        "t"
      ],
      [
        "qu",
        "ick"
      ],
      [
        "ment",
        "s"
      ],
      [
        "stu",
        "dy"
      ],
      [
        "person",
        "al"
      ],
      [
        "ach",
        "ieve"
      ],
      [
        "sto",
        "p"
      ],
      [
        "gen",
        "uine"
      ],
      [
        "tic",
        "ular"
      ],
      [
        "par",
        "ticular"
      ],
      [
        "loo",
        "king"
      ],
      [
        "psycho",
        "log"
      ],
      [
        "jour",
        "ney"
      ],
      [
        "num",
        "ber"
      ],
      [
        "fut",
        "ure"
      ],
      [
        "a",
        "in"
      ],
      [
        "c",
        "u"
      ],
      [
        "c",
        "tion"
      ],
      [
        "e",
        "at"
      ],
      [
        "e",
        "ating"
      ],
      [
        "f",
        "t"
      ],
      [
        "f",
        "ic"
      ],
      [
        "i",
        "er"
      ],
      [
        "m",
        "i"
      ],
      [
        "to",
        "ld"
      ],
      [
        "as",
        "ked"
      ],
      [
        "li",
        "ving"
      ],
      [
        "ke",
        "ep"
      ],
      [
        "mo",
        "del"
      ],
      [
        "de",
        "fin"
      ],
      [
        "te",
        "am"
      ],
      [
        "ep",
        "is"
      ],
      [
        "ho",
        "ld"
      ],
      [
        "wr",
        "ong"
      ],
      [
        "happen",
        "ed"
      ],
      [
        "av",
        "oid"
      ],
      [
        "add",
        "ic"
      ],
      [
        "eas",
        "y"
      ],
      [
        "si",
        "x"
      ],
      [
        "incre",
        "di"
      ],
      [
        "genuine",
        "ly"
      ],
      [
        "c",
        "en"
      ],
      [
        "f",
        "ive"
      ],
      [
        "h",
        "u"
      ],
      [
        "h",
        "ou"
      ],
      [
        "n",
        "g"
      ],
      [
        "r",
        "an"
      ],
      [
        "s",
        "ing"
      ],
      [
        "v",
        "ir"
      ],
      [
        "to",
        "day"
      ],
      [
        "it",
        "ing"
      ],
      [
        "ac",
        "tion"
      ],
      [
        "sa",
        "w"
      ],
      [
        "fo",
        "cus"
      ],
      [
        "ob",
        "vi"
      ],
      [
        "listen",
        "ing"
      ],
      [
        "experi",
        "ence"
      ],
      [
        "cer",
        "tain"
      ],
      [
        "lit",
        "erally"
      ],
      [
        "a",
        "p"
      ],
      [
        "a",
        "maz"
      ],
      [
        "b",
        "an"
      ],
      [
        "d",
        "ri"
      ],
      [
        "f",
        "as"
      ],
      [
        "h",
        "and"
      ],
      [
        "n",
        "ight"
      ],
      [
        "o",
        "t"
      ],
      [
        "at",
        "er"
      ],
      [
        "ve",
        "n"
      ],
      [
        "or",
        "der"
      ],
      [
        "le",
        "ft"
      ],
      [
        "we",
        "ar"
      ],
      [
        "fe",
        "lt"
      ],
      [
        "po",
        "ss"
      ],
      [
        "su",
        "m"
      ],
      [
        "ir",
        "d"
      ],
      [
        "ma",
        "g"
      ],
      [
        "ex",
        "c"
      ],
      [
        "im",
        "post"
      ],
      [
        "ho",
        "pe"
      ],
      [
        "imp",
        "act"
      ],
      [
        "sto",
        "ry"
      ],
      [
        "health",
        "y"
      ],
      [
        "bu",
        "y"
      ],
      [
        "cou",
        "ple"
      ],
      [
        "sk",
        "ill"
      ],
      [
        "month",
        "s"
      ],
      [
        "medi",
        "a"
      ],
      [
        "hou",
        "se"
      ],
      [
        "poss",
        "i"
      ],
      [
        "impost",
        "er"
      ],
      [
        "a",
        "go"
      ],
      [
        "b",
        "l"
      ],
      [
        "b",
        "as"
      ],
      [
        "d",
        "u"
      ],
      [
        "d",
        "ra"
      ],
      [
        "g",
        "i"
      ],
      [
        "n",
        "at"
      ],
      [
        "u",
        "su"
      ],
      [
        "u",
        "ation"
      ],
      [
        "th",
        "re"
      ],
      [
        "re",
        "f"
      ],
      [
        "it",
        "s"
      ],
      [
        "se",
        "nt"
      ],
      [
        "ch",
        "e"
      ],
      [
        "fe",
        "w"
      ],
      [
        "ge",
        "st"
      ],
      [
        "ra",
        "p"
      ],
      [
        "ul",
        "ti"
      ],
      [
        "ation",
        "s"
      ],
      [
        "di",
        "et"
      ],
      [
        "would",
        "n"
      ],
      [
        "itt",
        "en"
      ],
      [
        "gre",
        "e"
      ],
      [
        "prob",
        "le"
      ],
      [
        "ob",
        "ser"
      ],
      [
        "wr",
        "itten"
      ],
      [
        "op",
        "po"
      ],
      [
        "ans",
        "wer"
      ],
      [
        "sit",
        "uation"
      ],
      [
        "cal",
        "led"
      ],
      [
        "loo",
        "ked"
      ],
      [
        "care",
        "er"
      ],
      [
        "mat",
        "ter"
      ],
      [
        "pur",
        "pose"
      ],
      [
        "amaz",
        "ing"
      ],
      [
        "a",
        "se"
      ],
      [
        "b",
        "t"
      ],
      [
        "f",
        "y"
      ],
      [
        "h",
        "ar"
      ],
      [
        "r",
        "out"
      ],
      [
        "s",
        "al"
      ],
      [
        "s",
        "po"
      ],
      [
        "v",
        "ide"
      ],
      [
        "in",
        "es"
      ],
      [
        "en",
        "joy"
      ],
      [
        "ca",
        "se"
      ],
      [
        "ro",
        "om"
      ],
      [
        "if",
        "ic"
      ],
      [
        "po",
        "sit"
      ],
      [
        "tr",
        "ue"
      ],
      [
        "whi",
        "le"
      ],
      [
        "stu",
        "di"
      ],
      [
        "ho",
        "me"
      ],
      [
        "mar",
        "ri"
      ],
      [
        "fort",
        "un"
      ],
      [
        "moment",
        "s"
      ],
      [
        "sm",
        "all"
      ],
      [
        "realiz",
        "e"
      ],
      [
        "sc",
        "ri"
      ],
      [
        "hum",
        "an"
      ],
      [
        "stre",
        "ss"
      ],
      [
        "fam",
        "ily"
      ],
      [
        "mus",
        "ic"
      ],
      [
        "usu",
        "ally"
      ],
      [
        "thre",
        "e"
      ],
      [
        "vide",
        "o"
      ],
      [
        "0",
        "0"
      ],
      [
        "b",
        "ro"
      ],
      [
        "f",
        "u"
      ],
      [
        "f",
        "ine"
      ],
      [
        "i",
        "al"
      ],
      [
        "k",
        "en"
      ],
      [
        "l",
        "ing"
      ],
      [
        "o",
        "pport"
      ],
      [
        "t",
        "on"
      ],
      [
        "t",
        "ed"
      ],
      [
        "t",
        "able"
      ],
      [
        "v",
        "or"
      ],
      [
        "at",
        "es"
      ],
      [
        "re",
        "st"
      ],
      [
        "on",
        "ce"
      ],
      [
        "to",
        "ok"
      ],
      [
        "be",
        "d"
      ],
      [
        "li",
        "c"
      ],
      [
        "ro",
        "me"
      ],
      [
        "wi",
        "thin"
      ],
      [
        "mo",
        "ve"
      ],
      [
        "ne",
        "g"
      ],
      [
        "per",
        "fect"
      ],
      [
        "us",
        "ing"
      ],
      [
        "di",
        "re"
      ],
      [
        "nd",
        "rome"
      ],
      [
        "them",
        "selves"
      ],
      [
        "pl",
        "an"
      ],
      [
        "cho",
        "col"
      ],
      [
        "vi",
        "e"
      ],
      [
        "lu",
        "ck"
      ],
      [
        "fa",
        "vor"
      ],
      [
        "tell",
        "ing"
      ],
      [
        "read",
        "y"
      ],
      [
        "cal",
        "m"
      ],
      [
        "learn",
        "ed"
      ],
      [
        "kid",
        "s"
      ],
      [
        "sy",
        "ndrome"
      ],
      [
        "hu",
        "ge"
      ],
      [
        "opport",
        "un"
      ],
      [
        "chocol",
        "ate"
      ],
      [
        "a",
        "w"
      ],
      [
        "a",
        "ir"
      ],
      [
        "a",
        "way"
      ],
      [
        "c",
        "le"
      ],
      [
        "e",
        "v"
      ],
      [
        "f",
        "i"
      ],
      [
        "h",
        "ate"
      ],
      [
        "i",
        "mag"
      ],
      [
        "l",
        "ack"
      ],
      [
        "l",
        "ater"
      ],
      [
        "n",
        "ge"
      ],
      [
        "o",
        "de"
      ],
      [
        "s",
        "ound"
      ],
      [
        "s",
        "ign"
      ],
      [
        "t",
        "s"
      ],
      [
        "y",
        "s"
      ],
      [
        "the",
        "rap"
      ],
      [
        "on",
        "line"
      ],
      [
        "we",
        "en"
      ],
      [
        "ll",
        "ing"
      ],
      [
        "su",
        "g"
      ],
      [
        "su",
        "p"
      ],
      [
        "get",
        "s"
      ],
      [
        "pro",
        "du"
      ],
      [
        "sh",
        "ort"
      ],
      [
        "il",
        "ity"
      ],
      [
        "ful",
        "ly"
      ],
      [
        "ide",
        "a"
      ],
      [
        "iz",
        "e"
      ],
      [
        "need",
        "ed"
      ],
      [
        "week",
        "s"
      ],
      [
        "should",
        "n"
      ],
      [
        "ass",
        "ion"
      ],
      [
        "honest",
        "ly"
      ],
      [
        "bet",
        "ween"
      ],
      [
        "cha",
        "in"
      ],
      [
        "mil",
        "lion"
      ],
      [
        "dou",
        "bt"
      ],
      [
        "psycholog",
        "ical"
      ],
      [
        "epis",
        "ode"
      ],
      [
        "studi",
        "es"
      ],
      [
        "1",
        "8"
      ],
      [
        "a",
        "sed"
      ],
      [
        "f",
        "all"
      ],
      [
        "g",
        "one"
      ],
      [
        "h",
        "it"
      ],
      [
        "m",
        "or"
      ],
      [
        "p",
        "and"
      ],
      [
        "p",
        "are"
      ],
      [
        "re",
        "su"
      ],
      [
        "on",
        "t"
      ],
      [
        "ve",
        "lo"
      ],
      [
        "st",
        "eve"
      ],
      [
        "ar",
        "s"
      ],
      [
        "ch",
        "ing"
      ],
      [
        "ch",
        "alle"
      ],
      [
        "pe",
        "ct"
      ],
      [
        "ab",
        "sol"
      ],
      [
        "have",
        "n"
      ],
      [
        "de",
        "velo"
      ],
      [
        "su",
        "per"
      ],
      [
        "con",
        "sci"
      ],
      [
        "ci",
        "al"
      ],
      [
        "tr",
        "u"
      ],
      [
        "say",
        "s"
      ],
      [
        "eve",
        "nt"
      ],
      [
        "ta",
        "king"
      ],
      [
        "chan",
        "ged"
      ],
      [
        "ga",
        "me"
      ],
      [
        "will",
        "power"
      ],
      [
        "lu",
        "e"
      ],
      [
        "sp",
        "end"
      ],
      [
        "gr",
        "ou"
      ],
      [
        "big",
        "ger"
      ],
      [
        "spe",
        "aking"
      ],
      [
        "val",
        "id"
      ],
      [
        "wr",
        "ite"
      ],
      [
        "fa",
        "il"
      ],
      [
        "mar",
        "ke"
      ],
      [
        "hum",
        "ans"
      ],
      [
        "bre",
        "ak"
      ],
      [
        "maz",
        "e"
      ],
      [
        "miss",
        "ion"
      ],
      [
        "run",
        "ning"
      ],
      [
        "cra",
        "z"
      ],
      [
        "smo",
        "king"
      ],
      [
        "ran",
        "ge"
      ],
      [
        "ulti",
        "m"
      ],
      [
        "proble",
        "m"
      ],
      [
        "rout",
        "ine"
      ],
      [
        "fu",
        "ll"
      ],
      [
        "absol",
        "ute"
      ],
      [
        "develo",
        "p"
      ],
      [
        "a",
        "th"
      ],
      [
        "c",
        "r"
      ],
      [
        "g",
        "es"
      ],
      [
        "h",
        "ind"
      ],
      [
        "h",
        "und"
      ],
      [
        "j",
        "e"
      ],
      [
        "k",
        "new"
      ],
      [
        "s",
        "imp"
      ],
      [
        "v",
        "o"
      ],
      [
        "v",
        "in"
      ],
      [
        "w",
        "it"
      ],
      [
        "in",
        "se"
      ],
      [
        "in",
        "trinsic"
      ],
      [
        "ou",
        "nt"
      ],
      [
        "me",
        "ant"
      ],
      [
        "me",
        "et"
      ],
      [
        "is",
        "su"
      ],
      [
        "le",
        "ad"
      ],
      [
        "ch",
        "ild"
      ],
      [
        "we",
        "ird"
      ],
      [
        "ac",
        "ro"
      ],
      [
        "ri",
        "ch"
      ],
      [
        "lo",
        "ck"
      ],
      [
        "lo",
        "op"
      ],
      [
        "ne",
        "ar"
      ],
      [
        "de",
        "press"
      ],
      [
        "su",
        "me"
      ],
      [
        "ir",
        "l"
      ],
      [
        "there",
        "fore"
      ],
      [
        "ra",
        "st"
      ],
      [
        "ce",
        "o"
      ],
      [
        "ce",
        "pt"
      ],
      [
        "com",
        "m"
      ],
      [
        "ter",
        "ms"
      ],
      [
        "pro",
        "cess"
      ],
      [
        "chan",
        "ce"
      ],
      [
        "mean",
        "s"
      ],
      [
        "cre",
        "ate"
      ],
      [
        "give",
        "s"
      ],
      [
        "cont",
        "in"
      ],
      [
        "cont",
        "rast"
      ],
      [
        "tal",
        "ked"
      ],
      [
        "gr",
        "ow"
      ],
      [
        "part",
        "ner"
      ],
      [
        "thought",
        "s"
      ],
      [
        "gen",
        "er"
      ],
      [
        "ish",
        "ed"
      ],
      [
        "em",
        "ic"
      ],
      [
        "pri",
        "or"
      ],
      [
        "rat",
        "s"
      ],
      [
        "wal",
        "k"
      ],
      [
        "resolu",
        "tion"
      ],
      [
        "relationshi",
        "ps"
      ],
      [
        "addic",
        "tion"
      ],
      [
        "incredi",
        "bly"
      ],
      [
        "obvi",
        "ously"
      ],
      [
        "skill",
        "s"
      ],
      [
        "bas",
        "ically"
      ],
      [
        "nat",
        "ur"
      ],
      [
        "neg",
        "ative"
      ],
      [
        "sup",
        "pose"
      ],
      [
        "pand",
        "emic"
      ],
      [
        "ultim",
        "ately"
      ],
      [
        "hund",
        "red"
      ],
      [
        "1",
        "9"
      ],
      [
        "b",
        "al"
      ],
      [
        "b",
        "lue"
      ],
      [
        "f",
        "un"
      ],
      [
        "g",
        "ing"
      ],
      [
        "g",
        "irl"
      ],
      [
        "m",
        "p"
      ],
      [
        "m",
        "al"
      ],
      [
        "n",
        "y"
      ],
      [
        "n",
        "ut"
      ],
      [
        "n",
        "ine"
      ],
      [
        "n",
        "ice"
      ],
      [
        "p",
        "ay"
      ],
      [
        "s",
        "id"
      ],
      [
        "s",
        "ite"
      ],
      [
        "t",
        "re"
      ],
      [
        "u",
        "ght"
      ],
      [
        "in",
        "ci"
      ],
      [
        "ou",
        "d"
      ],
      [
        "you",
        "ng"
      ],
      [
        "st",
        "r"
      ],
      [
        "st",
        "ay"
      ],
      [
        "al",
        "ready"
      ],
      [
        "be",
        "hind"
      ],
      [
        "le",
        "ast"
      ],
      [
        "er",
        "ci"
      ],
      [
        "ar",
        "i"
      ],
      [
        "out",
        "side"
      ],
      [
        "co",
        "re"
      ],
      [
        "de",
        "ep"
      ],
      [
        "un",
        "i"
      ],
      [
        "un",
        "ch"
      ],
      [
        "beca",
        "me"
      ],
      [
        "ant",
        "ly"
      ],
      [
        "wor",
        "d"
      ],
      [
        "ra",
        "m"
      ],
      [
        "ex",
        "erci"
      ],
      [
        "our",
        "selves"
      ],
      [
        "ate",
        "st"
      ],
      [
        "ga",
        "ve"
      ],
      [
        "happ",
        "iness"
      ],
      [
        "bo",
        "th"
      ],
      [
        "see",
        "ms"
      ],
      [
        "itt",
        "ing"
      ],
      [
        "cre",
        "ative"
      ],
      [
        "cont",
        "ext"
      ],
      [
        "dif",
        "fic"
      ],
      [
        "could",
        "n"
      ],
      [
        "fa",
        "ir"
      ],
      [
        "happen",
        "s"
      ],
      [
        "reason",
        "s"
      ],
      [
        "sci",
        "enti"
      ],
      [
        "wat",
        "er"
      ],
      [
        "pr",
        "inci"
      ],
      [
        "sm",
        "art"
      ],
      [
        "comp",
        "any"
      ],
      [
        "meaning",
        "ful"
      ],
      [
        "sub",
        "scri"
      ],
      [
        "cor",
        "d"
      ],
      [
        "top",
        "ic"
      ],
      [
        "valu",
        "es"
      ],
      [
        "fr",
        "ont"
      ],
      [
        "sing",
        "le"
      ],
      [
        "posit",
        "ive"
      ],
      [
        "marri",
        "age"
      ],
      [
        "imag",
        "ine"
      ],
      [
        "resu",
        "lt"
      ],
      [
        "craz",
        "y"
      ],
      [
        "absolute",
        "ly"
      ],
      [
        "acro",
        "ss"
      ],
      [
        "exerci",
        "se"
      ],
      [
        "diffic",
        "ult"
      ],
      [
        "princi",
        "ple"
      ],
      [
        "1",
        "2"
      ],
      [
        "3",
        "0"
      ],
      [
        "b",
        "unch"
      ],
      [
        "c",
        "in"
      ],
      [
        "c",
        "ure"
      ],
      [
        "f",
        "l"
      ],
      [
        "f",
        "ar"
      ],
      [
        "f",
        "il"
      ],
      [
        "l",
        "ar"
      ],
      [
        "m",
        "ust"
      ],
      [
        "n",
        "al"
      ],
      [
        "p",
        "ast"
      ],
      [
        "r",
        "ing"
      ],
      [
        "r",
        "is"
      ],
      [
        "r",
        "id"
      ],
      [
        "v",
        "ol"
      ],
      [
        "in",
        "ion"
      ],
      [
        "an",
        "al"
      ],
      [
        "st",
        "er"
      ],
      [
        "al",
        "one"
      ],
      [
        "se",
        "cre"
      ],
      [
        "en",
        "ga"
      ],
      [
        "en",
        "vir"
      ],
      [
        "as",
        "king"
      ],
      [
        "ch",
        "ed"
      ],
      [
        "fe",
        "ar"
      ],
      [
        "ro",
        "le"
      ],
      [
        "ri",
        "es"
      ],
      [
        "lo",
        "se"
      ],
      [
        "mo",
        "ving"
      ],
      [
        "he",
        "ard"
      ],
      [
        "wor",
        "ry"
      ],
      [
        "con",
        "sid"
      ],
      [
        "per",
        "cent"
      ],
      [
        "ex",
        "pl"
      ],
      [
        "ur",
        "ing"
      ],
      [
        "int",
        "en"
      ],
      [
        "ite",
        "ly"
      ],
      [
        "gu",
        "est"
      ],
      [
        "gre",
        "atest"
      ],
      [
        "gr",
        "at"
      ],
      [
        "off",
        "ice"
      ],
      [
        "op",
        "inion"
      ],
      [
        "less",
        "on"
      ],
      [
        "understand",
        "ing"
      ],
      [
        "br",
        "ing"
      ],
      [
        "peri",
        "od"
      ],
      [
        "book",
        "s"
      ],
      [
        "ward",
        "s"
      ],
      [
        "bu",
        "ild"
      ],
      [
        "sha",
        "ke"
      ],
      [
        "sha",
        "pe"
      ],
      [
        "inst",
        "ag"
      ],
      [
        "realiz",
        "ed"
      ],
      [
        "decision",
        "s"
      ],
      [
        "cou",
        "nt"
      ],
      [
        "won",
        "der"
      ],
      [
        "guy",
        "s"
      ],
      [
        "watch",
        "ing"
      ],
      [
        "tor",
        "s"
      ],
      [
        "confid",
        "ent"
      ],
      [
        "model",
        "s"
      ],
      [
        "defin",
        "itely"
      ],
      [
        "cen",
        "ter"
      ],
      [
        "sum",
        "mer"
      ],
      [
        "ref",
        "lect"
      ],
      [
        "vie",
        "w"
      ],
      [
        "favor",
        "ite"
      ],
      [
        "therap",
        "ist"
      ],
      [
        "lock",
        "down"
      ],
      [
        "secre",
        "t"
      ],
      [
        "envir",
        "on"
      ],
      [
        "consid",
        "er"
      ],
      [
        "5",
        "0"
      ],
      [
        "_",
        "_"
      ],
      [
        "c",
        "lu"
      ],
      [
        "d",
        "r"
      ],
      [
        "e",
        "le"
      ],
      [
        "e",
        "mo"
      ],
      [
        "e",
        "ma"
      ],
      [
        "e",
        "ad"
      ],
      [
        "f",
        "our"
      ],
      [
        "g",
        "le"
      ],
      [
        "h",
        "al"
      ],
      [
        "n",
        "or"
      ],
      [
        "o",
        "s"
      ],
      [
        "r",
        "ition"
      ],
      [
        "s",
        "sed"
      ],
      [
        "s",
        "core"
      ],
      [
        "z",
        "z"
      ],
      [
        "on",
        "es"
      ],
      [
        "me",
        "t"
      ],
      [
        "al",
        "s"
      ],
      [
        "or",
        "n"
      ],
      [
        "is",
        "ing"
      ],
      [
        "en",
        "er"
      ],
      [
        "go",
        "d"
      ],
      [
        "fe",
        "ctive"
      ],
      [
        "do",
        "g"
      ],
      [
        "ut",
        "es"
      ],
      [
        "know",
        "ing"
      ],
      [
        "ri",
        "ed"
      ],
      [
        "lo",
        "gy"
      ],
      [
        "no",
        "body"
      ],
      [
        "de",
        "li"
      ],
      [
        "some",
        "where"
      ],
      [
        "su",
        "pport"
      ],
      [
        "ye",
        "t"
      ],
      [
        "con",
        "ne"
      ],
      [
        "com",
        "pl"
      ],
      [
        "te",
        "ach"
      ],
      [
        "pro",
        "ve"
      ],
      [
        "sh",
        "o"
      ],
      [
        "over",
        "come"
      ],
      [
        "ber",
        "s"
      ],
      [
        "question",
        "s"
      ],
      [
        "sp",
        "ent"
      ],
      [
        "ru",
        "le"
      ],
      [
        "wr",
        "iting"
      ],
      [
        "through",
        "out"
      ],
      [
        "read",
        "ing"
      ],
      [
        "fin",
        "an"
      ],
      [
        "experi",
        "ment"
      ],
      [
        "feeling",
        "s"
      ],
      [
        "dis",
        "comfort"
      ],
      [
        "help",
        "ed"
      ],
      [
        "eas",
        "ier"
      ],
      [
        "bre",
        "aking"
      ],
      [
        "tri",
        "ed"
      ],
      [
        "del",
        "ay"
      ],
      [
        "wa",
        "it"
      ],
      [
        "strugg",
        "ling"
      ],
      [
        "ef",
        "fective"
      ],
      [
        "resolu",
        "tions"
      ],
      [
        "relationshi",
        "p"
      ],
      [
        "confid",
        "ence"
      ],
      [
        "quick",
        "ly"
      ],
      [
        "fas",
        "cin"
      ],
      [
        "possi",
        "ble"
      ],
      [
        "oppo",
        "site"
      ],
      [
        "sal",
        "es"
      ],
      [
        "ific",
        "ation"
      ],
      [
        "challe",
        "nge"
      ],
      [
        "event",
        "ually"
      ],
      [
        "grou",
        "p"
      ],
      [
        "issu",
        "es"
      ],
      [
        "depress",
        "ion"
      ],
      [
        "nut",
        "rition"
      ],
      [
        "principle",
        "s"
      ],
      [
        "instag",
        "ram"
      ],
      [
        "hal",
        "f"
      ],
      [
        "a",
        "me"
      ],
      [
        "a",
        "ire"
      ],
      [
        "a",
        "gree"
      ],
      [
        "b",
        "i"
      ],
      [
        "b",
        "ing"
      ],
      [
        "b",
        "lic"
      ],
      [
        "b",
        "ased"
      ],
      [
        "c",
        "ri"
      ],
      [
        "d",
        "ic"
      ],
      [
        "d",
        "uring"
      ],
      [
        "f",
        "ur"
      ],
      [
        "f",
        "ast"
      ],
      [
        "p",
        "at"
      ],
      [
        "p",
        "ic"
      ],
      [
        "p",
        "hone"
      ],
      [
        "r",
        "ow"
      ],
      [
        "s",
        "or"
      ],
      [
        "t",
        "end"
      ],
      [
        "u",
        "ro"
      ],
      [
        "w",
        "ro"
      ],
      [
        "th",
        "ous"
      ],
      [
        "re",
        "g"
      ],
      [
        "re",
        "n"
      ],
      [
        "re",
        "ach"
      ],
      [
        "st",
        "y"
      ],
      [
        "st",
        "in"
      ],
      [
        "st",
        "ra"
      ],
      [
        "st",
        "age"
      ],
      [
        "ro",
        "g"
      ],
      [
        "ri",
        "c"
      ],
      [
        "co",
        "ok"
      ],
      [
        "mo",
        "ved"
      ],
      [
        "ple",
        "ase"
      ],
      [
        "ma",
        "in"
      ],
      [
        "um",
        "p"
      ],
      [
        "are",
        "n"
      ],
      [
        "wor",
        "st"
      ],
      [
        "ad",
        "ult"
      ],
      [
        "ex",
        "trinsic"
      ],
      [
        "ex",
        "pect"
      ],
      [
        "ci",
        "g"
      ],
      [
        "qu",
        "it"
      ],
      [
        "com",
        "mit"
      ],
      [
        "te",
        "ch"
      ],
      [
        "tr",
        "ack"
      ],
      [
        "pro",
        "te"
      ],
      [
        "pro",
        "mi"
      ],
      [
        "am",
        "ount"
      ],
      [
        "pl",
        "ac"
      ],
      [
        "start",
        "ing"
      ],
      [
        "pre",
        "dic"
      ],
      [
        "il",
        "ar"
      ],
      [
        "ach",
        "ie"
      ],
      [
        "big",
        "gest"
      ],
      [
        "soci",
        "ety"
      ],
      [
        "ol",
        "s"
      ],
      [
        "love",
        "d"
      ],
      [
        "pa",
        "th"
      ],
      [
        "fin",
        "ally"
      ],
      [
        "car",
        "s"
      ],
      [
        "vers",
        "ity"
      ],
      [
        "sim",
        "ilar"
      ],
      [
        "experi",
        "en"
      ],
      [
        "inst",
        "ead"
      ],
      [
        "live",
        "d"
      ],
      [
        "min",
        "utes"
      ],
      [
        "ph",
        "ys"
      ],
      [
        "motiv",
        "ated"
      ],
      [
        "comp",
        "assion"
      ],
      [
        "enti",
        "re"
      ],
      [
        "cl",
        "us"
      ],
      [
        "cl",
        "ass"
      ],
      [
        "clo",
        "ck"
      ],
      [
        "pu",
        "blic"
      ],
      [
        "pur",
        "su"
      ],
      [
        "app",
        "ro"
      ],
      [
        "step",
        "h"
      ],
      [
        "hour",
        "s"
      ],
      [
        "clear",
        "ly"
      ],
      [
        "lea",
        "ve"
      ],
      [
        "cu",
        "es"
      ],
      [
        "gi",
        "ving"
      ],
      [
        "luck",
        "y"
      ],
      [
        "opportun",
        "ity"
      ],
      [
        "sug",
        "ar"
      ],
      [
        "pare",
        "nt"
      ],
      [
        "consci",
        "ous"
      ],
      [
        "mal",
        "e"
      ],
      [
        "tre",
        "at"
      ],
      [
        "ris",
        "k"
      ],
      [
        "environ",
        "ment"
      ],
      [
        "ema",
        "il"
      ],
      [
        "ener",
        "gy"
      ],
      [
        "fur",
        "ther"
      ],
      [
        "wro",
        "te"
      ],
      [
        "thous",
        "and"
      ],
      [
        "achie",
        "ving"
      ],
      [
        "b",
        "on"
      ],
      [
        "b",
        "ar"
      ],
      [
        "c",
        "at"
      ],
      [
        "c",
        "tions"
      ],
      [
        "d",
        "ro"
      ],
      [
        "d",
        "ad"
      ],
      [
        "f",
        "und"
      ],
      [
        "g",
        "ra"
      ],
      [
        "h",
        "ion"
      ],
      [
        "h",
        "un"
      ],
      [
        "j",
        "un"
      ],
      [
        "m",
        "id"
      ],
      [
        "o",
        "te"
      ],
      [
        "p",
        "on"
      ],
      [
        "p",
        "ie"
      ],
      [
        "s",
        "n"
      ],
      [
        "s",
        "we"
      ],
      [
        "s",
        "ist"
      ],
      [
        "t",
        "ally"
      ],
      [
        "t",
        "rain"
      ],
      [
        "v",
        "ation"
      ],
      [
        "in",
        "te"
      ],
      [
        "in",
        "vol"
      ],
      [
        "re",
        "ss"
      ],
      [
        "re",
        "cent"
      ],
      [
        "to",
        "tally"
      ],
      [
        "it",
        "ive"
      ],
      [
        "st",
        "s"
      ],
      [
        "st",
        "ar"
      ],
      [
        "st",
        "air"
      ],
      [
        "se",
        "ss"
      ],
      [
        "se",
        "ven"
      ],
      [
        "wh",
        "ite"
      ],
      [
        "ly",
        "ing"
      ],
      [
        "we",
        "ak"
      ],
      [
        "ca",
        "p"
      ],
      [
        "ac",
        "cept"
      ],
      [
        "ac",
        "compl"
      ],
      [
        "know",
        "n"
      ],
      [
        "co",
        "ll"
      ],
      [
        "lo",
        "st"
      ],
      [
        "lo",
        "ad"
      ],
      [
        "ic",
        "es"
      ],
      [
        "ne",
        "t"
      ],
      [
        "ne",
        "uro"
      ],
      [
        "he",
        "ar"
      ],
      [
        "wor",
        "ked"
      ],
      [
        "con",
        "vin"
      ],
      [
        "per",
        "spe"
      ],
      [
        "qu",
        "ote"
      ],
      [
        "com",
        "ments"
      ],
      [
        "feel",
        "s"
      ],
      [
        "ct",
        "s"
      ],
      [
        "bo",
        "ard"
      ],
      [
        "itt",
        "ed"
      ],
      [
        "sto",
        "od"
      ],
      [
        "iz",
        "ed"
      ],
      [
        "sp",
        "ace"
      ],
      [
        "na",
        "me"
      ],
      [
        "bus",
        "ines"
      ],
      [
        "wo",
        "men"
      ],
      [
        "gen",
        "cy"
      ],
      [
        "mar",
        "ch"
      ],
      [
        "week",
        "end"
      ],
      [
        "take",
        "s"
      ],
      [
        "min",
        "ute"
      ],
      [
        "sc",
        "en"
      ],
      [
        "brand",
        "s"
      ],
      [
        "psycho",
        "logy"
      ],
      [
        "des",
        "cri"
      ],
      [
        "turn",
        "s"
      ],
      [
        "reward",
        "s"
      ],
      [
        "cor",
        "ner"
      ],
      [
        "research",
        "ers"
      ],
      [
        "mes",
        "sa"
      ],
      [
        "comfort",
        "able"
      ],
      [
        "ef",
        "fect"
      ],
      [
        "valu",
        "able"
      ],
      [
        "respon",
        "se"
      ],
      [
        "fas",
        "hion"
      ],
      [
        "dra",
        "w"
      ],
      [
        "fortun",
        "ate"
      ],
      [
        "fortun",
        "ately"
      ],
      [
        "bro",
        "ken"
      ],
      [
        "aw",
        "are"
      ],
      [
        "tru",
        "th"
      ],
      [
        "marke",
        "t"
      ],
      [
        "cr",
        "it"
      ],
      [
        "contin",
        "ually"
      ],
      [
        "uni",
        "versity"
      ],
      [
        "fair",
        "ly"
      ],
      [
        "fl",
        "av"
      ],
      [
        "grat",
        "ification"
      ],
      [
        "dr",
        "in"
      ],
      [
        "parent",
        "s"
      ],
      [
        "recent",
        "ly"
      ],
      [
        "stair",
        "s"
      ],
      [
        "busines",
        "ses"
      ],
      [
        "b",
        "ur"
      ],
      [
        "b",
        "ound"
      ],
      [
        "b",
        "orn"
      ],
      [
        "d",
        "a"
      ],
      [
        "d",
        "ar"
      ],
      [
        "d",
        "ed"
      ],
      [
        "e",
        "yes"
      ],
      [
        "f",
        "ac"
      ],
      [
        "g",
        "l"
      ],
      [
        "g",
        "n"
      ],
      [
        "h",
        "ed"
      ],
      [
        "i",
        "lo"
      ],
      [
        "k",
        "s"
      ],
      [
        "l",
        "on"
      ],
      [
        "l",
        "li"
      ],
      [
        "o",
        "gy"
      ],
      [
        "p",
        "en"
      ],
      [
        "s",
        "of"
      ],
      [
        "s",
        "sure"
      ],
      [
        "v",
        "it"
      ],
      [
        "th",
        "ough"
      ],
      [
        "an",
        "ti"
      ],
      [
        "at",
        "ure"
      ],
      [
        "re",
        "li"
      ],
      [
        "re",
        "pe"
      ],
      [
        "re",
        "spe"
      ],
      [
        "and",
        "y"
      ],
      [
        "st",
        "e"
      ],
      [
        "st",
        "ed"
      ],
      [
        "as",
        "ing"
      ],
      [
        "ke",
        "y"
      ],
      [
        "ch",
        "ar"
      ],
      [
        "go",
        "es"
      ],
      [
        "fe",
        "red"
      ],
      [
        "out",
        "come"
      ],
      [
        "ab",
        "or"
      ],
      [
        "ab",
        "ility"
      ],
      [
        "co",
        "gn"
      ],
      [
        "no",
        "tic"
      ],
      [
        "de",
        "p"
      ],
      [
        "de",
        "gree"
      ],
      [
        "but",
        "ton"
      ],
      [
        "con",
        "sume"
      ],
      [
        "when",
        "ever"
      ],
      [
        "ce",
        "ive"
      ],
      [
        "sa",
        "fe"
      ],
      [
        "ind",
        "ust"
      ],
      [
        "qu",
        "e"
      ],
      [
        "tr",
        "ust"
      ],
      [
        "pp",
        "ing"
      ],
      [
        "had",
        "n"
      ],
      [
        "ta",
        "ught"
      ],
      [
        "ent",
        "ly"
      ],
      [
        "pre",
        "ssure"
      ],
      [
        "ct",
        "ed"
      ],
      [
        "cho",
        "ose"
      ],
      [
        "cho",
        "ice"
      ],
      [
        "work",
        "s"
      ],
      [
        "see",
        "m"
      ],
      [
        "see",
        "ing"
      ],
      [
        "new",
        "s"
      ],
      [
        "ho",
        "od"
      ],
      [
        "give",
        "n"
      ],
      [
        "cont",
        "ri"
      ],
      [
        "sto",
        "pped"
      ],
      [
        "gre",
        "ss"
      ],
      [
        "friend",
        "shi"
      ],
      [
        "off",
        "er"
      ],
      [
        "put",
        "ting"
      ],
      [
        "different",
        "ly"
      ],
      [
        "dec",
        "ide"
      ],
      [
        "gen",
        "erally"
      ],
      [
        "ins",
        "ide"
      ],
      [
        "em",
        "p"
      ],
      [
        "become",
        "s"
      ],
      [
        "bu",
        "tion"
      ],
      [
        "sha",
        "re"
      ],
      [
        "show",
        "s"
      ],
      [
        "ser",
        "ve"
      ],
      [
        "av",
        "id"
      ],
      [
        "pr",
        "ac"
      ],
      [
        "inter",
        "rog"
      ],
      [
        "tri",
        "gg"
      ],
      [
        "clo",
        "se"
      ],
      [
        "med",
        "it"
      ],
      [
        "trins",
        "ically"
      ],
      [
        "strugg",
        "le"
      ],
      [
        "level",
        "s"
      ],
      [
        "fre",
        "el"
      ],
      [
        "cy",
        "cle"
      ],
      [
        "achieve",
        "d"
      ],
      [
        "particular",
        "ly"
      ],
      [
        "defin",
        "ition"
      ],
      [
        "avoid",
        "ing"
      ],
      [
        "incredi",
        "ble"
      ],
      [
        "dri",
        "ving"
      ],
      [
        "hope",
        "fully"
      ],
      [
        "possi",
        "bly"
      ],
      [
        "oppo",
        "sed"
      ],
      [
        "00",
        "0"
      ],
      [
        "fail",
        "ure"
      ],
      [
        "inse",
        "cur"
      ],
      [
        "gener",
        "ation"
      ],
      [
        "natur",
        "ally"
      ],
      [
        "fun",
        "ny"
      ],
      [
        "cord",
        "ing"
      ],
      [
        "anal",
        "ogy"
      ],
      [
        "enga",
        "ge"
      ],
      [
        "expl",
        "ain"
      ],
      [
        "ele",
        "ment"
      ],
      [
        "finan",
        "cial"
      ],
      [
        "bing",
        "e"
      ],
      [
        "stra",
        "ight"
      ],
      [
        "prote",
        "in"
      ],
      [
        "fund",
        "a"
      ],
      [
        "coll",
        "abor"
      ],
      [
        "flav",
        "or"
      ],
      [
        "dar",
        "k"
      ],
      [
        "notic",
        "ed"
      ],
      [
        "1",
        "6"
      ],
      [
        "b",
        "ul"
      ],
      [
        "c",
        "ut"
      ],
      [
        "c",
        "ked"
      ],
      [
        "d",
        "en"
      ],
      [
        "d",
        "avid"
      ],
      [
        "e",
        "red"
      ],
      [
        "f",
        "ra"
      ],
      [
        "f",
        "lu"
      ],
      [
        "f",
        "ish"
      ],
      [
        "f",
        "ace"
      ],
      [
        "f",
        "ire"
      ],
      [
        "h",
        "or"
      ],
      [
        "h",
        "ated"
      ],
      [
        "i",
        "v"
      ],
      [
        "j",
        "u"
      ],
      [
        "k",
        "shake"
      ],
      [
        "l",
        "in"
      ],
      [
        "m",
        "ic"
      ],
      [
        "m",
        "ine"
      ],
      [
        "m",
        "allow"
      ],
      [
        "n",
        "ally"
      ],
      [
        "o",
        "c"
      ],
      [
        "o",
        "gle"
      ],
      [
        "p",
        "up"
      ],
      [
        "p",
        "ack"
      ],
      [
        "p",
        "ass"
      ],
      [
        "s",
        "in"
      ],
      [
        "s",
        "ust"
      ],
      [
        "s",
        "light"
      ],
      [
        "s",
        "wit"
      ],
      [
        "t",
        "t"
      ],
      [
        "t",
        "v"
      ],
      [
        "t",
        "ou"
      ],
      [
        "t",
        "reme"
      ],
      [
        "w",
        "in"
      ],
      [
        "w",
        "ish"
      ],
      [
        "in",
        "ve"
      ],
      [
        "an",
        "a"
      ],
      [
        "an",
        "ies"
      ],
      [
        "an",
        "ces"
      ],
      [
        "re",
        "ci"
      ],
      [
        "re",
        "mind"
      ],
      [
        "it",
        "ed"
      ],
      [
        "it",
        "self"
      ],
      [
        "al",
        "ong"
      ],
      [
        "be",
        "n"
      ],
      [
        "be",
        "coming"
      ],
      [
        "li",
        "fy"
      ],
      [
        "ch",
        "em"
      ],
      [
        "go",
        "ogle"
      ],
      [
        "ca",
        "use"
      ],
      [
        "id",
        "ed"
      ],
      [
        "fe",
        "male"
      ],
      [
        "ac",
        "ity"
      ],
      [
        "ac",
        "cess"
      ],
      [
        "ac",
        "tiv"
      ],
      [
        "ll",
        "s"
      ],
      [
        "ri",
        "se"
      ],
      [
        "de",
        "red"
      ],
      [
        "de",
        "ath"
      ],
      [
        "wor",
        "ried"
      ],
      [
        "con",
        "st"
      ],
      [
        "con",
        "clus"
      ],
      [
        "ex",
        "per"
      ],
      [
        "ex",
        "ter"
      ],
      [
        "sa",
        "ve"
      ],
      [
        "im",
        "press"
      ],
      [
        "ate",
        "ful"
      ],
      [
        "ment",
        "ally"
      ],
      [
        "pro",
        "cra"
      ],
      [
        "pro",
        "gress"
      ],
      [
        "up",
        "on"
      ],
      [
        "di",
        "ence"
      ],
      [
        "am",
        "bit"
      ],
      [
        "sh",
        "if"
      ],
      [
        "sh",
        "mallow"
      ],
      [
        "any",
        "one"
      ],
      [
        "any",
        "more"
      ],
      [
        "every",
        "body"
      ],
      [
        "pl",
        "ans"
      ],
      [
        "pre",
        "sent"
      ],
      [
        "ct",
        "ly"
      ],
      [
        "chan",
        "ging"
      ],
      [
        "ga",
        "mes"
      ],
      [
        "il",
        "lion"
      ],
      [
        "kind",
        "ness"
      ],
      [
        "bo",
        "x"
      ],
      [
        "cho",
        "ices"
      ],
      [
        "cast",
        "ing"
      ],
      [
        "sto",
        "ck"
      ],
      [
        "iz",
        "ing"
      ],
      [
        "gr",
        "ound"
      ],
      [
        "under",
        "stood"
      ],
      [
        "ru",
        "in"
      ],
      [
        "thr",
        "ow"
      ],
      [
        "fa",
        "ther"
      ],
      [
        "bus",
        "y"
      ],
      [
        "op",
        "en"
      ],
      [
        "happen",
        "ing"
      ],
      [
        "dec",
        "ided"
      ],
      [
        "mar",
        "shmallow"
      ],
      [
        "again",
        "st"
      ],
      [
        "ist",
        "ic"
      ],
      [
        "pa",
        "id"
      ],
      [
        "ty",
        "p"
      ],
      [
        "hel",
        "ps"
      ],
      [
        "vers",
        "ion"
      ],
      [
        "jo",
        "e"
      ],
      [
        "sha",
        "me"
      ],
      [
        "pri",
        "v"
      ],
      [
        "pr",
        "of"
      ],
      [
        "find",
        "ing"
      ],
      [
        "man",
        "age"
      ],
      [
        "comp",
        "anies"
      ],
      [
        "mer",
        "ced"
      ],
      [
        "inter",
        "net"
      ],
      [
        "cl",
        "oud"
      ],
      [
        "stre",
        "ssed"
      ],
      [
        "ag",
        "es"
      ],
      [
        "wa",
        "ve"
      ],
      [
        "pu",
        "bl"
      ],
      [
        "app",
        "reci"
      ],
      [
        "fre",
        "e"
      ],
      [
        "mil",
        "kshake"
      ],
      [
        "wal",
        "king"
      ],
      [
        "au",
        "dience"
      ],
      [
        "stri",
        "ctly"
      ],
      [
        "second",
        "ary"
      ],
      [
        "dou",
        "ble"
      ],
      [
        "sol",
        "ve"
      ],
      [
        "respon",
        "si"
      ],
      [
        "sur",
        "pri"
      ],
      [
        "cu",
        "ri"
      ],
      [
        "obvi",
        "ous"
      ],
      [
        "ap",
        "pe"
      ],
      [
        "wear",
        "ing"
      ],
      [
        "exc",
        "use"
      ],
      [
        "sent",
        "ence"
      ],
      [
        "che",
        "ck"
      ],
      [
        "diet",
        "s"
      ],
      [
        "obser",
        "ve"
      ],
      [
        "obser",
        "vation"
      ],
      [
        "har",
        "der"
      ],
      [
        "dire",
        "ct"
      ],
      [
        "opportun",
        "ities"
      ],
      [
        "mor",
        "ning"
      ],
      [
        "develop",
        "ed"
      ],
      [
        "simp",
        "lify"
      ],
      [
        "near",
        "ly"
      ],
      [
        "hundred",
        "s"
      ],
      [
        "girl",
        "friend"
      ],
      [
        "scienti",
        "sts"
      ],
      [
        "subscri",
        "bers"
      ],
      [
        "result",
        "s"
      ],
      [
        "fil",
        "led"
      ],
      [
        "lar",
        "ge"
      ],
      [
        "wonder",
        "ful"
      ],
      [
        "sty",
        "le"
      ],
      [
        "commit",
        "ment"
      ],
      [
        "phys",
        "ical"
      ],
      [
        "appro",
        "ach"
      ],
      [
        "steph",
        "en"
      ],
      [
        "jun",
        "k"
      ],
      [
        "accompl",
        "ish"
      ],
      [
        "scen",
        "ari"
      ],
      [
        "indust",
        "ry"
      ],
      [
        "contri",
        "bution"
      ],
      [
        "sust",
        "ain"
      ],
      [
        "treme",
        "nd"
      ],
      [
        "procra",
        "stin"
      ],
      [
        "merced",
        "es"
      ],
      [
        "a",
        "do"
      ],
      [
        "b",
        "urn"
      ],
      [
        "b",
        "ility"
      ],
      [
        "b",
        "illion"
      ],
      [
        "c",
        "li"
      ],
      [
        "c",
        "ity"
      ],
      [
        "c",
        "ue"
      ],
      [
        "d",
        "le"
      ],
      [
        "d",
        "um"
      ],
      [
        "d",
        "ru"
      ],
      [
        "f",
        "er"
      ],
      [
        "f",
        "ight"
      ],
      [
        "f",
        "ill"
      ],
      [
        "f",
        "light"
      ],
      [
        "f",
        "itting"
      ],
      [
        "g",
        "s"
      ],
      [
        "h",
        "y"
      ],
      [
        "i",
        "se"
      ],
      [
        "i",
        "ent"
      ],
      [
        "j",
        "ump"
      ],
      [
        "l",
        "ou"
      ],
      [
        "m",
        "ing"
      ],
      [
        "m",
        "pa"
      ],
      [
        "n",
        "i"
      ],
      [
        "p",
        "ul"
      ],
      [
        "p",
        "assion"
      ],
      [
        "s",
        "ca"
      ],
      [
        "s",
        "can"
      ],
      [
        "t",
        "wi"
      ],
      [
        "t",
        "our"
      ],
      [
        "t",
        "ure"
      ],
      [
        "t",
        "wit"
      ],
      [
        "u",
        "k"
      ],
      [
        "w",
        "all"
      ],
      [
        "w",
        "ers"
      ],
      [
        "z",
        "o"
      ],
      [
        "th",
        "ird"
      ],
      [
        "in",
        "valid"
      ],
      [
        "an",
        "e"
      ],
      [
        "an",
        "g"
      ],
      [
        "ou",
        "n"
      ],
      [
        "at",
        "or"
      ],
      [
        "re",
        "move"
      ],
      [
        "re",
        "bound"
      ],
      [
        "to",
        "ms"
      ],
      [
        "to",
        "wards"
      ],
      [
        "it",
        "al"
      ],
      [
        "st",
        "range"
      ],
      [
        "se",
        "nd"
      ],
      [
        "se",
        "par"
      ],
      [
        "se",
        "lling"
      ],
      [
        "that",
        "ching"
      ],
      [
        "or",
        "d"
      ],
      [
        "be",
        "ar"
      ],
      [
        "be",
        "have"
      ],
      [
        "as",
        "h"
      ],
      [
        "as",
        "ha"
      ],
      [
        "as",
        "soci"
      ],
      [
        "li",
        "er"
      ],
      [
        "li",
        "ed"
      ],
      [
        "li",
        "mit"
      ],
      [
        "er",
        "ial"
      ],
      [
        "ar",
        "ri"
      ],
      [
        "ar",
        "ily"
      ],
      [
        "ke",
        "s"
      ],
      [
        "so",
        "ph"
      ],
      [
        "ch",
        "est"
      ],
      [
        "es",
        "sen"
      ],
      [
        "ti",
        "ce"
      ],
      [
        "ti",
        "mis"
      ],
      [
        "ver",
        "t"
      ],
      [
        "ca",
        "de"
      ],
      [
        "ca",
        "using"
      ],
      [
        "id",
        "ence"
      ],
      [
        "id",
        "ols"
      ],
      [
        "fe",
        "ed"
      ],
      [
        "ac",
        "tions"
      ],
      [
        "ac",
        "cording"
      ],
      [
        "for",
        "ward"
      ],
      [
        "for",
        "med"
      ],
      [
        "ro",
        "of"
      ],
      [
        "ro",
        "lls"
      ],
      [
        "do",
        "m"
      ],
      [
        "do",
        "or"
      ],
      [
        "know",
        "s"
      ],
      [
        "know",
        "led"
      ],
      [
        "co",
        "st"
      ],
      [
        "lo",
        "ss"
      ],
      [
        "if",
        "f"
      ],
      [
        "ne",
        "ur"
      ],
      [
        "he",
        "art"
      ],
      [
        "de",
        "al"
      ],
      [
        "de",
        "pri"
      ],
      [
        "de",
        "serve"
      ],
      [
        "some",
        "what"
      ],
      [
        "po",
        "or"
      ],
      [
        "are",
        "a"
      ],
      [
        "ad",
        "mit"
      ],
      [
        "con",
        "tr"
      ],
      [
        "ex",
        "ist"
      ],
      [
        "qu",
        "i"
      ],
      [
        "od",
        "es"
      ],
      [
        "te",
        "red"
      ],
      [
        "up",
        "set"
      ],
      [
        "di",
        "e"
      ],
      [
        "any",
        "way"
      ],
      [
        "ta",
        "int"
      ],
      [
        "ent",
        "s"
      ],
      [
        "pre",
        "vi"
      ],
      [
        "ig",
        "ning"
      ],
      [
        "were",
        "n"
      ],
      [
        "see",
        "king"
      ],
      [
        "cre",
        "ated"
      ],
      [
        "gr",
        "ateful"
      ],
      [
        "ob",
        "sess"
      ],
      [
        "fa",
        "i"
      ],
      [
        "wo",
        "man"
      ],
      [
        "op",
        "timis"
      ],
      [
        "ans",
        "wers"
      ],
      [
        "ten",
        "s"
      ],
      [
        "ask",
        "s"
      ],
      [
        "car",
        "ry"
      ],
      [
        "car",
        "pet"
      ],
      [
        "cal",
        "or"
      ],
      [
        "show",
        "n"
      ],
      [
        "dis",
        "agree"
      ],
      [
        "help",
        "ful"
      ],
      [
        "ph",
        "ilo"
      ],
      [
        "inter",
        "nal"
      ],
      [
        "tri",
        "ck"
      ],
      [
        "mat",
        "erial"
      ],
      [
        "behavior",
        "s"
      ],
      [
        "simple",
        "r"
      ],
      [
        "power",
        "less"
      ],
      [
        "cer",
        "taint"
      ],
      [
        "sub",
        "st"
      ],
      [
        "sub",
        "je"
      ],
      [
        "pu",
        "zz"
      ],
      [
        "sy",
        "mp"
      ],
      [
        "strugg",
        "led"
      ],
      [
        "fam",
        "ous"
      ],
      [
        "play",
        "ing"
      ],
      [
        "play",
        "ed"
      ],
      [
        "allow",
        "ed"
      ],
      [
        "ear",
        "ly"
      ],
      [
        "ear",
        "lier"
      ],
      [
        "fr",
        "id"
      ],
      [
        "psycholog",
        "ist"
      ],
      [
        "epis",
        "odes"
      ],
      [
        "hold",
        "ing"
      ],
      [
        "vir",
        "us"
      ],
      [
        "exc",
        "iting"
      ],
      [
        "enjoy",
        "ing"
      ],
      [
        "dire",
        "c"
      ],
      [
        "ev",
        "idence"
      ],
      [
        "fi",
        "ed"
      ],
      [
        "sug",
        "gest"
      ],
      [
        "million",
        "aire"
      ],
      [
        "tru",
        "ly"
      ],
      [
        "vo",
        "ice"
      ],
      [
        "inse",
        "cure"
      ],
      [
        "comm",
        "un"
      ],
      [
        "prior",
        "it"
      ],
      [
        "natur",
        "al"
      ],
      [
        "negative",
        "s"
      ],
      [
        "str",
        "ong"
      ],
      [
        "subscri",
        "be"
      ],
      [
        "ring",
        "ing"
      ],
      [
        "lesson",
        "s"
      ],
      [
        "clu",
        "b"
      ],
      [
        "emo",
        "tion"
      ],
      [
        "fascin",
        "ating"
      ],
      [
        "pic",
        "ture"
      ],
      [
        "sor",
        "ry"
      ],
      [
        "cook",
        "ies"
      ],
      [
        "promi",
        "se"
      ],
      [
        "predic",
        "table"
      ],
      [
        "mid",
        "dle"
      ],
      [
        "sn",
        "iff"
      ],
      [
        "inte",
        "rest"
      ],
      [
        "cap",
        "acity"
      ],
      [
        "neuro",
        "log"
      ],
      [
        "convin",
        "ce"
      ],
      [
        "perspe",
        "ctive"
      ],
      [
        "weekend",
        "s"
      ],
      [
        "bur",
        "nt"
      ],
      [
        "sof",
        "t"
      ],
      [
        "reli",
        "gi"
      ],
      [
        "prac",
        "tic"
      ],
      [
        "insecur",
        "ities"
      ],
      [
        "ju",
        "d"
      ],
      [
        "pup",
        "pet"
      ],
      [
        "sin",
        "ce"
      ],
      [
        "chem",
        "ical"
      ],
      [
        "activ",
        "ity"
      ],
      [
        "priv",
        "ate"
      ],
      [
        "prof",
        "ess"
      ],
      [
        "twit",
        "ter"
      ],
      [
        "asha",
        "med"
      ],
      [
        "optimis",
        "m"
      ],
      [
        "philo",
        "soph"
      ],
      [
        "certaint",
        "y"
      ],
      [
        "puzz",
        "le"
      ],
      [
        "symp",
        "toms"
      ],
      [
        "1",
        "5"
      ],
      [
        "2",
        "5"
      ],
      [
        "6",
        "0"
      ],
      [
        "a",
        "im"
      ],
      [
        "a",
        "ff"
      ],
      [
        "a",
        "ins"
      ],
      [
        "b",
        "in"
      ],
      [
        "b",
        "ri"
      ],
      [
        "b",
        "art"
      ],
      [
        "c",
        "ing"
      ],
      [
        "c",
        "as"
      ],
      [
        "c",
        "ro"
      ],
      [
        "c",
        "ir"
      ],
      [
        "d",
        "ate"
      ],
      [
        "e",
        "em"
      ],
      [
        "e",
        "lect"
      ],
      [
        "f",
        "an"
      ],
      [
        "f",
        "ig"
      ],
      [
        "f",
        "ting"
      ],
      [
        "f",
        "itted"
      ],
      [
        "g",
        "lo"
      ],
      [
        "h",
        "art"
      ],
      [
        "i",
        "est"
      ],
      [
        "j",
        "an"
      ],
      [
        "l",
        "and"
      ],
      [
        "l",
        "ce"
      ],
      [
        "l",
        "ish"
      ],
      [
        "m",
        "ou"
      ],
      [
        "m",
        "ir"
      ],
      [
        "m",
        "ist"
      ],
      [
        "m",
        "ass"
      ],
      [
        "n",
        "on"
      ],
      [
        "p",
        "an"
      ],
      [
        "p",
        "us"
      ],
      [
        "p",
        "ter"
      ],
      [
        "p",
        "am"
      ],
      [
        "p",
        "tion"
      ],
      [
        "r",
        "on"
      ],
      [
        "r",
        "ad"
      ],
      [
        "r",
        "up"
      ],
      [
        "s",
        "ad"
      ],
      [
        "s",
        "ity"
      ],
      [
        "s",
        "ize"
      ],
      [
        "t",
        "in"
      ],
      [
        "t",
        "ough"
      ],
      [
        "u",
        "al"
      ],
      [
        "u",
        "ary"
      ],
      [
        "u",
        "nex"
      ],
      [
        "w",
        "an"
      ],
      [
        "w",
        "ind"
      ],
      [
        "x",
        "y"
      ],
      [
        "y",
        "or"
      ],
      [
        "in",
        "clu"
      ],
      [
        "an",
        "n"
      ],
      [
        "an",
        "im"
      ],
      [
        "at",
        "t"
      ],
      [
        "at",
        "ta"
      ],
      [
        "at",
        "form"
      ],
      [
        "at",
        "tain"
      ],
      [
        "re",
        "ve"
      ],
      [
        "re",
        "com"
      ],
      [
        "re",
        "pre"
      ],
      [
        "re",
        "son"
      ],
      [
        "re",
        "stri"
      ],
      [
        "re",
        "lea"
      ],
      [
        "re",
        "action"
      ],
      [
        "re",
        "moved"
      ],
      [
        "re",
        "main"
      ],
      [
        "on",
        "istic"
      ],
      [
        "to",
        "ber"
      ],
      [
        "to",
        "mor"
      ],
      [
        "it",
        "u"
      ],
      [
        "st",
        "up"
      ],
      [
        "st",
        "ick"
      ],
      [
        "me",
        "nd"
      ],
      [
        "al",
        "co"
      ],
      [
        "se",
        "ll"
      ],
      [
        "se",
        "qu"
      ],
      [
        "be",
        "au"
      ],
      [
        "as",
        "sum"
      ],
      [
        "as",
        "sume"
      ],
      [
        "ar",
        "tic"
      ],
      [
        "ke",
        "vin"
      ],
      [
        "ch",
        "ess"
      ],
      [
        "ch",
        "ur"
      ],
      [
        "we",
        "alth"
      ],
      [
        "ti",
        "ll"
      ],
      [
        "ti",
        "ally"
      ],
      [
        "ti",
        "ful"
      ],
      [
        "ti",
        "red"
      ],
      [
        "ti",
        "fy"
      ],
      [
        "ca",
        "ve"
      ],
      [
        "ca",
        "ses"
      ],
      [
        "id",
        "enti"
      ],
      [
        "for",
        "d"
      ],
      [
        "for",
        "get"
      ],
      [
        "for",
        "ced"
      ],
      [
        "ro",
        "ad"
      ],
      [
        "do",
        "lce"
      ],
      [
        "do",
        "pam"
      ],
      [
        "pe",
        "lling"
      ],
      [
        "ion",
        "s"
      ],
      [
        "ri",
        "ble"
      ],
      [
        "lo",
        "y"
      ],
      [
        "lo",
        "lli"
      ],
      [
        "no",
        "se"
      ],
      [
        "ple",
        "as"
      ],
      [
        "ic",
        "ate"
      ],
      [
        "ne",
        "l"
      ],
      [
        "ne",
        "cess"
      ],
      [
        "he",
        "a"
      ],
      [
        "ust",
        "r"
      ],
      [
        "de",
        "ta"
      ],
      [
        "de",
        "fine"
      ],
      [
        "un",
        "follow"
      ],
      [
        "un",
        "healthy"
      ],
      [
        "un",
        "certainty"
      ],
      [
        "po",
        "p"
      ],
      [
        "ma",
        "ge"
      ],
      [
        "ant",
        "s"
      ],
      [
        "ad",
        "m"
      ],
      [
        "con",
        "cept"
      ],
      [
        "ra",
        "ising"
      ],
      [
        "ex",
        "tra"
      ],
      [
        "im",
        "possible"
      ],
      [
        "ci",
        "ous"
      ],
      [
        "com",
        "ment"
      ],
      [
        "com",
        "pet"
      ],
      [
        "com",
        "pelling"
      ],
      [
        "want",
        "ing"
      ],
      [
        "tr",
        "ans"
      ],
      [
        "life",
        "style"
      ],
      [
        "di",
        "ag"
      ],
      [
        "am",
        "ins"
      ],
      [
        "end",
        "ing"
      ],
      [
        "got",
        "ta"
      ],
      [
        "ent",
        "repre"
      ],
      [
        "pl",
        "atform"
      ],
      [
        "est",
        "eem"
      ],
      [
        "pre",
        "pare"
      ],
      [
        "int",
        "ing"
      ],
      [
        "int",
        "ro"
      ],
      [
        "int",
        "el"
      ],
      [
        "chan",
        "nel"
      ],
      [
        "il",
        "t"
      ],
      [
        "ard",
        "en"
      ],
      [
        "happ",
        "ier"
      ],
      [
        "lot",
        "s"
      ],
      [
        "ful",
        "fill"
      ],
      [
        "bo",
        "o"
      ],
      [
        "ide",
        "as"
      ],
      [
        "ho",
        "l"
      ],
      [
        "person",
        "ally"
      ],
      [
        "vi",
        "le"
      ],
      [
        "et",
        "s"
      ],
      [
        "point",
        "less"
      ],
      [
        "fri",
        "ction"
      ],
      [
        "sto",
        "ries"
      ],
      [
        "sp",
        "ir"
      ],
      [
        "gr",
        "y"
      ],
      [
        "gr",
        "and"
      ],
      [
        "gr",
        "ad"
      ],
      [
        "fir",
        "m"
      ],
      [
        "lear",
        "ning"
      ],
      [
        "alth",
        "ough"
      ],
      [
        "brain",
        "s"
      ],
      [
        "pa",
        "in"
      ],
      [
        "pa",
        "per"
      ],
      [
        "long",
        "er"
      ],
      [
        "ty",
        "pe"
      ],
      [
        "let",
        "t"
      ],
      [
        "em",
        "bar"
      ],
      [
        "rel",
        "ates"
      ],
      [
        "sha",
        "red"
      ],
      [
        "mon",
        "o"
      ],
      [
        "pri",
        "vile"
      ],
      [
        "dis",
        "order"
      ],
      [
        "pr",
        "ising"
      ],
      [
        "af",
        "fect"
      ],
      [
        "realiz",
        "ing"
      ],
      [
        "10",
        "0"
      ],
      [
        "ph",
        "ra"
      ],
      [
        "sen",
        "s"
      ],
      [
        "ses",
        "sed"
      ],
      [
        "man",
        "chest"
      ],
      [
        "ie",
        "ld"
      ],
      [
        "cha",
        "os"
      ],
      [
        "cha",
        "pter"
      ],
      [
        "enti",
        "al"
      ],
      [
        "clo",
        "ser"
      ],
      [
        "incre",
        "ase"
      ],
      [
        "des",
        "per"
      ],
      [
        "des",
        "ign"
      ],
      [
        "sk",
        "y"
      ],
      [
        "sk",
        "in"
      ],
      [
        "great",
        "er"
      ],
      [
        "power",
        "ful"
      ],
      [
        "anxi",
        "ous"
      ],
      [
        "tra",
        "vel"
      ],
      [
        "men",
        "tion"
      ],
      [
        "job",
        "s"
      ],
      [
        "sat",
        "is"
      ],
      [
        "high",
        "er"
      ],
      [
        "ef",
        "fort"
      ],
      [
        "fre",
        "qu"
      ],
      [
        "col",
        "lea"
      ],
      [
        "stri",
        "ving"
      ],
      [
        "allow",
        "ing"
      ],
      [
        "follow",
        "ed"
      ],
      [
        "respon",
        "d"
      ],
      [
        "sur",
        "prising"
      ],
      [
        "ext",
        "reme"
      ],
      [
        "study",
        "ing"
      ],
      [
        "addic",
        "tive"
      ],
      [
        "cen",
        "tr"
      ],
      [
        "ban",
        "ana"
      ],
      [
        "hand",
        "s"
      ],
      [
        "exc",
        "ited"
      ],
      [
        "buy",
        "ing"
      ],
      [
        "bl",
        "ame"
      ],
      [
        "nat",
        "ure"
      ],
      [
        "spo",
        "t"
      ],
      [
        "spo",
        "tify"
      ],
      [
        "lic",
        "ity"
      ],
      [
        "produ",
        "cts"
      ],
      [
        "pect",
        "ed"
      ],
      [
        "consci",
        "ously"
      ],
      [
        "spend",
        "ing"
      ],
      [
        "valid",
        "ation"
      ],
      [
        "je",
        "ans"
      ],
      [
        "simp",
        "licity"
      ],
      [
        "contin",
        "ue"
      ],
      [
        "prior",
        "ities"
      ],
      [
        "bal",
        "ance"
      ],
      [
        "worry",
        "ing"
      ],
      [
        "inten",
        "tion"
      ],
      [
        "build",
        "ing"
      ],
      [
        "emo",
        "tions"
      ],
      [
        "nor",
        "th"
      ],
      [
        "deli",
        "ver"
      ],
      [
        "fascin",
        "ated"
      ],
      [
        "cig",
        "are"
      ],
      [
        "experien",
        "ces"
      ],
      [
        "pursu",
        "it"
      ],
      [
        "bon",
        "us"
      ],
      [
        "dro",
        "pped"
      ],
      [
        "pon",
        "der"
      ],
      [
        "pie",
        "ce"
      ],
      [
        "sist",
        "er"
      ],
      [
        "accept",
        "ance"
      ],
      [
        "load",
        "s"
      ],
      [
        "descri",
        "bed"
      ],
      [
[...]
